{
  "version": "1.0",
  "truncation": null,
  "padding": null,
  "added_tokens": [
    {
      "id": 0,
      "content": "<BOS>",
      "single_word": false,
      "lstrip": false,
      "rstrip": false,
      "normalized": false,
      "special": true
    },
    {
      "id": 1,
      "content": "<EOS>",
      "single_word": false,
      "lstrip": false,
      "rstrip": false,
      "normalized": false,
      "special": true
    },
    {
      "id": 50174,
      "content": "<start_of_turn>",
      "single_word": false,
      "lstrip": false,
      "rstrip": false,
      "normalized": false,
      "special": true
    },
    {
      "id": 50175,
      "content": "<end_of_turn>",
      "single_word": false,
      "lstrip": false,
      "rstrip": false,
      "normalized": false,
      "special": true
    }
  ],
  "normalizer": null,
  "pre_tokenizer": {
    "type": "ByteLevel",
    "add_prefix_space": false,
    "trim_offsets": true,
    "use_regex": true
  },
  "post_processor": {
    "type": "TemplateProcessing",
    "single": [
      {
        "Sequence": {
          "id": "A",
          "type_id": 0
        }
      }
    ],
    "pair": [
      {
        "Sequence": {
          "id": "A",
          "type_id": 0
        }
      },
      {
        "Sequence": {
          "id": "B",
          "type_id": 1
        }
      }
    ],
    "special_tokens": {}
  },
  "decoder": {
    "type": "ByteLevel",
    "add_prefix_space": true,
    "trim_offsets": true,
    "use_regex": true
  },
  "model": {
    "type": "BPE",
    "dropout": null,
    "unk_token": null,
    "continuing_subword_prefix": null,
    "end_of_word_suffix": null,
    "fuse_unk": false,
    "byte_fallback": false,
    "ignore_merges": false,
    "vocab": {
      "<BOS>": 0,
      "<EOS>": 1,
      "!": 2,
      "\"": 3,
      "#": 4,
      "$": 5,
      "%": 6,
      "&": 7,
      "'": 8,
      "(": 9,
      ")": 10,
      "*": 11,
      "+": 12,
      ",": 13,
      "-": 14,
      ".": 15,
      "/": 16,
      "0": 17,
      "1": 18,
      "2": 19,
      "3": 20,
      "4": 21,
      "5": 22,
      "6": 23,
      "7": 24,
      "8": 25,
      "9": 26,
      ":": 27,
      ";": 28,
      "<": 29,
      "=": 30,
      ">": 31,
      "?": 32,
      "@": 33,
      "A": 34,
      "B": 35,
      "C": 36,
      "D": 37,
      "E": 38,
      "F": 39,
      "G": 40,
      "H": 41,
      "I": 42,
      "J": 43,
      "K": 44,
      "L": 45,
      "M": 46,
      "N": 47,
      "O": 48,
      "P": 49,
      "Q": 50,
      "R": 51,
      "S": 52,
      "T": 53,
      "U": 54,
      "V": 55,
      "W": 56,
      "X": 57,
      "Y": 58,
      "Z": 59,
      "[": 60,
      "\\": 61,
      "]": 62,
      "^": 63,
      "_": 64,
      "`": 65,
      "a": 66,
      "b": 67,
      "c": 68,
      "d": 69,
      "e": 70,
      "f": 71,
      "g": 72,
      "h": 73,
      "i": 74,
      "j": 75,
      "k": 76,
      "l": 77,
      "m": 78,
      "n": 79,
      "o": 80,
      "p": 81,
      "q": 82,
      "r": 83,
      "s": 84,
      "t": 85,
      "u": 86,
      "v": 87,
      "w": 88,
      "x": 89,
      "y": 90,
      "z": 91,
      "{": 92,
      "|": 93,
      "}": 94,
      "~": 95,
      "¡": 96,
      "¢": 97,
      "£": 98,
      "¤": 99,
      "¥": 100,
      "¦": 101,
      "§": 102,
      "¨": 103,
      "©": 104,
      "ª": 105,
      "«": 106,
      "¬": 107,
      "®": 108,
      "¯": 109,
      "°": 110,
      "±": 111,
      "²": 112,
      "³": 113,
      "´": 114,
      "µ": 115,
      "¶": 116,
      "·": 117,
      "¸": 118,
      "¹": 119,
      "º": 120,
      "»": 121,
      "¼": 122,
      "½": 123,
      "¾": 124,
      "¿": 125,
      "À": 126,
      "Á": 127,
      "Â": 128,
      "Ã": 129,
      "Ä": 130,
      "Å": 131,
      "Æ": 132,
      "Ç": 133,
      "È": 134,
      "É": 135,
      "Ê": 136,
      "Ë": 137,
      "Ì": 138,
      "Í": 139,
      "Î": 140,
      "Ï": 141,
      "Ð": 142,
      "Ñ": 143,
      "Ò": 144,
      "Ó": 145,
      "Ô": 146,
      "Õ": 147,
      "Ö": 148,
      "×": 149,
      "Ø": 150,
      "Ù": 151,
      "Ú": 152,
      "Û": 153,
      "Ü": 154,
      "Ý": 155,
      "Þ": 156,
      "ß": 157,
      "à": 158,
      "á": 159,
      "â": 160,
      "ã": 161,
      "ä": 162,
      "å": 163,
      "æ": 164,
      "ç": 165,
      "è": 166,
      "é": 167,
      "ê": 168,
      "ë": 169,
      "ì": 170,
      "í": 171,
      "î": 172,
      "ï": 173,
      "ð": 174,
      "ñ": 175,
      "ò": 176,
      "ó": 177,
      "ô": 178,
      "õ": 179,
      "ö": 180,
      "÷": 181,
      "ø": 182,
      "ù": 183,
      "ú": 184,
      "û": 185,
      "ü": 186,
      "ý": 187,
      "þ": 188,
      "ÿ": 189,
      "Ā": 190,
      "ā": 191,
      "Ă": 192,
      "ă": 193,
      "Ą": 194,
      "ą": 195,
      "Ć": 196,
      "ć": 197,
      "Ĉ": 198,
      "ĉ": 199,
      "Ċ": 200,
      "ċ": 201,
      "Č": 202,
      "č": 203,
      "Ď": 204,
      "ď": 205,
      "Đ": 206,
      "đ": 207,
      "Ē": 208,
      "ē": 209,
      "Ĕ": 210,
      "ĕ": 211,
      "Ė": 212,
      "ė": 213,
      "Ę": 214,
      "ę": 215,
      "Ě": 216,
      "ě": 217,
      "Ĝ": 218,
      "ĝ": 219,
      "Ğ": 220,
      "ğ": 221,
      "Ġ": 222,
      "ġ": 223,
      "Ģ": 224,
      "ģ": 225,
      "Ĥ": 226,
      "ĥ": 227,
      "Ħ": 228,
      "ħ": 229,
      "Ĩ": 230,
      "ĩ": 231,
      "Ī": 232,
      "ī": 233,
      "Ĭ": 234,
      "ĭ": 235,
      "Į": 236,
      "į": 237,
      "İ": 238,
      "ı": 239,
      "Ĳ": 240,
      "ĳ": 241,
      "Ĵ": 242,
      "ĵ": 243,
      "Ķ": 244,
      "ķ": 245,
      "ĸ": 246,
      "Ĺ": 247,
      "ĺ": 248,
      "Ļ": 249,
      "ļ": 250,
      "Ľ": 251,
      "ľ": 252,
      "Ŀ": 253,
      "ŀ": 254,
      "Ł": 255,
      "ł": 256,
      "Ń": 257,
      "io": 258,
      "ea": 259,
      "ha": 260,
      "ro": 261,
      "Ġm": 262,
      "in": 263,
      "ic": 264,
      "ion": 265,
      "Ġd": 266,
      "co": 267,
      "ra": 268,
      "me": 269,
      "tion": 270,
      "ll": 271,
      "Ġe": 272,
      "ta": 273,
      "as": 274,
      "ce": 275,
      "ur": 276,
      "Ġco": 277,
      "Ġr": 278,
      "Ġl": 279,
      "ne": 280,
      "de": 281,
      "be": 282,
      "us": 283,
      "fo": 284,
      "pe": 285,
      "Ġh": 286,
      "ri": 287,
      "ts": 288,
      "ge": 289,
      "rs": 290,
      "ch": 291,
      "ca": 292,
      "Ġre": 293,
      "for": 294,
      "Ġbe": 295,
      "la": 296,
      "âĢ": 297,
      "un": 298,
      "so": 299,
      "an": 300,
      "and": 301,
      "Ġand": 302,
      "ut": 303,
      "ĠT": 304,
      "ct": 305,
      "po": 306,
      "ie": 307,
      "hat": 308,
      "no": 309,
      "si": 310,
      "wi": 311,
      "ly": 312,
      "we": 313,
      "Ġwi": 314,
      "Ġfor": 315,
      "er": 316,
      "ho": 317,
      "iv": 318,
      "ss": 319,
      "ter": 320,
      "lo": 321,
      "ĠA": 322,
      "Ġca": 323,
      "Ġha": 324,
      "Ġg": 325,
      "il": 326,
      "pro": 327,
      "ĠS": 328,
      "that": 329,
      "Ġthat": 330,
      "Ġy": 331,
      "pa": 332,
      "her": 333,
      "rt": 334,
      "ĠC": 335,
      "ĠI": 336,
      "ul": 337,
      "Ġde": 338,
      "ty": 339,
      "men": 340,
      "ir": 341,
      "Ġas": 342,
      "ma": 343,
      "Ġpro": 344,
      "ee": 345,
      "ĠTh": 346,
      "Ġmo": 347,
      "ia": 348,
      "Ġcon": 349,
      "Ġma": 350,
      "gh": 351,
      "ke": 352,
      "Ġyo": 353,
      "bo": 354,
      "wo": 355,
      "Ġwit": 356,
      "re": 357,
      "are": 358,
      "Ġare": 359,
      "Ġwith": 360,
      "bl": 361,
      "ive": 362,
      "Ġv": 363,
      "if": 364,
      "em": 365,
      "Ġso": 366,
      "ica": 367,
      "Ġ(": 368,
      "ry": 369,
      "Ġno": 370,
      "pl": 371,
      "ĠM": 372,
      "rea": 373,
      "ns": 374,
      "Ġwe": 375,
      "hi": 376,
      "ĠP": 377,
      "ĠThe": 378,
      "ther": 379,
      "tin": 380,
      "su": 381,
      "Ġ1": 382,
      "use": 383,
      "nce": 384,
      "Ġex": 385,
      "ver": 386,
      "el": 387,
      "wa": 388,
      "na": 389,
      "wh": 390,
      "ine": 391,
      "id": 392,
      "Ġwo": 393,
      "âĢĻ": 394,
      "ĠB": 395,
      "ure": 396,
      "Ġpo": 397,
      "ear": 398,
      "Ġwh": 399,
      "im": 400,
      "Ġpa": 401,
      "by": 402,
      "ow": 403,
      "tra": 404,
      "qu": 405,
      "sta": 406,
      "Ġcom": 407,
      "Ġpe": 408,
      "ac": 409,
      "Ġsu": 410,
      "tions": 411,
      "ment": 412,
      "li": 413,
      "ĠH": 414,
      "Ġby": 415,
      "rom": 416,
      "all": 417,
      "ĠW": 418,
      "ting": 419,
      "ds": 420,
      "ect": 421,
      "Ġcan": 422,
      "tu": 423,
      "oo": 424,
      "pre": 425,
      "ple": 426,
      "ĠE": 427,
      "ble": 428,
      "ĠD": 429,
      "from": 430,
      "ies": 431,
      "Ġfrom": 432,
      "mo": 433,
      "Ġne": 434,
      "sa": 435,
      "was": 436,
      "ĠR": 437,
      "cl": 438,
      "Ġyou": 439,
      "Ġwas": 440,
      "his": 441,
      "ĠF": 442,
      "Ġ2": 443,
      "ity": 444,
      "um": 445,
      "din": 446,
      "Ġhav": 447,
      "ys": 448,
      "igh": 449,
      "ers": 450,
      "ĠâĢ": 451,
      "fa": 452,
      "sh": 453,
      "ad": 454,
      "int": 455,
      "Ġdo": 456,
      "ding": 457,
      "Ġhave": 458,
      "et": 459,
      "pla": 460,
      "Ġdi": 461,
      "ff": 462,
      "du": 463,
      "ec": 464,
      "Ġnot": 465,
      "ĠN": 466,
      "ĠG": 467,
      "ĠL": 468,
      "Ġun": 469,
      "this": 470,
      "Ġthis": 471,
      "ide": 472,
      "Ġwa": 473,
      "han": 474,
      "ey": 475,
      "ical": 476,
      "Ġfo": 477,
      "Ġsa": 478,
      "one": 479,
      "ol": 480,
      "Ġsi": 481,
      "ue": 482,
      "Ġbo": 483,
      "rk": 484,
      "ich": 485,
      "rie": 486,
      "Ġlo": 487,
      "Ġen": 488,
      "Ġk": 489,
      "Ġpre": 490,
      "der": 491,
      "ill": 492,
      "Ġfa": 493,
      "Ġsta": 494,
      "00": 495,
      "eir": 496,
      "di": 497,
      "Ġch": 498,
      "heir": 499,
      "uld": 500,
      "their": 501,
      "Th": 502,
      "Ġtheir": 503,
      "ĠIn": 504,
      "Ġyour": 505,
      "rat": 506,
      "Ġuse": 507,
      "ls": 508,
      "up": 509,
      "Ġres": 510,
      "Ġim": 511,
      "tr": 512,
      "any": 513,
      "nts": 514,
      "ugh": 515,
      "The": 516,
      "ice": 517,
      "ĠO": 518,
      "ga": 519,
      "eas": 520,
      "Ġpla": 521,
      "Ġwhich": 522,
      "Ġla": 523,
      "hey": 524,
      "ind": 525,
      "they": 526,
      "Ġli": 527,
      "ula": 528,
      "Ġint": 529,
      "Ġdis": 530,
      "Ġthey": 531,
      "tt": 532,
      "ins": 533,
      "ap": 534,
      "Ġall": 535,
      "Ġta": 536,
      "Ġad": 537,
      "und": 538,
      "ĠCo": 539,
      "Ġwill": 540,
      "Ġac": 541,
      "ime": 542,
      "sho": 543,
      "lly": 544,
      "ĠU": 545,
      "fi": 546,
      "Ġge": 547,
      "Ġda": 548,
      "ust": 549,
      "ua": 550,
      "Ġhi": 551,
      "rd": 552,
      "ial": 553,
      "Ġmore": 554,
      "ĠJ": 555,
      "ree": 556,
      "ere": 557,
      "but": 558,
      "reat": 559,
      "ral": 560,
      "ba": 561,
      "Ġle": 562,
      "od": 563,
      "tic": 564,
      "Ġhas": 565,
      "Ġtra": 566,
      "our": 567,
      "Ġsho": 568,
      "abo": 569,
      "lso": 570,
      "ation": 571,
      "âĢĿ": 572,
      "Ġn": 573,
      "other": 574,
      "mi": 575,
      "spe": 576,
      "Ġme": 577,
      "eal": 578,
      "nin": 579,
      "hin": 580,
      "kin": 581,
      "tem": 582,
      "ight": 583,
      "time": 584,
      "also": 585,
      "ning": 586,
      "ld": 587,
      "Ġalso": 588,
      "ges": 589,
      "its": 590,
      "ren": 591,
      "out": 592,
      "Ġho": 593,
      "Ġabo": 594,
      "Ġone": 595,
      "Ġce": 596,
      "ant": 597,
      "Ġra": 598,
      "fe": 599,
      "Ġhis": 600,
      "op": 601,
      "ms": 602,
      "ze": 603,
      "stu": 604,
      "Ġbut": 605,
      "tho": 606,
      "rg": 607,
      "log": 608,
      "here": 609,
      "Ġstu": 610,
      "am": 611,
      "Ġwere": 612,
      "ile": 613,
      "ck": 614,
      "over": 615,
      "ni": 616,
      "Ġrea": 617,
      "dy": 618,
      "ĠâĢľ": 619,
      "Ġper": 620,
      "tive": 621,
      "tal": 622,
      "Ġsome": 623,
      "ria": 624,
      "Ġap": 625,
      "ph": 626,
      "king": 627,
      "Ġna": 628,
      "Ġj": 629,
      "Ġfi": 630,
      "Ġother": 631,
      "who": 632,
      "ci": 633,
      "ron": 634,
      "va": 635,
      "rin": 636,
      "cess": 637,
      "Ġwho": 638,
      "ps": 639,
      "Ġabout": 640,
      "red": 641,
      "tan": 642,
      "Ġtime": 643,
      "tiona": 644,
      "sp": 645,
      "que": 646,
      "ult": 647,
      "cha": 648,
      "ory": 649,
      ").": 650,
      "min": 651,
      "mp": 652,
      "Ġspe": 653,
      "Ġro": 654,
      "ser": 655,
      "ild": 656,
      "Ġwhe": 657,
      "sc": 658,
      "ded": 659,
      "'s": 660,
      "Ġus": 661,
      "Ġ19": 662,
      "hem": 663,
      "ay": 664,
      "iff": 665,
      "gra": 666,
      "sin": 667,
      "Ġout": 668,
      "ber": 669,
      "mer": 670,
      "thin": 671,
      "now": 672,
      "ot": 673,
      "rate": 674,
      "Ġpart": 675,
      "Ġits": 676,
      "ire": 677,
      "gs": 678,
      "them": 679,
      "ction": 680,
      "ĠK": 681,
      "Ġmay": 682,
      "gin": 683,
      "ase": 684,
      "Ġthem": 685,
      "Ġva": 686,
      "Ġev": 687,
      "ces": 688,
      "Ġ20": 689,
      "ople": 690,
      "than": 691,
      "Ġwork": 692,
      "Ġgro": 693,
      "Ġdev": 694,
      "Ġcl": 695,
      "Ġdiff": 696,
      "act": 697,
      "tional": 698,
      "ĠThi": 699,
      "Ġthan": 700,
      "Ġther": 701,
      "Ġhe": 702,
      "ĠThis": 703,
      "inter": 704,
      "Ġbee": 705,
      "lle": 706,
      "ĠIt": 707,
      "tro": 708,
      "cy": 709,
      "elo": 710,
      "see": 711,
      "port": 712,
      "ties": 713,
      "ft": 714,
      "Ġup": 715,
      "bi": 716,
      "each": 717,
      "Ġwhen": 718,
      "ments": 719,
      "Ġinto": 720,
      "Ġhel": 721,
      "eat": 722,
      "Ġthere": 723,
      "ĠRe": 724,
      "Ġpeople": 725,
      "clu": 726,
      "Ġbeen": 727,
      "ima": 728,
      "age": 729,
      "ries": 730,
      "ealt": 731,
      "sis": 732,
      "ass": 733,
      "Ġwor": 734,
      "ast": 735,
      "ealth": 736,
      "ien": 737,
      "Ġ3": 738,
      "vi": 739,
      "rst": 740,
      "hro": 741,
      "ks": 742,
      "Ġmos": 743,
      "bu": 744,
      "Ġsee": 745,
      "por": 746,
      "Ġlike": 747,
      "ĠV": 748,
      "unt": 749,
      "Ġbet": 750,
      "art": 751,
      "tru": 752,
      "mon": 753,
      "per": 754,
      "wer": 755,
      "gn": 756,
      "ex": 757,
      "ally": 758,
      "Ġmost": 759,
      "era": 760,
      "tain": 761,
      "Ġinter": 762,
      "Ġcha": 763,
      "Ġtho": 764,
      "Ġknow": 765,
      "da": 766,
      "Ġour": 767,
      "ish": 768,
      "thro": 769,
      "reas": 770,
      "ders": 771,
      "inclu": 772,
      "Ġnee": 773,
      "ans": 774,
      "lan": 775,
      "two": 776,
      "ystem": 777,
      "Ġsuch": 778,
      "ious": 779,
      "den": 780,
      "ĠMa": 781,
      "om": 782,
      "ob": 783,
      "sts": 784,
      "Ġchild": 785,
      "own": 786,
      "Ġinclu": 787,
      "pt": 788,
      "ĠY": 789,
      "Ġover": 790,
      "os": 791,
      "earch": 792,
      "Ġused": 793,
      "Ġ\"": 794,
      "rit": 795,
      "bil": 796,
      "mes": 797,
      "Ġthro": 798,
      "Ġact": 799,
      "what": 800,
      "ssion": 801,
      "Ġhow": 802,
      "fl": 803,
      "Ġprodu": 804,
      "nly": 805,
      "tur": 806,
      "Ġif": 807,
      "Ġnew": 808,
      "Ġdevelo": 809,
      "cur": 810,
      "ev": 811,
      "sk": 812,
      "system": 813,
      "sing": 814,
      "Ġdiffere": 815,
      "Ġind": 816,
      "Ġhad": 817,
      "chan": 818,
      "Ġwhat": 819,
      "Ġba": 820,
      "ient": 821,
      "Ġany": 822,
      "rge": 823,
      "Ġqu": 824,
      "Ġmake": 825,
      "Ġprov": 826,
      "ors": 827,
      "ned": 828,
      "oc": 829,
      "off": 830,
      "serv": 831,
      "ular": 832,
      "Ġspec": 833,
      "Ġwould": 834,
      "Ġel": 835,
      "Ġexpe": 836,
      "ears": 837,
      "urin": 838,
      "cen": 839,
      "Ġeve": 840,
      "che": 841,
      "Ġmany": 842,
      "Ġman": 843,
      "ease": 844,
      "only": 845,
      "ced": 846,
      "Ġlea": 847,
      "uring": 848,
      "Ġonly": 849,
      "tri": 850,
      "ech": 851,
      "sse": 852,
      "wee": 853,
      "Ġeff": 854,
      "Ġfirst": 855,
      "Ġsystem": 856,
      "fter": 857,
      "Ġgene": 858,
      "),": 859,
      "pu": 860,
      "ell": 861,
      "tory": 862,
      "ract": 863,
      "Ġoff": 864,
      "inc": 865,
      "ific": 866,
      "ife": 867,
      "fin": 868,
      "Ġtwo": 869,
      "ran": 870,
      "very": 871,
      "sur": 872,
      "Ġ201": 873,
      "ures": 874,
      "Ġhigh": 875,
      "Ġhealth": 876,
      "Ġhelp": 877,
      "pen": 878,
      "ĠAn": 879,
      "vel": 880,
      "Ġbu": 881,
      "Ġstat": 882,
      "In": 883,
      "Ġthin": 884,
      "ween": 885,
      "sel": 886,
      "Ġsp": 887,
      "med": 888,
      "Ġbeca": 889,
      "ĠâĢĵ": 890,
      "ection": 891,
      "Ġwater": 892,
      "mation": 893,
      "Ġwell": 894,
      "sion": 895,
      "Ġsur": 896,
      "Ġgo": 897,
      "ric": 898,
      "Ġvi": 899,
      "Ġchan": 900,
      "ack": 901,
      "ities": 902,
      "Ġmat": 903,
      "Ġsup": 904,
      "ris": 905,
      "where": 906,
      "ined": 907,
      "Ġbetween": 908,
      "ied": 909,
      "Ġ-": 910,
      "cia": 911,
      "Ġinc": 912,
      "Ġsh": 913,
      "Ġt": 914,
      "Ġto": 915,
      "Ġte": 916,
      "fore": 917,
      "ĠFo": 918,
      "Ġshould": 919,
      "Ġthrough": 920,
      "logy": 921,
      "dents": 922,
      "ring": 923,
      "sha": 924,
      "nsi": 925,
      "Ġ4": 926,
      "mun": 927,
      "Ġlear": 928,
      "Ġins": 929,
      "bility": 930,
      "ery": 931,
      "ful": 932,
      "Ġsub": 933,
      "go": 934,
      "Ġfe": 935,
      "Ġreco": 936,
      "ance": 937,
      "Ġsc": 938,
      "Ġeven": 939,
      "ivers": 940,
      "Ġpers": 941,
      "pos": 942,
      "sy": 943,
      "Ġtake": 944,
      "son": 945,
      "Ġob": 946,
      "Ġimpor": 947,
      "res": 948,
      "av": 949,
      "lat": 950,
      "Ġty": 951,
      "Ġdifferen": 952,
      "Ġdifferent": 953,
      "ness": 954,
      "Ġdevelop": 955,
      "pi": 956,
      "ject": 957,
      "tat": 958,
      "Ġ5": 959,
      "tte": 960,
      "Ġtoo": 961,
      "Ġmea": 962,
      "inv": 963,
      "ects": 964,
      "des": 965,
      "Ġyears": 966,
      "ru": 967,
      "reate": 968,
      "Ġexam": 969,
      "ration": 970,
      "org": 971,
      "..": 972,
      "ĠHo": 973,
      "tant": 974,
      "ĠCh": 975,
      "choo": 976,
      "ual": 977,
      "rth": 978,
      "cial": 979,
      "Ġinv": 980,
      "uch": 981,
      "ws": 982,
      "nces": 983,
      "tation": 984,
      "Ġreg": 985,
      "nal": 986,
      "stru": 987,
      "Ġcould": 988,
      "infor": 989,
      "ood": 990,
      "Ġgra": 991,
      "Ġop": 992,
      "Ġsha": 993,
      "ines": 994,
      "sm": 995,
      "Ġprovide": 996,
      "mat": 997,
      "Ġpat": 998,
      "Ġresearch": 999,
      "ĠWe": 1000,
      "ab": 1001,
      "ute": 1002,
      "Ġtrans": 1003,
      "Ġwhere": 1004,
      "Ġhea": 1005,
      "ang": 1006,
      "eria": 1007,
      "Ġri": 1008,
      "nse": 1009,
      "Ġpu": 1010,
      "pri": 1011,
      "Ġstate": 1012,
      "ication": 1013,
      "inf": 1014,
      "con": 1015,
      "Ġpos": 1016,
      "do": 1017,
      "bra": 1018,
      "Ġneed": 1019,
      "Ġga": 1020,
      "stra": 1021,
      "fee": 1022,
      "ues": 1023,
      "Ġlon": 1024,
      "rease": 1025,
      "lin": 1026,
      "Ġprot": 1027,
      "fu": 1028,
      "Ġget": 1029,
      "tly": 1030,
      "after": 1031,
      "ana": 1032,
      "ess": 1033,
      "ked": 1034,
      "Ġdata": 1035,
      "base": 1036,
      "ali": 1037,
      "Ġbecause": 1038,
      "Ġafter": 1039,
      "ped": 1040,
      "Ġinfor": 1041,
      "Ġworld": 1042,
      "ĠSo": 1043,
      "Ġ200": 1044,
      "Ġcen": 1045,
      "Ġlife": 1046,
      "ely": 1047,
      "Ġprocess": 1048,
      "Ġcause": 1049,
      "Ġmi": 1050,
      "Ġway": 1051,
      "lled": 1052,
      "rds": 1053,
      "fun": 1054,
      "able": 1055,
      "mic": 1056,
      "vin": 1057,
      "ically": 1058,
      "ress": 1059,
      "clo": 1060,
      "ani": 1061,
      "Ġart": 1062,
      "ices": 1063,
      "Ġtech": 1064,
      "Ġfee": 1065,
      "Ġhum": 1066,
      "ĠDe": 1067,
      "Ġimportant": 1068,
      "Ġvery": 1069,
      "Ġnum": 1070,
      "Ġcomp": 1071,
      "Ġsy": 1072,
      "tial": 1073,
      "wever": 1074,
      "blo": 1075,
      "Ġchildren": 1076,
      "win": 1077,
      "ĠMo": 1078,
      "ĠNe": 1079,
      "zed": 1080,
      "ques": 1081,
      "ĠUn": 1082,
      "ĠPa": 1083,
      "Ġunder": 1084,
      "ĠEn": 1085,
      "Ġjust": 1086,
      "Ġeach": 1087,
      "round": 1088,
      "Ġbein": 1089,
      "ger": 1090,
      "Ġher": 1091,
      "Ġstudents": 1092,
      "llow": 1093,
      "Ġfin": 1094,
      "set": 1095,
      "ĠNo": 1096,
      "eep": 1097,
      "Ġcar": 1098,
      "Ġperso": 1099,
      "ick": 1100,
      "Ġfun": 1101,
      "Ġinf": 1102,
      "ging": 1103,
      "ĠAmer": 1104,
      "ĠHe": 1105,
      "Ġevery": 1106,
      "Ġplan": 1107,
      "ĠPro": 1108,
      "dition": 1109,
      "20": 1110,
      "Ġblo": 1111,
      "Ġbi": 1112,
      "gen": 1113,
      "ict": 1114,
      "rm": 1115,
      "eg": 1116,
      "Ġpartic": 1117,
      "quire": 1118,
      "Ġfound": 1119,
      "ĠWh": 1120,
      "land": 1121,
      "Ġcommun": 1122,
      "late": 1123,
      "Ġduring": 1124,
      "aut": 1125,
      "sma": 1126,
      "Ġbeing": 1127,
      "dge": 1128,
      "Ġmed": 1129,
      "Ġlevel": 1130,
      "back": 1131,
      "ĠYo": 1132,
      "Ġoc": 1133,
      "Ġtr": 1134,
      "Ġthos": 1135,
      "Ġthose": 1136,
      "ach": 1137,
      "blem": 1138,
      "ming": 1139,
      "Ġcount": 1140,
      "dent": 1141,
      "flo": 1142,
      "Ġgive": 1143,
      "iss": 1144,
      "Ġmet": 1145,
      "tate": 1146,
      "cu": 1147,
      "Ġstudy": 1148,
      "cin": 1149,
      "ep": 1150,
      "duca": 1151,
      "fte": 1152,
      "Ġ18": 1153,
      "schoo": 1154,
      "Ġdesi": 1155,
      "Ġsma": 1156,
      "ye": 1157,
      "lar": 1158,
      "Ġusin": 1159,
      "Ġusing": 1160,
      "ĠThey": 1161,
      "Ġinformation": 1162,
      "Ġloo": 1163,
      "Ġfact": 1164,
      "Ġexample": 1165,
      "Ġph": 1166,
      "Ġpubl": 1167,
      "Ġtype": 1168,
      "lie": 1169,
      "viron": 1170,
      "nit": 1171,
      "ving": 1172,
      "lon": 1173,
      "ili": 1174,
      "Ġ6": 1175,
      "Ġdoe": 1176,
      "Ġdoes": 1177,
      "Ġter": 1178,
      "eve": 1179,
      "ĠCa": 1180,
      "Ġear": 1181,
      "ori": 1182,
      "Ġaut": 1183,
      "ually": 1184,
      "ope": 1185,
      "ften": 1186,
      "iden": 1187,
      "tural": 1188,
      "Ġmuch": 1189,
      "hout": 1190,
      "sca": 1191,
      "Ġacco": 1192,
      "ig": 1193,
      "Ġcur": 1194,
      "come": 1195,
      "Ġproblem": 1196,
      "Ġserv": 1197,
      "ĠFor": 1198,
      ".,": 1199,
      "ean": 1200,
      "cle": 1201,
      "pose": 1202,
      "Ġbot": 1203,
      "man": 1204,
      "Ġclo": 1205,
      "Ġloca": 1206,
      "Ġlarge": 1207,
      "old": 1208,
      "rder": 1209,
      "Ġschoo": 1210,
      "Ġcomple": 1211,
      "Ġboth": 1212,
      "Ġsame": 1213,
      "Ġincrease": 1214,
      "side": 1215,
      ".âĢĿ": 1216,
      "Ġorg": 1217,
      "Ġab": 1218,
      "Ġmade": 1219,
      "urs": 1220,
      "mal": 1221,
      "Ġpres": 1222,
      "Ġdisease": 1223,
      "case": 1224,
      "Ġrequire": 1225,
      "ĠIf": 1226,
      "Ġset": 1227,
      "||": 1228,
      "cent": 1229,
      "often": 1230,
      "ĠAs": 1231,
      "Ġappro": 1232,
      "cts": 1233,
      "ok": 1234,
      "Ġcell": 1235,
      "Ġpop": 1236,
      "Ġflo": 1237,
      "Ġprese": 1238,
      "hip": 1239,
      "Ġmen": 1240,
      "derstan": 1241,
      "Ġoften": 1242,
      "Ġet": 1243,
      "19": 1244,
      "thing": 1245,
      "Ġactiv": 1246,
      "ead": 1247,
      "cus": 1248,
      "Ġlong": 1249,
      "Ġrela": 1250,
      "ught": 1251,
      "Ġgroup": 1252,
      "Ġsaid": 1253,
      "bro": 1254,
      "Ġbody": 1255,
      "ule": 1256,
      "Ġval": 1257,
      "create": 1258,
      "ud": 1259,
      "Ġmin": 1260,
      "nerg": 1261,
      "Ġeffect": 1262,
      "sible": 1263,
      "aga": 1264,
      "sit": 1265,
      "Ġcase": 1266,
      "ident": 1267,
      "Ġback": 1268,
      "ug": 1269,
      "ttl": 1270,
      "Ġwhile": 1271,
      "Ġsmall": 1272,
      "Ġhan": 1273,
      "icl": 1274,
      "Ġbefore": 1275,
      "cte": 1276,
      "ecte": 1277,
      "rding": 1278,
      "Ġcreate": 1279,
      "ected": 1280,
      "ttle": 1281,
      "icle": 1282,
      "Ġnumber": 1283,
      "Ġpri": 1284,
      "Ġmain": 1285,
      "pho": 1286,
      "Ġyear": 1287,
      "fer": 1288,
      "ĠCon": 1289,
      "Ġcoll": 1290,
      "iversity": 1291,
      "Ġredu": 1292,
      "Ġprev": 1293,
      "eo": 1294,
      "Ġcommon": 1295,
      "nergy": 1296,
      "ivid": 1297,
      "Ġmar": 1298,
      "Ġrespo": 1299,
      "icat": 1300,
      "Ġpower": 1301,
      "ag": 1302,
      "Ġgood": 1303,
      "wri": 1304,
      "Ġ10": 1305,
      "uro": 1306,
      "cted": 1307,
      "ience": 1308,
      "tics": 1309,
      "Ġaga": 1310,
      "Ġcontro": 1311,
      "Ġfollow": 1312,
      "Ġday": 1313,
      "scri": 1314,
      "ntial": 1315,
      "based": 1316,
      "Ġdia": 1317,
      "spa": 1318,
      "ĠWa": 1319,
      "Ġchange": 1320,
      "around": 1321,
      "ĠWo": 1322,
      "Ġmov": 1323,
      "bio": 1324,
      "Ġage": 1325,
      "overn": 1326,
      "Ġeco": 1327,
      "table": 1328,
      "ters": 1329,
      "Ġenviron": 1330,
      "nes": 1331,
      "gram": 1332,
      "Ġapp": 1333,
      "Ġteach": 1334,
      "Ġaround": 1335,
      "000": 1336,
      "ulation": 1337,
      "Ġtreat": 1338,
      "Ġmem": 1339,
      "ution": 1340,
      "tely": 1341,
      "ip": 1342,
      "Ġrev": 1343,
      "Ġunderstan": 1344,
      "Ġmy": 1345,
      "wn": 1346,
      "hree": 1347,
      "Ġcor": 1348,
      "ght": 1349,
      "ican": 1350,
      "ĠAl": 1351,
      "ary": 1352,
      "ster": 1353,
      "tten": 1354,
      "ishe": 1355,
      "Ġfood": 1356,
      "ner": 1357,
      "Ġve": 1358,
      "Ġ7": 1359,
      "Ġana": 1360,
      "pract": 1361,
      "Ġform": 1362,
      "Ġsol": 1363,
      "Ġhuman": 1364,
      "Ġthree": 1365,
      "ics": 1366,
      "Ġequ": 1367,
      "Ġdown": 1368,
      "struct": 1369,
      "ture": 1370,
      "Ġfu": 1371,
      "ĠTo": 1372,
      "ian": 1373,
      "oth": 1374,
      "pin": 1375,
      "This": 1376,
      "plo": 1377,
      "Ġconce": 1378,
      "imi": 1379,
      "Ġlive": 1380,
      "tl": 1381,
      "py": 1382,
      "Ġbro": 1383,
      "Ġsupport": 1384,
      "val": 1385,
      "ĠBe": 1386,
      "zation": 1387,
      "seve": 1388,
      "Ġwri": 1389,
      "wing": 1390,
      "Ġope": 1391,
      "Ġadv": 1392,
      "free": 1393,
      "cing": 1394,
      "till": 1395,
      "Ġpract": 1396,
      "Ġexperie": 1397,
      "Ġincluding": 1398,
      "jo": 1399,
      "Ġmust": 1400,
      "Ġeduca": 1401,
      "yin": 1402,
      "Ġdir": 1403,
      "ists": 1404,
      "Ġfl": 1405,
      "Ġindivid": 1406,
      "Ġ8": 1407,
      "Ġseve": 1408,
      "hy": 1409,
      "iew": 1410,
      "Ġmove": 1411,
      "Ġend": 1412,
      "Ġelect": 1413,
      "Ġclass": 1414,
      "icate": 1415,
      "pr": 1416,
      "ying": 1417,
      "ĠCom": 1418,
      "Ġnow": 1419,
      "Ġown": 1420,
      "âĢĵ": 1421,
      "Ġcontin": 1422,
      "sting": 1423,
      "ĠThere": 1424,
      "pur": 1425,
      "Ġbuil": 1426,
      "gt": 1427,
      "Ġknown": 1428,
      "rch": 1429,
      "air": 1430,
      "Ġcare": 1431,
      "ĠThes": 1432,
      "ĠThese": 1433,
      "sor": 1434,
      "ids": 1435,
      "10": 1436,
      "eet": 1437,
      "Ġsel": 1438,
      "Ġsign": 1439,
      "ila": 1440,
      "bers": 1441,
      "mental": 1442,
      "ished": 1443,
      "Ġques": 1444,
      "Ġid": 1445,
      "Ġran": 1446,
      "econ": 1447,
      "ĠState": 1448,
      "Ġstart": 1449,
      "ĠâĢĺ": 1450,
      "dies": 1451,
      "ults": 1452,
      "Ġmode": 1453,
      "Ġsk": 1454,
      "way": 1455,
      "Ġtem": 1456,
      "Ġstra": 1457,
      "Ġmateria": 1458,
      "Ġenergy": 1459,
      "line": 1460,
      "ions": 1461,
      "aff": 1462,
      "angua": 1463,
      "Ġea": 1464,
      "__": 1465,
      "Ġcalled": 1466,
      "ĠLa": 1467,
      "com": 1468,
      "Ġext": 1469,
      "inin": 1470,
      "itu": 1471,
      "ĠLo": 1472,
      "graph": 1473,
      "tary": 1474,
      "lic": 1475,
      "wed": 1476,
      "Ġland": 1477,
      "ĠMe": 1478,
      "hs": 1479,
      "urces": 1480,
      "Ġimpro": 1481,
      "Ġ9": 1482,
      "ining": 1483,
      "Ġdid": 1484,
      "logical": 1485,
      "Ġconta": 1486,
      "Ġpresen": 1487,
      "ĠYou": 1488,
      "form": 1489,
      "Ġreso": 1490,
      "cro": 1491,
      "Ġspa": 1492,
      "Ġhim": 1493,
      "Ġwithin": 1494,
      "Ġident": 1495,
      "oms": 1496,
      "lated": 1497,
      "dia": 1498,
      "Ġphys": 1499,
      "gi": 1500,
      "cri": 1501,
      "urse": 1502,
      "put": 1503,
      "ior": 1504,
      "bas": 1505,
      "rts": 1506,
      "Ġ&": 1507,
      "Ġaff": 1508,
      "socia": 1509,
      "Ġplace": 1510,
      "ctions": 1511,
      "âĢĶ": 1512,
      "Ġschool": 1513,
      "ches": 1514,
      "ications": 1515,
      "still": 1516,
      "ĠEx": 1517,
      "bly": 1518,
      "Ġpur": 1519,
      "ava": 1520,
      ",âĢĿ": 1521,
      "Ġstan": 1522,
      "Ġmetho": 1523,
      "stance": 1524,
      "find": 1525,
      "tch": 1526,
      "Ġright": 1527,
      "Ġorgani": 1528,
      "Ġsin": 1529,
      "Ġfree": 1530,
      "ung": 1531,
      "Ġstill": 1532,
      "ged": 1533,
      "What": 1534,
      "Ġpl": 1535,
      "Ġfind": 1536,
      "cla": 1537,
      "Ġgovern": 1538,
      "Ġhome": 1539,
      "ĠBut": 1540,
      "Ġhy": 1541,
      "Ġinclude": 1542,
      "Ġappl": 1543,
      "Ġav": 1544,
      "Ġshe": 1545,
      "Ġdevelopment": 1546,
      "ware": 1547,
      "Ġant": 1548,
      "Ġtechno": 1549,
      "ivin": 1550,
      "rent": 1551,
      "Ġlearning": 1552,
      "ĠPo": 1553,
      "Ġgreat": 1554,
      "want": 1555,
      "inst": 1556,
      "ctive": 1557,
      "Ġmus": 1558,
      "ext": 1559,
      "Ġiss": 1560,
      "Ġwar": 1561,
      "Ġanaly": 1562,
      "Ġmeas": 1563,
      "ost": 1564,
      "mple": 1565,
      "Ġmight": 1566,
      "Ġless": 1567,
      "Ġair": 1568,
      "ĠSt": 1569,
      "ĠEng": 1570,
      "Ġwithout": 1571,
      "Ġtur": 1572,
      "sec": 1573,
      "mily": 1574,
      "iving": 1575,
      "ĠNew": 1576,
      "llen": 1577,
      "Ġdra": 1578,
      "Ġbes": 1579,
      "uth": 1580,
      "bus": 1581,
      "Ġsocial": 1582,
      "pres": 1583,
      "ous": 1584,
      "Ġblood": 1585,
      "area": 1586,
      "Ġbas": 1587,
      "ĠNa": 1588,
      "sus": 1589,
      "za": 1590,
      "low": 1591,
      "Ġbest": 1592,
      "Ġcolo": 1593,
      "Ġima": 1594,
      "ina": 1595,
      "stan": 1596,
      "Ġwant": 1597,
      "Ġarea": 1598,
      "hav": 1599,
      "ĠHowever": 1600,
      "Ġrisk": 1601,
      "Ġimpa": 1602,
      "âĢľ": 1603,
      "sco": 1604,
      "olv": 1605,
      "Ġperson": 1606,
      "Ġgrow": 1607,
      "gest": 1608,
      "ills": 1609,
      "Ġpr": 1610,
      "vers": 1611,
      "Ġemp": 1612,
      "anima": 1613,
      "olve": 1614,
      "east": 1615,
      "Ġposi": 1616,
      "rated": 1617,
      "iver": 1618,
      "Ġke": 1619,
      "bur": 1620,
      "Ġmon": 1621,
      "Ġrel": 1622,
      "cho": 1623,
      "ĠAnd": 1624,
      "ĠDo": 1625,
      "Ġlangua": 1626,
      "Ġtop": 1627,
      "ence": 1628,
      "Ġag": 1629,
      "ensi": 1630,
      "ulat": 1631,
      "siv": 1632,
      "Ġallow": 1633,
      "Ġinve": 1634,
      "Ġanima": 1635,
      "ward": 1636,
      "ub": 1637,
      "tical": 1638,
      "pon": 1639,
      "ura": 1640,
      "fie": 1641,
      "order": 1642,
      "another": 1643,
      "Ġbra": 1644,
      "Ġadd": 1645,
      "gni": 1646,
      "Ġwomen": 1647,
      "Ġcont": 1648,
      "vere": 1649,
      "mate": 1650,
      "Ġanother": 1651,
      "ners": 1652,
      "quen": 1653,
      "ney": 1654,
      "secon": 1655,
      "Ġoccur": 1656,
      "Ġbecome": 1657,
      "term": 1658,
      "ling": 1659,
      "nite": 1660,
      "ĠRo": 1661,
      "Ġhand": 1662,
      "ĠWhe": 1663,
      "iety": 1664,
      "sea": 1665,
      "ĠSa": 1666,
      "Ġbetter": 1667,
      "Ġfar": 1668,
      "net": 1669,
      "Ġmill": 1670,
      "ism": 1671,
      "Ġecono": 1672,
      "It": 1673,
      "Ġbio": 1674,
      "ĠHi": 1675,
      "Ġmanage": 1676,
      "ĠAmerican": 1677,
      "Ġrema": 1678,
      "Ġbelie": 1679,
      "mpt": 1680,
      "Ġreport": 1681,
      "Ġhistory": 1682,
      "Ġsignific": 1683,
      "Ġimprov": 1684,
      "Ġ.": 1685,
      "Ġimprove": 1686,
      "city": 1687,
      "Ġspecies": 1688,
      "Ġcompa": 1689,
      "Ġintere": 1690,
      "Ġsit": 1691,
      "tle": 1692,
      "tia": 1693,
      "Wh": 1694,
      "Ġorder": 1695,
      "ways": 1696,
      "ĠUniversity": 1697,
      "ched": 1698,
      "Ġent": 1699,
      "story": 1700,
      "ils": 1701,
      "search": 1702,
      "rien": 1703,
      "Ġmeans": 1704,
      "ĠBa": 1705,
      "Ġcharact": 1706,
      "Ġfew": 1707,
      "Ġearly": 1708,
      "lity": 1709,
      "reen": 1710,
      "Ġpreve": 1711,
      "Ġsuc": 1712,
      "Ġlight": 1713,
      "ients": 1714,
      "Ġpho": 1715,
      "fac": 1716,
      "availa": 1717,
      "Ġsecon": 1718,
      "ĠIs": 1719,
      "ping": 1720,
      "hit": 1721,
      "cra": 1722,
      "Ġcons": 1723,
      "Ġbene": 1724,
      "Ġperio": 1725,
      "Ġsca": 1726,
      "tta": 1727,
      "Ġpublic": 1728,
      "Ġprogram": 1729,
      "Ġsec": 1730,
      "stic": 1731,
      "ditions": 1732,
      "rtain": 1733,
      "Ġpot": 1734,
      "Ġcompo": 1735,
      "fre": 1736,
      "Ġpresent": 1737,
      "mission": 1738,
      "Ġsea": 1739,
      "Ġdescri": 1740,
      "Ġ199": 1741,
      "une": 1742,
      "riv": 1743,
      "rn": 1744,
      "long": 1745,
      "Ġresult": 1746,
      "cto": 1747,
      "iva": 1748,
      "oday": 1749,
      "Ġexperience": 1750,
      "ww": 1751,
      "Ġtes": 1752,
      "Ġavaila": 1753,
      "sive": 1754,
      "ier": 1755,
      "mong": 1756,
      "Ġable": 1757,
      "lish": 1758,
      "Ġpossible": 1759,
      "ality": 1760,
      "Ġparticular": 1761,
      "Ġrece": 1762,
      "Ġstruct": 1763,
      "Ġtest": 1764,
      "Ġcontrol": 1765,
      "Ġagainst": 1766,
      "Ġhere": 1767,
      "bin": 1768,
      "Ġcro": 1769,
      "nited": 1770,
      "Ġfamily": 1771,
      "ket": 1772,
      "Ġseveral": 1773,
      "cks": 1774,
      "Ġtreatment": 1775,
      "rious": 1776,
      "urce": 1777,
      "ĠAd": 1778,
      "til": 1779,
      "ban": 1780,
      "ĠHa": 1781,
      "iet": 1782,
      "ĠWhen": 1783,
      "site": 1784,
      "ini": 1785,
      "Ġpoint": 1786,
      "amo": 1787,
      "rist": 1788,
      "cis": 1789,
      "Ġam": 1790,
      "Ġpreven": 1791,
      "Ġbased": 1792,
      "ĠWi": 1793,
      "ĠWhat": 1794,
      "areas": 1795,
      "Ġbus": 1796,
      "Ġareas": 1797,
      "ĠDi": 1798,
      "Ġhap": 1799,
      "Ġrate": 1800,
      "ulate": 1801,
      "Ġlow": 1802,
      "prese": 1803,
      "Ġfollowin": 1804,
      "Ġtri": 1805,
      "Ġfollowing": 1806,
      "Ġsafe": 1807,
      "ĠLi": 1808,
      "Ġautho": 1809,
      "ĠUnited": 1810,
      "rive": 1811,
      "ĠQ": 1812,
      "Ġkeep": 1813,
      "icro": 1814,
      "Ġass": 1815,
      "Ġlin": 1816,
      "Ġidentif": 1817,
      "nst": 1818,
      "Ġgovernment": 1819,
      "Ġ15": 1820,
      "ured": 1821,
      "ĠJo": 1822,
      "part": 1823,
      "Ġgu": 1824,
      "Ġori": 1825,
      "ants": 1826,
      "Ġbehav": 1827,
      "Ġwee": 1828,
      "hite": 1829,
      "Ġeffective": 1830,
      "Ġ[": 1831,
      "fur": 1832,
      "Ġlearn": 1833,
      "bal": 1834,
      "Co": 1835,
      "edge": 1836,
      "Ġdon": 1837,
      "Ġcells": 1838,
      "sl": 1839,
      "Ġnon": 1840,
      "less": 1841,
      "Ġdef": 1842,
      "iness": 1843,
      "others": 1844,
      "rite": 1845,
      "Ġdue": 1846,
      "Ġref": 1847,
      "ights": 1848,
      "Ġcourse": 1849,
      "Ġfre": 1850,
      "Ġuni": 1851,
      "bla": 1852,
      "Ġdirect": 1853,
      "perat": 1854,
      "Ġsignificant": 1855,
      "brea": 1856,
      "ole": 1857,
      "zin": 1858,
      "wea": 1859,
      "rial": 1860,
      "Ġci": 1861,
      "gl": 1862,
      "Ġothers": 1863,
      "lk": 1864,
      "Ġscient": 1865,
      "rong": 1866,
      "though": 1867,
      "kers": 1868,
      "my": 1869,
      "Ġthings": 1870,
      "Ġess": 1871,
      "Ġconside": 1872,
      "Ġcentur": 1873,
      "pha": 1874,
      "Ġamo": 1875,
      "llin": 1876,
      "ditional": 1877,
      "cli": 1878,
      "Ġeas": 1879,
      "Ġplay": 1880,
      "Ġ0": 1881,
      "Ġname": 1882,
      "cir": 1883,
      "Ġpote": 1884,
      "Ġconne": 1885,
      "Ġsince": 1886,
      "Ġnear": 1887,
      "ero": 1888,
      "Ġcome": 1889,
      "ationa": 1890,
      "zing": 1891,
      "ĠGe": 1892,
      "Ġavailable": 1893,
      "uts": 1894,
      "Ġlevels": 1895,
      "Ġlet": 1896,
      "Ġproblems": 1897,
      "Ġcountry": 1898,
      "trat": 1899,
      "ational": 1900,
      "Ġlanguage": 1901,
      "Ġinvolve": 1902,
      "prin": 1903,
      "cially": 1904,
      "Ġglo": 1905,
      "ledge": 1906,
      "ĠJe": 1907,
      "idence": 1908,
      "fra": 1909,
      "ross": 1910,
      "bri": 1911,
      "ĠZ": 1912,
      "Ġpain": 1913,
      "Ġfac": 1914,
      "Ġfie": 1915,
      "'t": 1916,
      "Ġcertain": 1917,
      "ption": 1918,
      "ĠCe": 1919,
      "Ġtimes": 1920,
      ".\"": 1921,
      "Ġsig": 1922,
      "jects": 1923,
      "Ġplant": 1924,
      "xt": 1925,
      "We": 1926,
      "Ġassocia": 1927,
      "Ġconf": 1928,
      "Ġrol": 1929,
      "Ġrole": 1930,
      "att": 1931,
      "tral": 1932,
      "ĠâĢĶ": 1933,
      "ulture": 1934,
      "Ġfour": 1935,
      "Ġmaking": 1936,
      "rity": 1937,
      "ĠPe": 1938,
      "Ġpress": 1939,
      "Ġcance": 1940,
      "ĠAf": 1941,
      "Ġindust": 1942,
      "Ġill": 1943,
      "pression": 1944,
      "tage": 1945,
      "pes": 1946,
      "Ġ12": 1947,
      "Ġlast": 1948,
      "Ġlook": 1949,
      "...": 1950,
      "Ġdec": 1951,
      "Ġten": 1952,
      "hn": 1953,
      "Ġsite": 1954,
      "among": 1955,
      "Ġmult": 1956,
      "aster": 1957,
      "Ġcir": 1958,
      "ssed": 1959,
      "ĠStates": 1960,
      "Ġfore": 1961,
      "Ġnatural": 1962,
      "mit": 1963,
      "Ġresi": 1964,
      "mptoms": 1965,
      "terna": 1966,
      "Ġfur": 1967,
      "Ġmont": 1968,
      "Ġlis": 1969,
      "Ġbook": 1970,
      "ote": 1971,
      "Ġamong": 1972,
      "Ġvarious": 1973,
      "Ġsystems": 1974,
      "face": 1975,
      "Ġlist": 1976,
      "Ġorigin": 1977,
      "Ġpi": 1978,
      "eath": 1979,
      "gth": 1980,
      "atta": 1981,
      "Ġeducation": 1982,
      "Ġwea": 1983,
      "If": 1984,
      "not": 1985,
      "Ġdesig": 1986,
      "dro": 1987,
      "pert": 1988,
      "Ġsoc": 1989,
      "Ġwords": 1990,
      "12": 1991,
      "Ġreprese": 1992,
      "pass": 1993,
      "Ġremo": 1994,
      "Ġarticle": 1995,
      "ĠEuro": 1996,
      "ĠCha": 1997,
      "bed": 1998,
      "posed": 1999,
      "Ġclos": 2000,
      "Ġnor": 2001,
      "sses": 2002,
      "rro": 2003,
      "lt": 2004,
      "gether": 2005,
      "Ġrun": 2006,
      "uture": 2007,
      "Ġvo": 2008,
      "jor": 2009,
      "Ġthink": 2010,
      "Ġexplo": 2011,
      "yed": 2012,
      "18": 2013,
      "Ġtechnology": 2014,
      "ees": 2015,
      "ĠAt": 2016,
      "Ġlat": 2017,
      "Ġbenefi": 2018,
      "Ġtea": 2019,
      "dl": 2020,
      "Ġatta": 2021,
      "Ġexpla": 2022,
      "Fo": 2023,
      "vo": 2024,
      "Ġbla": 2025,
      "mers": 2026,
      "Ġatt": 2027,
      "Ġusually": 2028,
      "Ġ17": 2029,
      "Ġpara": 2030,
      "Ġconsu": 2031,
      "Ġsurv": 2032,
      "ĠDa": 2033,
      "spi": 2034,
      "Ġconditions": 2035,
      "Re": 2036,
      "inde": 2037,
      "ried": 2038,
      "Ġtypes": 2039,
      "Ġgiven": 2040,
      "Ġvol": 2041,
      "Ġresults": 2042,
      "Ġperiod": 2043,
      "Ġsug": 2044,
      "on": 2045,
      "Ġon": 2046,
      "sist": 2047,
      "erin": 2048,
      "Ġplants": 2049,
      "Ġneeds": 2050,
      "wers": 2051,
      "Ġinte": 2052,
      "ard": 2053,
      "elf": 2054,
      "teg": 2055,
      "cre": 2056,
      "Ġdisco": 2057,
      "Ġcal": 2058,
      "Ġspecific": 2059,
      "Ġdiffic": 2060,
      "Ġsuccess": 2061,
      "Ġsus": 2062,
      "mina": 2063,
      "Ġtemperat": 2064,
      "day": 2065,
      "Ġbuilding": 2066,
      "Ġcli": 2067,
      "Ġshort": 2068,
      "ĠSome": 2069,
      "Ġele": 2070,
      "pat": 2071,
      "Ġlittle": 2072,
      "Ġcla": 2073,
      "along": 2074,
      "spo": 2075,
      "infl": 2076,
      "An": 2077,
      "Ġprin": 2078,
      "rous": 2079,
      "Ġinves": 2080,
      "Ġinvest": 2081,
      "lways": 2082,
      "ird": 2083,
      "Ġpoli": 2084,
      "Ġsimi": 2085,
      "Ġproject": 2086,
      "Ġchanges": 2087,
      "Ġlikely": 2088,
      "pan": 2089,
      "Ġenvironment": 2090,
      "Ġhouse": 2091,
      "Ġdiscus": 2092,
      "gher": 2093,
      "specially": 2094,
      "Ġesta": 2095,
      "Ġalong": 2096,
      "Ġwriting": 2097,
      "ĠPre": 2098,
      "Ġinfl": 2099,
      "Ġdays": 2100,
      "Ġsl": 2101,
      "serve": 2102,
      "ĠCen": 2103,
      "Ġspace": 2104,
      "always": 2105,
      "pers": 2106,
      "xe": 2107,
      "rally": 2108,
      "Ġwhy": 2109,
      "Ġexi": 2110,
      "lling": 2111,
      "Ġhigher": 2112,
      "Ġpass": 2113,
      "Ġheart": 2114,
      "lation": 2115,
      "Ġens": 2116,
      "As": 2117,
      "ton": 2118,
      "Ġpopulation": 2119,
      "ĠSc": 2120,
      "Ġalways": 2121,
      "Ġunderstand": 2122,
      "ĠSh": 2123,
      "Ġeffects": 2124,
      "Ġlocal": 2125,
      "Ġuntil": 2126,
      "Ġcommunity": 2127,
      "Ġcomput": 2128,
      "crea": 2129,
      "rld": 2130,
      "Ġsymptoms": 2131,
      "mos": 2132,
      "ille": 2133,
      "ering": 2134,
      "mber": 2135,
      "future": 2136,
      "dit": 2137,
      "bute": 2138,
      "Ġeno": 2139,
      "Ġbrain": 2140,
      "ĠUS": 2141,
      "Ġsecond": 2142,
      "Ġsomething": 2143,
      "ov": 2144,
      "There": 2145,
      "ither": 2146,
      "Ġpaper": 2147,
      "Ġprofe": 2148,
      "hing": 2149,
      "bs": 2150,
      "Ġfuture": 2151,
      "Ġsays": 2152,
      "Ġkey": 2153,
      "Ġbeg": 2154,
      "iles": 2155,
      "11": 2156,
      "Ġaccess": 2157,
      "past": 2158,
      "ore": 2159,
      "Ġinst": 2160,
      "sure": 2161,
      "tima": 2162,
      "Ġmajor": 2163,
      "Ġclear": 2164,
      "Ġcy": 2165,
      "Ġways": 2166,
      "Ġjo": 2167,
      "Ġacross": 2168,
      "Ġstanda": 2169,
      "Ġput": 2170,
      "Ġchem": 2171,
      "Ġfra": 2172,
      "Ġbegin": 2173,
      "Ġcountries": 2174,
      "Ġnu": 2175,
      "trate": 2176,
      "ĠGod": 2177,
      "ffor": 2178,
      "iga": 2179,
      "Ġbl": 2180,
      "Ġlit": 2181,
      "ose": 2182,
      "ka": 2183,
      "cise": 2184,
      "Ġdepen": 2185,
      "mand": 2186,
      "ĠSout": 2187,
      "Ġ16": 2188,
      "50": 2189,
      "Ġeye": 2190,
      "Ġbeliev": 2191,
      "Ġtogether": 2192,
      "work": 2193,
      "Ġtoday": 2194,
      "Ġbelieve": 2195,
      "Ġcentury": 2196,
      "ĠNational": 2197,
      "Ġinde": 2198,
      "ash": 2199,
      "unds": 2200,
      "lf": 2201,
      "Ġwide": 2202,
      "Ġskills": 2203,
      "ability": 2204,
      "Ġlead": 2205,
      "Ġphysical": 2206,
      "Ġanti": 2207,
      "tric": 2208,
      "Ġcancer": 2209,
      "dom": 2210,
      "Ġem": 2211,
      "ĠCan": 2212,
      "Ġinstru": 2213,
      "ein": 2214,
      "Ġ=": 2215,
      "Ġnote": 2216,
      "Ġrelations": 2217,
      "Ġbrea": 2218,
      "So": 2219,
      "Ġinflue": 2220,
      "Ġvalue": 2221,
      "Ġworkin": 2222,
      "Ġcri": 2223,
      "ĠFa": 2224,
      "Ġfunction": 2225,
      "nder": 2226,
      "Ġthough": 2227,
      "Ġweb": 2228,
      "Ġessay": 2229,
      "Ġabov": 2230,
      "dic": 2231,
      "Ġenco": 2232,
      "Ġimpact": 2233,
      "sty": 2234,
      "gle": 2235,
      "Ġabove": 2236,
      "ĠEnglish": 2237,
      "ens": 2238,
      "rodu": 2239,
      "ĠAll": 2240,
      "ox": 2241,
      "Ġshow": 2242,
      "Ġactivities": 2243,
      "Ġpatients": 2244,
      "NA": 2245,
      "ĠJa": 2246,
      "mary": 2247,
      "Ġespecially": 2248,
      "Ġtry": 2249,
      "ods": 2250,
      "Ġpast": 2251,
      "Ġworking": 2252,
      "sions": 2253,
      "Ġside": 2254,
      "Ġsing": 2255,
      "Ġlimi": 2256,
      "Ġlaw": 2257,
      "eb": 2258,
      "//": 2259,
      "Ġsize": 2260,
      "Ġdemo": 2261,
      "Ġbur": 2262,
      "hol": 2263,
      "Ġmillion": 2264,
      "Ġrange": 2265,
      "Ġknowledge": 2266,
      "Ġstudies": 2267,
      "try": 2268,
      "Ġproduction": 2269,
      "Ġconte": 2270,
      "atten": 2271,
      "Ġchallen": 2272,
      "Ġlater": 2273,
      "ĠTra": 2274,
      "Ġindividual": 2275,
      "Ġassociat": 2276,
      "Ġassociate": 2277,
      "ition": 2278,
      "white": 2279,
      "Ġhard": 2280,
      "Ġsimilar": 2281,
      "ya": 2282,
      "Ġestabl": 2283,
      "Ġdel": 2284,
      "Ġ'": 2285,
      "Ġcases": 2286,
      "Ġactivity": 2287,
      "lis": 2288,
      "ultural": 2289,
      "ints": 2290,
      "Ġmicro": 2291,
      "Ġnext": 2292,
      "Ġexce": 2293,
      "fall": 2294,
      "Ġcame": 2295,
      "bet": 2296,
      "Ġgrowt": 2297,
      "Ġhowever": 2298,
      "rus": 2299,
      "away": 2300,
      "Ġsay": 2301,
      "ports": 2302,
      "Ġatten": 2303,
      "ĠOn": 2304,
      "Ġpercent": 2305,
      "Ġquality": 2306,
      "Ġcontra": 2307,
      "rance": 2308,
      "Ġleast": 2309,
      "Ġsuff": 2310,
      "sons": 2311,
      "fire": 2312,
      "dle": 2313,
      "Ġgrowth": 2314,
      "light": 2315,
      "Ġmulti": 2316,
      "pea": 2317,
      "Ġaddition": 2318,
      "ĠTa": 2319,
      "sia": 2320,
      "pet": 2321,
      "Ġamount": 2322,
      "Ġu": 2323,
      "bon": 2324,
      "rical": 2325,
      "ĠGer": 2326,
      "Ġdama": 2327,
      "rv": 2328,
      "Ġcurrent": 2329,
      "Ġdeci": 2330,
      "bea": 2331,
      "Ġesse": 2332,
      "://": 2333,
      "eries": 2334,
      "Ġdesign": 2335,
      "How": 2336,
      "Ġresources": 2337,
      "Ġdeterm": 2338,
      "Ġcontri": 2339,
      "feat": 2340,
      "top": 2341,
      "Ġhavin": 2342,
      "Ġhaving": 2343,
      "Ġrepresen": 2344,
      "Ġaway": 2345,
      "Ġclimate": 2346,
      "Ġfull": 2347,
      "Ġcos": 2348,
      "gno": 2349,
      "ĠChrist": 2350,
      "Ġmakes": 2351,
      "ections": 2352,
      "Ġpotential": 2353,
      "Ġenough": 2354,
      "kes": 2355,
      "Ġsum": 2356,
      "bit": 2357,
      "Ġperform": 2358,
      "uals": 2359,
      "selv": 2360,
      "selve": 2361,
      "selves": 2362,
      "Ġnecess": 2363,
      "Ġach": 2364,
      "ĠStu": 2365,
      "Ġscience": 2366,
      "icient": 2367,
      "Ġread": 2368,
      "ules": 2369,
      "Ġfurther": 2370,
      "Ġintrodu": 2371,
      "Ġleft": 2372,
      "Ġfeat": 2373,
      "Ġproducts": 2374,
      "gree": 2375,
      "Ġadvan": 2376,
      "ĠAc": 2377,
      "qua": 2378,
      "wards": 2379,
      "Ġmean": 2380,
      "Ġreduce": 2381,
      "Ġself": 2382,
      "erv": 2383,
      "Ġpractice": 2384,
      "Ġword": 2385,
      "eck": 2386,
      "read": 2387,
      "15": 2388,
      "inte": 2389,
      "Ġ$": 2390,
      "Ġhour": 2391,
      "matic": 2392,
      "Ġcomplet": 2393,
      "Ġachie": 2394,
      "Ġcomplete": 2395,
      "Whe": 2396,
      "Ġquestions": 2397,
      "Ġreceive": 2398,
      "ified": 2399,
      "16": 2400,
      "sun": 2401,
      "Ġans": 2402,
      "Ġlower": 2403,
      "ĠGa": 2404,
      "tua": 2405,
      "erence": 2406,
      "Ġdifficult": 2407,
      "Ġunderstanding": 2408,
      "ĠWar": 2409,
      "Ġcapa": 2410,
      "Ġyoung": 2411,
      "trong": 2412,
      "Ġemplo": 2413,
      "Ġwhite": 2414,
      "gine": 2415,
      "Ġstory": 2416,
      "Ġwhether": 2417,
      "Ġmaterial": 2418,
      "Ġanalysis": 2419,
      "ign": 2420,
      "hern": 2421,
      "most": 2422,
      "ken": 2423,
      "Ġbelow": 2424,
      "Ġregion": 2425,
      "For": 2426,
      "Ġgoin": 2427,
      "Ġclose": 2428,
      "Ġcrea": 2429,
      "Ġsure": 2430,
      "Ġgoing": 2431,
      "Ġline": 2432,
      "erage": 2433,
      "Ġsurface": 2434,
      "cade": 2435,
      "Ġcontinue": 2436,
      "self": 2437,
      "dern": 2438,
      "fil": 2439,
      "ivity": 2440,
      "Ġdeta": 2441,
      "Ġgeneral": 2442,
      "idin": 2443,
      "ida": 2444,
      "Ġproduce": 2445,
      "frien": 2446,
      "30": 2447,
      "fla": 2448,
      "Ġgroups": 2449,
      "ĠCl": 2450,
      "ply": 2451,
      "crit": 2452,
      "Ġbig": 2453,
      "ntion": 2454,
      "tre": 2455,
      "open": 2456,
      "Ġpressure": 2457,
      "Ġnever": 2458,
      "times": 2459,
      ",\"": 2460,
      "ories": 2461,
      "Ġgoa": 2462,
      "Ġgas": 2463,
      "Ġcho": 2464,
      "Ġ30": 2465,
      "Ġnut": 2466,
      "Ġissues": 2467,
      "Ġfactors": 2468,
      "Ġquestion": 2469,
      "Ġfield": 2470,
      "bes": 2471,
      "Ġdeveloped": 2472,
      "iding": 2473,
      "Ġsingl": 2474,
      "skin": 2475,
      "tress": 2476,
      "Ġrecogni": 2477,
      "Ġleav": 2478,
      "Ġmaterials": 2479,
      "Ġleave": 2480,
      "Ġser": 2481,
      "Ġlot": 2482,
      "ĠOne": 2483,
      "ense": 2484,
      "Ġinteres": 2485,
      "Ġsource": 2486,
      "Ġinterest": 2487,
      "ĠWorld": 2488,
      "Ġsingle": 2489,
      "ĠHealth": 2490,
      "Ġrecom": 2491,
      "Ġpolic": 2492,
      "tations": 2493,
      "Ġreal": 2494,
      "Ġsimple": 2495,
      "vered": 2496,
      "Ġhear": 2497,
      "strong": 2498,
      "psy": 2499,
      "17": 2500,
      "ready": 2501,
      "Ġmodel": 2502,
      "ĠBy": 2503,
      "ctor": 2504,
      "Ġassociated": 2505,
      "Ġcorre": 2506,
      "gar": 2507,
      "Ġresponse": 2508,
      "Ġlate": 2509,
      "ĠHow": 2510,
      "Ġeconomic": 2511,
      "Ġprotect": 2512,
      "five": 2513,
      "een": 2514,
      "Ġ14": 2515,
      "Ġfrequen": 2516,
      "Ġbecame": 2517,
      "Ġris": 2518,
      "14": 2519,
      "styl": 2520,
      "ER": 2521,
      "Ġreading": 2522,
      "Ġmedical": 2523,
      "Ġtu": 2524,
      "To": 2525,
      "Ġbea": 2526,
      "Ġhealthy": 2527,
      "tep": 2528,
      "Ġmot": 2529,
      "rations": 2530,
      "Ġkin": 2531,
      "Ġexer": 2532,
      "Ġprevent": 2533,
      "Ġhist": 2534,
      "Ġcity": 2535,
      "Ġconsidered": 2536,
      "gal": 2537,
      "style": 2538,
      "200": 2539,
      "Ġstrong": 2540,
      "sol": 2541,
      "Ġcrit": 2542,
      "owed": 2543,
      "Ġpropert": 2544,
      "Ġseen": 2545,
      "nat": 2546,
      "Ġold": 2547,
      "portun": 2548,
      "Ġdro": 2549,
      "Ġtext": 2550,
      "Ġflu": 2551,
      "Ġfall": 2552,
      "Ġskin": 2553,
      "Ġfish": 2554,
      "Ġdone": 2555,
      "Ġes": 2556,
      "ize": 2557,
      "vat": 2558,
      "ples": 2559,
      "hera": 2560,
      "When": 2561,
      "twork": 2562,
      "tute": 2563,
      "Ġidea": 2564,
      "Ġmethod": 2565,
      "ĠLe": 2566,
      "Ġcoun": 2567,
      "Ġavo": 2568,
      "ĠSouth": 2569,
      "arth": 2570,
      "lready": 2571,
      "lls": 2572,
      "Ġtechni": 2573,
      "Ġini": 2574,
      "urt": 2575,
      "Ġopen": 2576,
      "Ġrelated": 2577,
      "Ġspo": 2578,
      "itute": 2579,
      "mil": 2580,
      "ĠBo": 2581,
      "tted": 2582,
      "Ġaccording": 2583,
      "Ġanimals": 2584,
      "Ġsun": 2585,
      "ural": 2586,
      "tect": 2587,
      "Ġresponsi": 2588,
      "Ġstrateg": 2589,
      "already": 2590,
      "rl": 2591,
      "Ġwhol": 2592,
      "Ġdes": 2593,
      "clus": 2594,
      "Ġprepa": 2595,
      "rise": 2596,
      "rents": 2597,
      "Ġwhole": 2598,
      "Ġalready": 2599,
      "Ġrecommen": 2600,
      "rative": 2601,
      "Ġability": 2602,
      "Ġincreased": 2603,
      "Ġeither": 2604,
      "inj": 2605,
      "Ġnetwork": 2606,
      "iled": 2607,
      "rable": 2608,
      "Ġacce": 2609,
      "Ġrest": 2610,
      "Ġcontain": 2611,
      "Ġsoil": 2612,
      "âĢ¦": 2613,
      "Ġdru": 2614,
      "13": 2615,
      "ssiona": 2616,
      "ave": 2617,
      "Ġfeel": 2618,
      "Ġfocus": 2619,
      "Ġobject": 2620,
      "Ġpost": 2621,
      "Ġdeath": 2622,
      "ughout": 2623,
      "uses": 2624,
      "lig": 2625,
      "ĠRa": 2626,
      "ided": 2627,
      "Ġgl": 2628,
      "Ġbusiness": 2629,
      "Ġapproach": 2630,
      "Ġteam": 2631,
      "Ġmanagement": 2632,
      "Ġdiv": 2633,
      "arg": 2634,
      "Ġloss": 2635,
      "cut": 2636,
      "Ġcreated": 2637,
      "Ġevidence": 2638,
      "Ġindividuals": 2639,
      "Ġnature": 2640,
      "Ġ198": 2641,
      "Ġlov": 2642,
      "uary": 2643,
      "Ġextra": 2644,
      "ici": 2645,
      "Ġparts": 2646,
      "Ġcra": 2647,
      "Ġrather": 2648,
      "Ġfive": 2649,
      "Ġreally": 2650,
      "Ġopportun": 2651,
      "iat": 2652,
      "Ġhtt": 2653,
      "rse": 2654,
      "Ġcondition": 2655,
      "pie": 2656,
      "Ġrequired": 2657,
      "Ġstudent": 2658,
      "reasing": 2659,
      "epa": 2660,
      "Ġretur": 2661,
      "Ġvers": 2662,
      "Ġphot": 2663,
      "bles": 2664,
      "outs": 2665,
      "Ġfire": 2666,
      "Ġprovides": 2667,
      "ift": 2668,
      "ĠThat": 2669,
      "Ġcomplex": 2670,
      "ons": 2671,
      "Ġmid": 2672,
      "Ġachiev": 2673,
      "ele": 2674,
      "Ġachieve": 2675,
      "Ġti": 2676,
      "once": 2677,
      "comes": 2678,
      "tance": 2679,
      "Ġcharacte": 2680,
      "Ġinj": 2681,
      "Ġconten": 2682,
      "tere": 2683,
      "Ġcondu": 2684,
      "Ġeffor": 2685,
      "Ġpurpose": 2686,
      "Ġresearchers": 2687,
      "Ġstates": 2688,
      "timat": 2689,
      "ID": 2690,
      "ings": 2691,
      "Ġliving": 2692,
      "Ġdisa": 2693,
      "Ġheat": 2694,
      "Ġtaken": 2695,
      "ĠNorth": 2696,
      "str": 2697,
      "Ġlay": 2698,
      "ĠAmerica": 2699,
      "Ġonce": 2700,
      "write": 2701,
      "icated": 2702,
      "Ġmeasure": 2703,
      "Ġfil": 2704,
      "timate": 2705,
      "ĠMan": 2706,
      "Ġmeaning": 2707,
      "Ġintera": 2708,
      "rant": 2709,
      "lthough": 2710,
      "stant": 2711,
      "eque": 2712,
      "ĠInst": 2713,
      "Ġconsi": 2714,
      "like": 2715,
      "Ġcomes": 2716,
      "Ġtemperature": 2717,
      "sla": 2718,
      "wind": 2719,
      "Ġlove": 2720,
      "Ġquick": 2721,
      "Ġstructure": 2722,
      "Ġconv": 2723,
      "sex": 2724,
      "Ġneeded": 2725,
      "ĠIndi": 2726,
      "ĠWit": 2727,
      "Ġlives": 2728,
      "irus": 2729,
      "Ġfla": 2730,
      "grams": 2731,
      "Ġservices": 2732,
      "Ġblack": 2733,
      "Ġoffic": 2734,
      "Ġcannot": 2735,
      "sense": 2736,
      "cies": 2737,
      "Ġfat": 2738,
      "Ġassi": 2739,
      "ily": 2740,
      "Ġnecessary": 2741,
      "Ġweight": 2742,
      "Ġterm": 2743,
      "usin": 2744,
      "Ġfrien": 2745,
      "Ġarg": 2746,
      "Ġ13": 2747,
      "Ġpolitical": 2748,
      "urity": 2749,
      "Ġrelig": 2750,
      "tone": 2751,
      "Ġpatter": 2752,
      "Ġtell": 2753,
      "Ġhead": 2754,
      "Ġchemical": 2755,
      "Yo": 2756,
      "fact": 2757,
      "Ġthemselves": 2758,
      "fru": 2759,
      "ulations": 2760,
      "Ġmembers": 2761,
      "____": 2762,
      "Ġmind": 2763,
      "ĠSoc": 2764,
      "used": 2765,
      "ĠCO": 2766,
      "ki": 2767,
      "Ġonline": 2768,
      "Ġglobal": 2769,
      "Ġtyp": 2770,
      "Ġlimit": 2771,
      "bilities": 2772,
      "ĠEv": 2773,
      "Ġsense": 2774,
      "Ġcontent": 2775,
      "cording": 2776,
      "Ġtro": 2777,
      "oks": 2778,
      "Ġproduct": 2779,
      "Ġsoft": 2780,
      "ĠHis": 2781,
      "pect": 2782,
      "Ġthera": 2783,
      "Ġissue": 2784,
      "echan": 2785,
      "Ġsociety": 2786,
      "Ġcost": 2787,
      "Ġworks": 2788,
      "stress": 2789,
      "Ġcauses": 2790,
      "ĠWith": 2791,
      "Ġorigina": 2792,
      "Ġwrite": 2793,
      "Ġactually": 2794,
      "Ġmeta": 2795,
      "Ġlos": 2796,
      "ideo": 2797,
      "Ġred": 2798,
      "Ġrefl": 2799,
      "ĠEarth": 2800,
      "Ġpositive": 2801,
      "Ġfamil": 2802,
      "Ġentire": 2803,
      "mini": 2804,
      "Ġur": 2805,
      "Ġban": 2806,
      "lmost": 2807,
      "ĠJohn": 2808,
      "Ġmethods": 2809,
      "Ġground": 2810,
      "ensiv": 2811,
      "ible": 2812,
      "ĠPh": 2813,
      "ival": 2814,
      "Ġvac": 2815,
      "sition": 2816,
      "Ġgar": 2817,
      "Ġthroughout": 2818,
      "cteria": 2819,
      "ange": 2820,
      "ront": 2821,
      "Ġexercise": 2822,
      "ui": 2823,
      "bor": 2824,
      "Ġhelps": 2825,
      "sepa": 2826,
      "Ġguide": 2827,
      "ĠResearch": 2828,
      "AS": 2829,
      "step": 2830,
      "ĠMay": 2831,
      "Ġouts": 2832,
      "Ġmach": 2833,
      "Ġ100": 2834,
      "Ma": 2835,
      "using": 2836,
      "Ġsubject": 2837,
      "):": 2838,
      "valua": 2839,
      "ograph": 2840,
      "elli": 2841,
      "ray": 2842,
      "Ġparents": 2843,
      "gress": 2844,
      "Ġdocu": 2845,
      "ĠTho": 2846,
      "hips": 2847,
      "Ġmoney": 2848,
      "Ġupon": 2849,
      "Ġmodern": 2850,
      "Ġcomputer": 2851,
      "cient": 2852,
      "Ġthought": 2853,
      "Ġsleep": 2854,
      "Ġdiagno": 2855,
      "Ġspea": 2856,
      "Ġauto": 2857,
      "nded": 2858,
      "Ġut": 2859,
      "Ġview": 2860,
      "Ġaffect": 2861,
      "culture": 2862,
      "Ġcaused": 2863,
      "Ġrights": 2864,
      "olution": 2865,
      "Ġsepa": 2866,
      "almost": 2867,
      "lla": 2868,
      "cas": 2869,
      "Ġstress": 2870,
      "vate": 2871,
      "Ġexte": 2872,
      "Ġessential": 2873,
      "Ġwind": 2874,
      "Ġincreasing": 2875,
      "Ġmonths": 2876,
      "Ġcut": 2877,
      "riety": 2878,
      "oil": 2879,
      "lance": 2880,
      "Ġproper": 2881,
      "ĠX": 2882,
      "vert": 2883,
      "ritish": 2884,
      "Ġfru": 2885,
      "Ġconsider": 2886,
      "sce": 2887,
      "Ġprinci": 2888,
      "Ġterms": 2889,
      "iate": 2890,
      "ES": 2891,
      "Ġpublished": 2892,
      "rica": 2893,
      "Ġrelative": 2894,
      "tors": 2895,
      "ert": 2896,
      "ball": 2897,
      "Ġz": 2898,
      "pict": 2899,
      "Ġshows": 2900,
      "Ġagain": 2901,
      "Ġbenefits": 2902,
      "ets": 2903,
      "nel": 2904,
      "Ġserve": 2905,
      "let": 2906,
      "Ġbri": 2907,
      "Ġdri": 2908,
      "ĠIndia": 2909,
      "hus": 2910,
      "ered": 2911,
      "Ġassess": 2912,
      "ĠÂ": 2913,
      "stop": 2914,
      "rian": 2915,
      "don": 2916,
      "Ġalmost": 2917,
      "mous": 2918,
      "tter": 2919,
      "nor": 2920,
      "Ġproba": 2921,
      "tren": 2922,
      "stri": 2923,
      "Ġincludes": 2924,
      "Ġexperi": 2925,
      "Ġgreen": 2926,
      "You": 2927,
      "Ġdefin": 2928,
      "Ġetc": 2929,
      "tially": 2930,
      "Ġsample": 2931,
      "Ġ,": 2932,
      "lism": 2933,
      "Ġpromo": 2934,
      "Ġpsy": 2935,
      "Ġoil": 2936,
      "ronic": 2937,
      "Ġjob": 2938,
      "ince": 2939,
      "Ġtotal": 2940,
      "Ġweek": 2941,
      "ĠFi": 2942,
      "AT": 2943,
      "Ġeasy": 2944,
      "Ġden": 2945,
      "rup": 2946,
      "eets": 2947,
      "Ġ|": 2948,
      "Ġemo": 2949,
      "utes": 2950,
      "Ġdegree": 2951,
      "Ġaction": 2952,
      "Ġitself": 2953,
      "Ġtaking": 2954,
      "Ġvariety": 2955,
      "Ġenvironmental": 2956,
      "Ġcolor": 2957,
      "una": 2958,
      "Ġindustry": 2959,
      "Ġemploy": 2960,
      "Ġcompone": 2961,
      "urch": 2962,
      "Ġhalf": 2963,
      "www": 2964,
      "ĠTe": 2965,
      "Ġensure": 2966,
      "Ġsyn": 2967,
      "nia": 2968,
      "Ġinfluence": 2969,
      "Ġqui": 2970,
      "Ġmath": 2971,
      "Ġcompany": 2972,
      "Ġtraining": 2973,
      "pts": 2974,
      "ĠWhile": 2975,
      "Ġprevious": 2976,
      "Ġculture": 2977,
      "stren": 2978,
      "cru": 2979,
      "ims": 2980,
      "gy": 2981,
      "Ġrelease": 2982,
      "Ġmarket": 2983,
      "Ġrega": 2984,
      "creat": 2985,
      "gative": 2986,
      "Ġdiet": 2987,
      "Ġextre": 2988,
      "Ġnational": 2989,
      "cust": 2990,
      "lized": 2991,
      "Ġhappe": 2992,
      "Ġstop": 2993,
      "ĠCoun": 2994,
      "Ġpie": 2995,
      "ubl": 2996,
      "dings": 2997,
      "Ġshown": 2998,
      "Ġol": 2999,
      "Ġmechan": 3000,
      "ĠEl": 3001,
      "illed": 3002,
      "Ġ50": 3003,
      "reater": 3004,
      "Ġ197": 3005,
      "rdin": 3006,
      "stern": 3007,
      "Ġ11": 3008,
      "cum": 3009,
      "Ġsex": 3010,
      "AR": 3011,
      "Ġpay": 3012,
      "Ġkind": 3013,
      "Ġexis": 3014,
      "Ġexist": 3015,
      "ufact": 3016,
      "Ġsym": 3017,
      "lam": 3018,
      "Ġprocesse": 3019,
      "Ġsources": 3020,
      "ĠBritish": 3021,
      "De": 3022,
      "Ġstren": 3023,
      "Ġlonger": 3024,
      "mis": 3025,
      "ĠAfter": 3026,
      "Ġprofessiona": 3027,
      "Ġface": 3028,
      "Ġspen": 3029,
      "Ġever": 3030,
      "lv": 3031,
      "Ġsuper": 3032,
      "Ġcarbon": 3033,
      "pp": 3034,
      "Ġposition": 3035,
      "Ġbacteria": 3036,
      "ĠMi": 3037,
      "Ġdesigned": 3038,
      "Ġregular": 3039,
      "Ġservice": 3040,
      "Ġhours": 3041,
      "Ġox": 3042,
      "ensive": 3043,
      "aware": 3044,
      "lds": 3045,
      "Ġbegan": 3046,
      "Ġremov": 3047,
      "Ġremove": 3048,
      "Ġwast": 3049,
      "Ġwaste": 3050,
      "Ġimage": 3051,
      "Ġstep": 3052,
      "Ġuses": 3053,
      "Ġpersonal": 3054,
      "Ġdamage": 3055,
      "tered": 3056,
      "Ġmatter": 3057,
      "Ġles": 3058,
      "Ġengine": 3059,
      "Ġfoods": 3060,
      "Ġrecent": 3061,
      "icien": 3062,
      "ĠAus": 3063,
      "pria": 3064,
      "iso": 3065,
      "cles": 3066,
      "ĠGene": 3067,
      "oos": 3068,
      "ĠKa": 3069,
      "lands": 3070,
      "uble": 3071,
      "Ġyet": 3072,
      "Ġprovided": 3073,
      "lse": 3074,
      ".)": 3075,
      "ention": 3076,
      "ournal": 3077,
      "Ġmal": 3078,
      "Ġhisto": 3079,
      "Ġtarge": 3080,
      "ĠSe": 3081,
      "Ġpoo": 3082,
      "ĠJu": 3083,
      "Ġ25": 3084,
      "Ġenga": 3085,
      "Ġbehavio": 3086,
      "Ġ/": 3087,
      "Ġwritten": 3088,
      "Ġlen": 3089,
      "Ġbasic": 3090,
      "Ġtook": 3091,
      "Ġeat": 3092,
      "Ġelectric": 3093,
      "male": 3094,
      "Ġspecial": 3095,
      "Ġevents": 3096,
      "fully": 3097,
      "Ġena": 3098,
      "ĠKin": 3099,
      "Ġreason": 3100,
      "pective": 3101,
      "place": 3102,
      "Ġschools": 3103,
      "ĠYork": 3104,
      "Ġfinan": 3105,
      "pean": 3106,
      "Ġconstru": 3107,
      "à¤": 3108,
      "Ġplat": 3109,
      "Ġmental": 3110,
      "ecto": 3111,
      "Ġconcer": 3112,
      "nito": 3113,
      "sident": 3114,
      "Ġactive": 3115,
      "astic": 3116,
      "partment": 3117,
      "Ġmovement": 3118,
      "Ã©": 3119,
      "ĠAct": 3120,
      "Ġow": 3121,
      "Ġson": 3122,
      "Ġaverage": 3123,
      "Ġimple": 3124,
      "Ġcust": 3125,
      "Ġpha": 3126,
      "Ġearth": 3127,
      "Ġspi": 3128,
      "Ġbuilt": 3129,
      "ume": 3130,
      "ĠAr": 3131,
      "Ġforms": 3132,
      "iol": 3133,
      "Ġfig": 3134,
      "Ġestimate": 3135,
      "Ġinterna": 3136,
      "Ġmass": 3137,
      "ĠCanad": 3138,
      "Ġideas": 3139,
      "chool": 3140,
      "22": 3141,
      "bill": 3142,
      "Ġencoura": 3143,
      "Ġdistri": 3144,
      "Ġrefer": 3145,
      "Ġdat": 3146,
      "Ġcre": 3147,
      "Ġgreater": 3148,
      "wis": 3149,
      "imately": 3150,
      "Ġrai": 3151,
      "tives": 3152,
      "rating": 3153,
      "rri": 3154,
      "Ġmaintain": 3155,
      "ny": 3156,
      "ĠIm": 3157,
      "Ġnumbers": 3158,
      "Ġturn": 3159,
      "bat": 3160,
      "ĠShe": 3161,
      "ification": 3162,
      "hina": 3163,
      "Ġdevelopin": 3164,
      "Ġdeveloping": 3165,
      "Ġspee": 3166,
      "insta": 3167,
      "Ġmedia": 3168,
      "rily": 3169,
      "Ġled": 3170,
      "tine": 3171,
      "Ġdrin": 3172,
      "tar": 3173,
      "rently": 3174,
      "Ġpopular": 3175,
      "ras": 3176,
      "ico": 3177,
      "Ġavoid": 3178,
      "Ġthing": 3179,
      "rench": 3180,
      "Ġ196": 3181,
      "dat": 3182,
      "\".": 3183,
      "ĠInter": 3184,
      "Ġteachers": 3185,
      "Ġaddress": 3186,
      "Ġmusic": 3187,
      "Ġpage": 3188,
      "Ġpoor": 3189,
      "Ġdiseases": 3190,
      "ĠVi": 3191,
      "Ġinterv": 3192,
      "Ġcreat": 3193,
      "rates": 3194,
      "ages": 3195,
      "Ġdiscuss": 3196,
      "Ġsco": 3197,
      "Ġsometimes": 3198,
      "Ġinvolved": 3199,
      "Ġdate": 3200,
      "Ġattention": 3201,
      "bert": 3202,
      "ker": 3203,
      "gene": 3204,
      "Ġdemons": 3205,
      "21": 3206,
      "Ġtrue": 3207,
      "pic": 3208,
      "Ġoutside": 3209,
      "llege": 3210,
      "rve": 3211,
      "ĠMon": 3212,
      "ĠScience": 3213,
      "Ġpatient": 3214,
      "ĠDr": 3215,
      "Ġkids": 3216,
      "Ġextreme": 3217,
      "know": 3218,
      "Ġprimary": 3219,
      "squ": 3220,
      "ĠII": 3221,
      "Ġenter": 3222,
      "Ġcontact": 3223,
      "Ġmor": 3224,
      "els": 3225,
      "Ġproduced": 3226,
      "Ġallows": 3227,
      "Ġbehavior": 3228,
      "IN": 3229,
      "Ġscientists": 3230,
      "Ġmanufact": 3231,
      "nate": 3232,
      "ands": 3233,
      "Ġcompan": 3234,
      "ratory": 3235,
      "tings": 3236,
      "civ": 3237,
      "arch": 3238,
      "Ġperformance": 3239,
      "siste": 3240,
      "eel": 3241,
      "ĠSu": 3242,
      "Ġrad": 3243,
      "mply": 3244,
      "Ġmol": 3245,
      "eno": 3246,
      "Ġanimal": 3247,
      "Ġconcen": 3248,
      "Ġdifference": 3249,
      "Ġnegative": 3250,
      "Ġgenerally": 3251,
      "Ġparticularly": 3252,
      "Ġbill": 3253,
      "Ġpict": 3254,
      "Ġaware": 3255,
      "Ġagree": 3256,
      "rks": 3257,
      "ream": 3258,
      "Ġnormal": 3259,
      "Ġbuild": 3260,
      "mas": 3261,
      "Ġgrowing": 3262,
      "Ġcit": 3263,
      "Ġshare": 3264,
      "Ġcat": 3265,
      "Ġtools": 3266,
      "Ġunique": 3267,
      "Ġvege": 3268,
      "Ġinsta": 3269,
      "ĠMar": 3270,
      "bution": 3271,
      "Ġsimply": 3272,
      "Ġvaria": 3273,
      "Ġwild": 3274,
      "40": 3275,
      "Ġprograms": 3276,
      "Be": 3277,
      "Ġmultiple": 3278,
      "inco": 3279,
      "bete": 3280,
      "Ġequa": 3281,
      "Ġcritical": 3282,
      "Ġindepen": 3283,
      "betes": 3284,
      "Ġsafety": 3285,
      "IS": 3286,
      "eory": 3287,
      "heory": 3288,
      "Ġdoin": 3289,
      "Ġscal": 3290,
      "ector": 3291,
      "Ġreach": 3292,
      "Ġdoing": 3293,
      "Ġov": 3294,
      "Ġlar": 3295,
      "rot": 3296,
      "Ġreporte": 3297,
      "ĠPla": 3298,
      "Ġreported": 3299,
      "sily": 3300,
      "irds": 3301,
      "iciency": 3302,
      "ann": 3303,
      "ook": 3304,
      "Ġtiss": 3305,
      "Ġwebsite": 3306,
      "list": 3307,
      "Ġinfection": 3308,
      "imum": 3309,
      "Ġacid": 3310,
      "tration": 3311,
      "mitted": 3312,
      "Ġcomb": 3313,
      "âĢ¢": 3314,
      "Ġciv": 3315,
      "Ġdetermine": 3316,
      "Ġforce": 3317,
      "Ġdaily": 3318,
      "Ġtheory": 3319,
      "ĠGra": 3320,
      "Ġemer": 3321,
      "Ġeasily": 3322,
      "Ġstrength": 3323,
      "Ġsla": 3324,
      "Ġevalua": 3325,
      "ĠAp": 3326,
      "ĠYour": 3327,
      "ĠMore": 3328,
      "Ġsix": 3329,
      "priat": 3330,
      "ago": 3331,
      "series": 3332,
      "priate": 3333,
      "unts": 3334,
      "Ġcalc": 3335,
      "Ġdeep": 3336,
      "Ġoriginal": 3337,
      "pid": 3338,
      "Ġsugges": 3339,
      "Ġstr": 3340,
      "Ġtakes": 3341,
      "Ġpea": 3342,
      "ĠPer": 3343,
      "file": 3344,
      "25": 3345,
      "Ġquit": 3346,
      "gers": 3347,
      "bran": 3348,
      "ective": 3349,
      "tained": 3350,
      "ĠSha": 3351,
      "Ġsim": 3352,
      "ĠChina": 3353,
      "bad": 3354,
      "Ġanswer": 3355,
      "Ġincluded": 3356,
      "ĠKing": 3357,
      "Ġarch": 3358,
      "Ġtal": 3359,
      "Ġhumans": 3360,
      "Ġdemand": 3361,
      "sian": 3362,
      "Ġserious": 3363,
      "Ġperfor": 3364,
      "pas": 3365,
      "Ġtree": 3366,
      "hood": 3367,
      "unda": 3368,
      "lterna": 3369,
      "Ġvisit": 3370,
      "Ġpoll": 3371,
      "irs": 3372,
      "hird": 3373,
      "--": 3374,
      "Ġequip": 3375,
      "Ġcheck": 3376,
      "gat": 3377,
      "Ġgetting": 3378,
      "Ġtravel": 3379,
      "Ġsomeone": 3380,
      "Ġdigi": 3381,
      "rter": 3382,
      "Ġseries": 3383,
      "Ġcall": 3384,
      "date": 3385,
      "Ġcompared": 3386,
      "ilitary": 3387,
      "lyin": 3388,
      "lying": 3389,
      "Ġinvestiga": 3390,
      "ĠSy": 3391,
      "ĠMany": 3392,
      "press": 3393,
      "Ġtraditional": 3394,
      "served": 3395,
      "xed": 3396,
      "Ġtherefore": 3397,
      "Ġmag": 3398,
      "Ġmod": 3399,
      "Ġcompet": 3400,
      "Ġfer": 3401,
      "utions": 3402,
      "Ġbooks": 3403,
      "Ġsuggest": 3404,
      "cry": 3405,
      "Ġhol": 3406,
      "Ġpolicy": 3407,
      "Ġvalues": 3408,
      "ĠEurope": 3409,
      "erall": 3410,
      "inside": 3411,
      "cause": 3412,
      "Ġbase": 3413,
      "Ġsupply": 3414,
      "servation": 3415,
      "Ġpoints": 3416,
      "oca": 3417,
      "rest": 3418,
      "Ġlooking": 3419,
      "Ġsqu": 3420,
      "ĠUs": 3421,
      "Ġcover": 3422,
      "ulated": 3423,
      "Ġliste": 3424,
      "ĠRus": 3425,
      "Ġcru": 3426,
      "Ġstri": 3427,
      "Ġstandard": 3428,
      "Ġsat": 3429,
      "Ġsolar": 3430,
      "Ġir": 3431,
      "Ġbreak": 3432,
      "Ġflow": 3433,
      "Ġelements": 3434,
      "rew": 3435,
      "Ġinside": 3436,
      "ĠLon": 3437,
      "Ġidentify": 3438,
      "ĠEduca": 3439,
      "tionary": 3440,
      "Ġdoesn": 3441,
      "ordin": 3442,
      "Ġfeet": 3443,
      "Ġscale": 3444,
      "Ġdie": 3445,
      "tamin": 3446,
      "Ġaccu": 3447,
      "fic": 3448,
      "Ġattem": 3449,
      "Ġsustain": 3450,
      "rum": 3451,
      "Ġcoa": 3452,
      "water": 3453,
      "Ġtas": 3454,
      "mune": 3455,
      "Ġclin": 3456,
      "Ġaccount": 3457,
      "ired": 3458,
      "Ġtrees": 3459,
      "fast": 3460,
      "Ġfail": 3461,
      "ĠEve": 3462,
      "ĠWill": 3463,
      "esis": 3464,
      "ides": 3465,
      "Ġtowards": 3466,
      "Ġfemale": 3467,
      "cultural": 3468,
      "lco": 3469,
      "Ġcorrect": 3470,
      "Ġvideo": 3471,
      "Ġago": 3472,
      "het": 3473,
      "alterna": 3474,
      "Ġstarte": 3475,
      "Ġstarted": 3476,
      "Ġdry": 3477,
      "Ġcommunities": 3478,
      "Ġthus": 3479,
      "Ġprotein": 3480,
      "swi": 3481,
      "Ġteachin": 3482,
      "Ġteaching": 3483,
      "Ġunit": 3484,
      "Ġstyle": 3485,
      "dium": 3486,
      "fect": 3487,
      "anic": 3488,
      "hind": 3489,
      "phi": 3490,
      "Ġquickly": 3491,
      "stry": 3492,
      "smo": 3493,
      "Ġcommunication": 3494,
      "Ġlocat": 3495,
      "hesis": 3496,
      "icans": 3497,
      "Ġhighly": 3498,
      "ham": 3499,
      "Ġ24": 3500,
      "deral": 3501,
      "Ġsitu": 3502,
      "Ġcapi": 3503,
      "cular": 3504,
      "sms": 3505,
      "Ġsound": 3506,
      "item": 3507,
      "Ġsearch": 3508,
      "rican": 3509,
      "ministra": 3510,
      "Ġlocate": 3511,
      "Ġfeatures": 3512,
      "ives": 3513,
      "sli": 3514,
      "ON": 3515,
      "Ġmas": 3516,
      "Ġalterna": 3517,
      "Ġsal": 3518,
      "ify": 3519,
      "But": 3520,
      "ĠFe": 3521,
      "Ġinstead": 3522,
      "Ġpsycho": 3523,
      "Ġprocesses": 3524,
      "Ġscientific": 3525,
      "Ġinternational": 3526,
      "mentation": 3527,
      "ĠDev": 3528,
      "ĠSchool": 3529,
      "Ġdirectly": 3530,
      "ĠBu": 3531,
      "ĠRev": 3532,
      "Ġdispla": 3533,
      "Ġdeal": 3534,
      "Ġpartici": 3535,
      "Ġlarger": 3536,
      "produ": 3537,
      "ano": 3538,
      "ĠGu": 3539,
      "Ġbit": 3540,
      "Ġspread": 3541,
      "Ġpasse": 3542,
      "rage": 3543,
      "Ġvia": 3544,
      "ĠEuropean": 3545,
      "Ġbran": 3546,
      "Ġleading": 3547,
      "section": 3548,
      "front": 3549,
      "Ġfoll": 3550,
      "Ġagen": 3551,
      "Ġcontribute": 3552,
      "mination": 3553,
      "AN": 3554,
      "Ġmonito": 3555,
      "Ġoffer": 3556,
      "although": 3557,
      "ush": 3558,
      "oor": 3559,
      "oose": 3560,
      "Ġneuro": 3561,
      "Ġbalance": 3562,
      "Ġitem": 3563,
      "Ġleaders": 3564,
      "Ġadded": 3565,
      "Ġnight": 3566,
      "Ġimportance": 3567,
      "Ġuseful": 3568,
      "gre": 3569,
      "Ġlack": 3570,
      "Ġexten": 3571,
      "Ġreme": 3572,
      "Ġ40": 3573,
      "gue": 3574,
      "unded": 3575,
      "Ġproced": 3576,
      "Ġthinking": 3577,
      "Ġadap": 3578,
      "ssi": 3579,
      "Ġrise": 3580,
      "ĠArt": 3581,
      "ctin": 3582,
      "Ġexamples": 3583,
      "ĠGree": 3584,
      "Ġsav": 3585,
      "Ġbeginning": 3586,
      "Ġadditional": 3587,
      "Ġswi": 3588,
      "Ġquite": 3589,
      "eeth": 3590,
      "Ġrelationship": 3591,
      "Ġsecurity": 3592,
      "Ġtechniques": 3593,
      "logies": 3594,
      "Ġcompanies": 3595,
      "Ġsoftware": 3596,
      "Ġpas": 3597,
      "Ġcel": 3598,
      "ond": 3599,
      "Ġinjur": 3600,
      "Ġthird": 3601,
      "Ġenjo": 3602,
      "Ġfinancial": 3603,
      "Ho": 3604,
      "erat": 3605,
      "alo": 3606,
      "Ġdeca": 3607,
      "Ġrais": 3608,
      "Ġcontains": 3609,
      "Ġdrive": 3610,
      "ĠGeo": 3611,
      "mar": 3612,
      "ĠAfrica": 3613,
      "Ġhydro": 3614,
      "ĠFrench": 3615,
      "Ġdevices": 3616,
      "she": 3617,
      "ĠSpa": 3618,
      "Ġprobably": 3619,
      "Ġestablished": 3620,
      "ĠMost": 3621,
      "Ġleaves": 3622,
      "cult": 3623,
      "Ġexp": 3624,
      "ĠLear": 3625,
      "Ġvisu": 3626,
      "ĠChild": 3627,
      "iverse": 3628,
      "Ġtable": 3629,
      "gate": 3630,
      "Ġrequires": 3631,
      "OR": 3632,
      "ĠBri": 3633,
      "Ġ:": 3634,
      "Ġmine": 3635,
      "eps": 3636,
      "Ġvirus": 3637,
      "One": 3638,
      "Ġheav": 3639,
      "Ġsolution": 3640,
      "sity": 3641,
      "gency": 3642,
      "Ġraise": 3643,
      "ancient": 3644,
      "Ġimmed": 3645,
      "Ġtypically": 3646,
      "Ġcharacteris": 3647,
      "spit": 3648,
      "Ġmess": 3649,
      "Ġdu": 3650,
      "tative": 3651,
      "vis": 3652,
      "gence": 3653,
      "Ġlimite": 3654,
      "23": 3655,
      "Ġmale": 3656,
      "ĠPart": 3657,
      "Ġlimited": 3658,
      "ĠInstitute": 3659,
      "spite": 3660,
      "Ġapplication": 3661,
      "ority": 3662,
      "Ġbehind": 3663,
      "hicle": 3664,
      "Ġbirth": 3665,
      "ĠBra": 3666,
      "room": 3667,
      "fort": 3668,
      "missions": 3669,
      "Ġsituation": 3670,
      "lum": 3671,
      "ĠRom": 3672,
      "Ġwin": 3673,
      "Ġpossi": 3674,
      "Ġdecrease": 3675,
      "Ġthous": 3676,
      "Ġfeed": 3677,
      "ĠHere": 3678,
      "Ġassu": 3679,
      "phy": 3680,
      "IC": 3681,
      "bits": 3682,
      "meter": 3683,
      "Ġconst": 3684,
      "cup": 3685,
      "Ex": 3686,
      "Ġancient": 3687,
      "stances": 3688,
      "Ġnorth": 3689,
      "Ġmedic": 3690,
      "evere": 3691,
      "qui": 3692,
      "Ġnation": 3693,
      "Ġver": 3694,
      "Ġappropriate": 3695,
      "Ġgame": 3696,
      "ĠGo": 3697,
      "posure": 3698,
      "Ġeg": 3699,
      "hel": 3700,
      "Ġx": 3701,
      "ternational": 3702,
      "pter": 3703,
      "Ġapplications": 3704,
      "ĠSta": 3705,
      "Ġsection": 3706,
      "Ġadults": 3707,
      "Ġteeth": 3708,
      "bring": 3709,
      "Ġalthough": 3710,
      "Ġmolec": 3711,
      "Ġvie": 3712,
      "ĠAfrican": 3713,
      "Ġsymbo": 3714,
      "cting": 3715,
      "Ġcompl": 3716,
      "ĠBio": 3717,
      "Ġsouth": 3718,
      "ĠJan": 3719,
      "oles": 3720,
      "mente": 3721,
      "Ġki": 3722,
      "âĢĿ.": 3723,
      "ĠBla": 3724,
      "ground": 3725,
      "Ġagric": 3726,
      "Ġsli": 3727,
      "Ġann": 3728,
      "Ġcultural": 3729,
      "Ġfamilies": 3730,
      "Ġappear": 3731,
      "pping": 3732,
      "Ġtool": 3733,
      "Ġ194": 3734,
      "hal": 3735,
      "Ġmonth": 3736,
      "Ġbring": 3737,
      "cking": 3738,
      "Ġhu": 3739,
      "Ġevent": 3740,
      "mption": 3741,
      "Ġbad": 3742,
      "ĠTech": 3743,
      "minat": 3744,
      "ĠVa": 3745,
      "Ġmilitary": 3746,
      "sphere": 3747,
      "breat": 3748,
      "Ġmemory": 3749,
      "ĠAug": 3750,
      "reated": 3751,
      "ĠCons": 3752,
      "Wi": 3753,
      "Ġsugar": 3754,
      "Ġprotection": 3755,
      "slow": 3756,
      "ino": 3757,
      "Ġcreating": 3758,
      "Ġorganization": 3759,
      "formation": 3760,
      "cal": 3761,
      "Ġprove": 3762,
      "Ġdefe": 3763,
      "Ġappea": 3764,
      "sn": 3765,
      "rif": 3766,
      "Ġauthor": 3767,
      "itution": 3768,
      "Ġexact": 3769,
      "ock": 3770,
      "Ġcard": 3771,
      "severe": 3772,
      "ĠAlthough": 3773,
      "cil": 3774,
      "ĠMus": 3775,
      "inted": 3776,
      "mented": 3777,
      "ĠUse": 3778,
      "EN": 3779,
      "Ġchoose": 3780,
      "Ġminutes": 3781,
      "ene": 3782,
      "Ġcult": 3783,
      "birds": 3784,
      "zations": 3785,
      "Ġdigital": 3786,
      "Ġheld": 3787,
      "iers": 3788,
      "unding": 3789,
      "ĠKe": 3790,
      "preh": 3791,
      "Ġgen": 3792,
      "Ġrule": 3793,
      "hers": 3794,
      "Ġsce": 3795,
      "Ġslow": 3796,
      "Ġdecision": 3797,
      "ĠGerman": 3798,
      "Ġrepresent": 3799,
      "Ġtests": 3800,
      "ĠHistory": 3801,
      "Ġsevere": 3802,
      "Ġrates": 3803,
      "Ġlargest": 3804,
      "Ġcentral": 3805,
      "sensi": 3806,
      "Ġdiabetes": 3807,
      "ĠDis": 3808,
      "On": 3809,
      "Ġhands": 3810,
      "ĠSpe": 3811,
      "rms": 3812,
      "Ġspecia": 3813,
      "rded": 3814,
      "Ġbreat": 3815,
      "Ġsave": 3816,
      "Ġspeed": 3817,
      "rpo": 3818,
      "Ġlines": 3819,
      "Ġteacher": 3820,
      "Ġtherapy": 3821,
      "Ġstage": 3822,
      "Ġsmo": 3823,
      "mentary": 3824,
      "gton": 3825,
      "haps": 3826,
      "tim": 3827,
      "rmy": 3828,
      "teps": 3829,
      "oe": 3830,
      "ĠEven": 3831,
      "Ġbecomes": 3832,
      "Ġharm": 3833,
      "heo": 3834,
      "pril": 3835,
      "Ġindicate": 3836,
      "lines": 3837,
      "ĠCali": 3838,
      "Ġpractices": 3839,
      "Ġwon": 3840,
      "Ġoverall": 3841,
      "rmo": 3842,
      "Ġroo": 3843,
      "ĠOf": 3844,
      "Ġconcept": 3845,
      "nother": 3846,
      "Ġimages": 3847,
      "Ġpan": 3848,
      "Ġpromot": 3849,
      "Ġlocated": 3850,
      "Ġdoctor": 3851,
      "Ġpromote": 3852,
      "Ġtrade": 3853,
      "ew": 3854,
      "Ġsold": 3855,
      "Ġaffected": 3856,
      "Ġcarry": 3857,
      "Ġtesting": 3858,
      "wise": 3859,
      "Ġvari": 3860,
      "Ġeating": 3861,
      "stone": 3862,
      "coming": 3863,
      "publ": 3864,
      "ĠCenter": 3865,
      "Ġdescribed": 3866,
      "Ġcosts": 3867,
      "Ch": 3868,
      "Ġrapid": 3869,
      "noun": 3870,
      "Ġgoal": 3871,
      "rough": 3872,
      "ĠIndian": 3873,
      "Ġtarget": 3874,
      "ĠDay": 3875,
      "zz": 3876,
      "Ġiso": 3877,
      "inno": 3878,
      "loso": 3879,
      "ternal": 3880,
      "Ġvehicle": 3881,
      "ĠFirst": 3882,
      "Con": 3883,
      "Ġdet": 3884,
      "life": 3885,
      "Ġcode": 3886,
      "Ġstru": 3887,
      "fornia": 3888,
      "ĠWork": 3889,
      "ians": 3890,
      "Some": 3891,
      "useum": 3892,
      "minate": 3893,
      "Ġsui": 3894,
      "Ġoccurs": 3895,
      "ssor": 3896,
      "Ġweeks": 3897,
      "60": 3898,
      "AC": 3899,
      "sorder": 3900,
      "ux": 3901,
      "rthern": 3902,
      "Ġfoot": 3903,
      "ĠFrom": 3904,
      "ĠQu": 3905,
      "erature": 3906,
      "mise": 3907,
      "ĠWes": 3908,
      "ĠPubl": 3909,
      "Ġcross": 3910,
      "ĠComp": 3911,
      "gu": 3912,
      "cked": 3913,
      "sors": 3914,
      "Ġfront": 3915,
      "Ġqua": 3916,
      "24": 3917,
      "Ġinco": 3918,
      "Ġadop": 3919,
      "book": 3920,
      "Ġinteg": 3921,
      "clear": 3922,
      "Ġdifferences": 3923,
      "cently": 3924,
      "elt": 3925,
      "Ġones": 3926,
      "bing": 3927,
      "dly": 3928,
      "ĠSco": 3929,
      "80": 3930,
      "Ġlength": 3931,
      "ED": 3932,
      "Ġcapt": 3933,
      "ĠInternational": 3934,
      "indu": 3935,
      "Ġshape": 3936,
      "Ġproviding": 3937,
      "Ġprojects": 3938,
      "fill": 3939,
      "Ġdevice": 3940,
      "ilk": 3941,
      "zes": 3942,
      "Ġestablish": 3943,
      "right": 3944,
      "Ġalo": 3945,
      "Ġvacc": 3946,
      "ĠMarch": 3947,
      "Thes": 3948,
      "ancy": 3949,
      "Ġcolon": 3950,
      "These": 3951,
      "Ġplaces": 3952,
      "angl": 3953,
      "inese": 3954,
      "Ġconfl": 3955,
      "Ġprofessional": 3956,
      "Ġgives": 3957,
      "Ġmodels": 3958,
      "ntially": 3959,
      "Ġcommonly": 3960,
      "kets": 3961,
      "Ġlost": 3962,
      "Ġpor": 3963,
      "gration": 3964,
      "Ġworkers": 3965,
      "Ġ21": 3966,
      "IV": 3967,
      "Ġconstruction": 3968,
      "Ġelectro": 3969,
      "Ġinno": 3970,
      "Ġadj": 3971,
      "Ġwav": 3972,
      "Ġreview": 3973,
      "Ġsurro": 3974,
      "Ġdark": 3975,
      "Ġequipment": 3976,
      "ĠFran": 3977,
      "Ġresponsible": 3978,
      "ĠFin": 3979,
      "nomic": 3980,
      "pot": 3981,
      "steps": 3982,
      "ĠMat": 3983,
      "Ġremains": 3984,
      "Ġcold": 3985,
      "tual": 3986,
      "Ġreasons": 3987,
      "Ġ+": 3988,
      "ĠSan": 3989,
      "Ġobjects": 3990,
      "ĠWest": 3991,
      "Ġdemonstrate": 3992,
      "Ġpoly": 3993,
      "Ġbasi": 3994,
      "Ġhot": 3995,
      "xes": 3996,
      "Ġfast": 3997,
      "Ġsteps": 3998,
      "Ac": 3999,
      "lian": 4000,
      "Ġbenefit": 4001,
      "Ġlog": 4002,
      "Ġbeaut": 4003,
      "Ġtan": 4004,
      "Ġbasis": 4005,
      "cademic": 4006,
      "lier": 4007,
      "Ġwhos": 4008,
      "Ġmention": 4009,
      "Ġcu": 4010,
      "vision": 4011,
      "Ġmeasures": 4012,
      "Ġwhose": 4013,
      "care": 4014,
      "Ġprote": 4015,
      "Ġexposure": 4016,
      "Ġproperties": 4017,
      "Ġrich": 4018,
      "Ġsurge": 4019,
      "Ġremain": 4020,
      "ctors": 4021,
      "ĠInd": 4022,
      "Ġtax": 4023,
      "Ġ...": 4024,
      "Ġfriends": 4025,
      "ĠSep": 4026,
      "Ġmiddle": 4027,
      "nous": 4028,
      "Ġimmune": 4029,
      "Ġeyes": 4030,
      "gation": 4031,
      "Ġtheo": 4032,
      "ĠKo": 4033,
      "ĠEducation": 4034,
      "assi": 4035,
      "Ġviol": 4036,
      "ĠGerm": 4037,
      "anx": 4038,
      "Ġhttp": 4039,
      "ĠGro": 4040,
      "Ġask": 4041,
      "Ġsites": 4042,
      "Ġyourself": 4043,
      "can": 4044,
      "Ġweather": 4045,
      "Ġfoc": 4046,
      "Ġsensi": 4047,
      "Ġrare": 4048,
      "ember": 4049,
      "Ġpath": 4050,
      "nese": 4051,
      "Ġwen": 4052,
      "band": 4053,
      "mine": 4054,
      "Ġ2010": 4055,
      "Ġclea": 4056,
      "ĠWas": 4057,
      "Ġfacto": 4058,
      "ĠDepartment": 4059,
      "ĠCalifornia": 4060,
      "Ġseems": 4061,
      "Ġwood": 4062,
      "Ġwave": 4063,
      "Ġ2012": 4064,
      "Ġmeet": 4065,
      "Ġhabi": 4066,
      "wes": 4067,
      "Ġillus": 4068,
      "Ġbrought": 4069,
      "tember": 4070,
      "Ġwent": 4071,
      "Ġperce": 4072,
      "gro": 4073,
      "Ġoppo": 4074,
      "Ġhund": 4075,
      "Ġsoon": 4076,
      "Ġmiles": 4077,
      "Ġtopic": 4078,
      "stim": 4079,
      "fir": 4080,
      "Ġprivate": 4081,
      "Ġcusto": 4082,
      "dence": 4083,
      "elop": 4084,
      "alco": 4085,
      "Ġcomponents": 4086,
      "Ġreturn": 4087,
      "Ġinterpre": 4088,
      "Ġball": 4089,
      "ĠRea": 4090,
      "Ġdrug": 4091,
      "Ġproperty": 4092,
      "sisten": 4093,
      "ĠJune": 4094,
      "Ġdistin": 4095,
      "Ġenha": 4096,
      "No": 4097,
      "Ġexpected": 4098,
      "Ġdog": 4099,
      "winter": 4100,
      "Ġmax": 4101,
      "ĠâĢ¦": 4102,
      "ĠRiver": 4103,
      "Ġefforts": 4104,
      "Ġborn": 4105,
      "Ġ2013": 4106,
      "Ġquant": 4107,
      "Ġelse": 4108,
      "Ġcenter": 4109,
      "Ġcontinu": 4110,
      "ah": 4111,
      "clusion": 4112,
      "Ġhope": 4113,
      "Ġgenetic": 4114,
      "Ġroom": 4115,
      "Ġsmaller": 4116,
      "IT": 4117,
      "Ġseven": 4118,
      "ump": 4119,
      "Ġreceived": 4120,
      "Ġmachine": 4121,
      "fs": 4122,
      "Ġice": 4123,
      "ĠEngland": 4124,
      "ĠCanada": 4125,
      "Ġeconomy": 4126,
      "rived": 4127,
      "Ġlocation": 4128,
      "Ġ2015": 4129,
      "Ġanx": 4130,
      "Ġsummer": 4131,
      "tally": 4132,
      "At": 4133,
      "tero": 4134,
      "zy": 4135,
      "ĠAmericans": 4136,
      "Ġmu": 4137,
      "Ġmaj": 4138,
      "Ġcommer": 4139,
      "yal": 4140,
      "ĠPlan": 4141,
      "ctober": 4142,
      "pul": 4143,
      "Ġuser": 4144,
      "tually": 4145,
      "Ġcitize": 4146,
      "income": 4147,
      "ellow": 4148,
      "ĠMed": 4149,
      "Ġclean": 4150,
      "Ġfina": 4151,
      "Ġpregn": 4152,
      "Ġlitera": 4153,
      "uman": 4154,
      "Ġutili": 4155,
      "ship": 4156,
      "itude": 4157,
      "ĠBro": 4158,
      "Ġ2014": 4159,
      "van": 4160,
      "eate": 4161,
      "Ġhos": 4162,
      "Ġnearly": 4163,
      "Ġattack": 4164,
      "brary": 4165,
      "Ġfunctions": 4166,
      "ating": 4167,
      "Ġdead": 4168,
      "Ġolder": 4169,
      "ĠDNA": 4170,
      "aud": 4171,
      "imin": 4172,
      "Ġpatterns": 4173,
      "Ġopportunity": 4174,
      "ĠNov": 4175,
      "ever": 4176,
      "ĠAccording": 4177,
      "Ġ--": 4178,
      "Ġfit": 4179,
      "pora": 4180,
      "While": 4181,
      "Ġking": 4182,
      "Ġfinal": 4183,
      "Ġeverything": 4184,
      "nation": 4185,
      "Ġchallenges": 4186,
      "Ġstrategies": 4187,
      "Ġfollowed": 4188,
      "ĠApril": 4189,
      "ulin": 4190,
      "Ġfrui": 4191,
      "Ġbirds": 4192,
      "Ġmother": 4193,
      "Ġalco": 4194,
      "ffic": 4195,
      "ĠSystem": 4196,
      "rities": 4197,
      "Ġsigns": 4198,
      "Ġreligious": 4199,
      "Ġframe": 4200,
      "earin": 4201,
      "Ġefficient": 4202,
      "range": 4203,
      "sorders": 4204,
      "Pro": 4205,
      "By": 4206,
      "ĠServ": 4207,
      "pped": 4208,
      "earing": 4209,
      "Ġreduced": 4210,
      "Ġargu": 4211,
      "unting": 4212,
      "uto": 4213,
      "Ġ2011": 4214,
      "Ġrules": 4215,
      "Ġdeter": 4216,
      "Ġeveryone": 4217,
      "ĠFlo": 4218,
      "Ġexpression": 4219,
      "bree": 4220,
      "Ġfuel": 4221,
      "Ġaud": 4222,
      "Ġnews": 4223,
      "graphy": 4224,
      "yond": 4225,
      "ĠSho": 4226,
      "Ġapplied": 4227,
      "Ca": 4228,
      "pects": 4229,
      "rma": 4230,
      "ension": 4231,
      "ĠOur": 4232,
      "load": 4233,
      "oot": 4234,
      "Ġlabo": 4235,
      "ĠMy": 4236,
      "itect": 4237,
      "angle": 4238,
      "Ġradio": 4239,
      "zer": 4240,
      "Ġjour": 4241,
      "Ġsuccessful": 4242,
      "Ġcry": 4243,
      "ĠChinese": 4244,
      "Ġcompletely": 4245,
      "tmo": 4246,
      "Ġ2016": 4247,
      "cee": 4248,
      "Ġgradu": 4249,
      "Ġincreases": 4250,
      "'re": 4251,
      "Ġconve": 4252,
      "Ġine": 4253,
      "Ġcollection": 4254,
      "tories": 4255,
      "Ġforces": 4256,
      "lit": 4257,
      "uri": 4258,
      "ĠJuly": 4259,
      "nology": 4260,
      "tchin": 4261,
      "more": 4262,
      "Ġusers": 4263,
      "equen": 4264,
      "Ġrecord": 4265,
      "rio": 4266,
      "Ġperfect": 4267,
      "ĠBi": 4268,
      "Ġcurrently": 4269,
      "Ġidentified": 4270,
      "ĠVe": 4271,
      "ttra": 4272,
      "rized": 4273,
      "wide": 4274,
      "pressed": 4275,
      "Ġphi": 4276,
      "Ġstim": 4277,
      "Ġcharge": 4278,
      "Ġfile": 4279,
      "ived": 4280,
      "AL": 4281,
      "Ġvegetable": 4282,
      "nen": 4283,
      "Ġbeyond": 4284,
      "Ġju": 4285,
      "ĠPl": 4286,
      "tching": 4287,
      "bel": 4288,
      "Ġcool": 4289,
      "attra": 4290,
      "Ġdrugs": 4291,
      "Ġapprox": 4292,
      "mail": 4293,
      "emi": 4294,
      "Ġpresence": 4295,
      "ĠOther": 4296,
      "ĠAssocia": 4297,
      "Ġcharacter": 4298,
      "rre": 4299,
      "Ġwinter": 4300,
      "Ġphas": 4301,
      "ttom": 4302,
      "Ġstandards": 4303,
      "Ġtissue": 4304,
      "Ġanything": 4305,
      "Ġinitia": 4306,
      "atmo": 4307,
      "Ġphase": 4308,
      "Ġpurcha": 4309,
      "ĠGreat": 4310,
      "Ġfruit": 4311,
      "199": 4312,
      "ĠSi": 4313,
      "Ġformed": 4314,
      "Ġhistorical": 4315,
      "Ġblock": 4316,
      "pal": 4317,
      "scape": 4318,
      "stre": 4319,
      "ford": 4320,
      "Ġfavo": 4321,
      "Ġworksh": 4322,
      "tages": 4323,
      "iam": 4324,
      "Ġseparate": 4325,
      "inat": 4326,
      "yn": 4327,
      "Ġpowerful": 4328,
      "Ġ60": 4329,
      "Ġfactor": 4330,
      "Ġ2017": 4331,
      "cember": 4332,
      "insu": 4333,
      "pation": 4334,
      "hea": 4335,
      "ision": 4336,
      "Do": 4337,
      "Ġdisorder": 4338,
      "ĠHigh": 4339,
      "Ġgot": 4340,
      "Ġtalk": 4341,
      "Ġatmo": 4342,
      "pte": 4343,
      "Ġsubs": 4344,
      "Ġlegi": 4345,
      "Ġtox": 4346,
      "Ġhold": 4347,
      "Ġconvers": 4348,
      "Ġlegal": 4349,
      "unch": 4350,
      "ones": 4351,
      "Ġvirt": 4352,
      "Ġoxy": 4353,
      "lization": 4354,
      "Ġchoice": 4355,
      "Ġcapacity": 4356,
      "tralia": 4357,
      "Ġattra": 4358,
      "swe": 4359,
      "ĠBlack": 4360,
      "Ġactions": 4361,
      "Ġstay": 4362,
      "pate": 4363,
      "Ġgoe": 4364,
      "ĠPark": 4365,
      "Ġkill": 4366,
      "Ġrat": 4367,
      "Ġlaws": 4368,
      "west": 4369,
      "Ġemissions": 4370,
      "ulting": 4371,
      "Ġgoes": 4372,
      "Ġcompreh": 4373,
      "stro": 4374,
      "ade": 4375,
      "ĠPeople": 4376,
      "sna": 4377,
      "ĠCommun": 4378,
      "ĠNot": 4379,
      "Ġrespon": 4380,
      "Ġblue": 4381,
      "Ġmix": 4382,
      "plan": 4383,
      "lay": 4384,
      "Ġ23": 4385,
      "Ġdiscovered": 4386,
      "Com": 4387,
      "Ġclassroom": 4388,
      "icha": 4389,
      "Ġparticl": 4390,
      "27": 4391,
      "isn": 4392,
      "Ġcam": 4393,
      "Ġparticle": 4394,
      "Ġrecently": 4395,
      "vious": 4396,
      "Ġtryin": 4397,
      "bic": 4398,
      "Ġabsor": 4399,
      "Ġtrying": 4400,
      "Ġexec": 4401,
      "Ġhar": 4402,
      "Ġcontext": 4403,
      "Ġâ": 4404,
      "ĠMc": 4405,
      "Ġ2020": 4406,
      "minal": 4407,
      "Ġbaby": 4408,
      "aging": 4409,
      "Ġoffers": 4410,
      "Ġsignificantly": 4411,
      "rition": 4412,
      "hington": 4413,
      "And": 4414,
      "ĠDuring": 4415,
      "Ġresistance": 4416,
      "Ġreveal": 4417,
      "Ġplaced": 4418,
      "Ġinteresting": 4419,
      "cast": 4420,
      "Ġisn": 4421,
      "ĠJesus": 4422,
      "ĠAlso": 4423,
      "Ġconsumption": 4424,
      "Ġdied": 4425,
      "Ġgrade": 4426,
      "ulum": 4427,
      "Ġopportunities": 4428,
      "serva": 4429,
      "Ġalone": 4430,
      "ĠThen": 4431,
      "Ġprice": 4432,
      "Ġfir": 4433,
      "Ġstatus": 4434,
      "Ġexplore": 4435,
      "Ġlink": 4436,
      "Ġplastic": 4437,
      "Ġdistance": 4438,
      "Ġhospi": 4439,
      "assif": 4440,
      "ĠTy": 4441,
      "Ġinsu": 4442,
      "ows": 4443,
      "Ġstone": 4444,
      "Ġregi": 4445,
      "iron": 4446,
      "ĠPress": 4447,
      "pted": 4448,
      "Ġdefined": 4449,
      "Ġhttps": 4450,
      "riev": 4451,
      "rand": 4452,
      "Ġseem": 4453,
      "ads": 4454,
      "PA": 4455,
      "Ġeducational": 4456,
      "Ġgeo": 4457,
      "house": 4458,
      "Ġwoman": 4459,
      "Ġobserved": 4460,
      "ĠJournal": 4461,
      "pper": 4462,
      "ĠAugust": 4463,
      "ĠSeptember": 4464,
      "ĠRet": 4465,
      "wen": 4466,
      "Ġsaw": 4467,
      "Ġnamed": 4468,
      "Ġshowed": 4469,
      "seque": 4470,
      "Ġeight": 4471,
      "Ġallowed": 4472,
      "ĠChristian": 4473,
      "rte": 4474,
      "year": 4475,
      "dered": 4476,
      "Ġexperiences": 4477,
      "stories": 4478,
      "fly": 4479,
      "rael": 4480,
      "dra": 4481,
      "26": 4482,
      "Ġtold": 4483,
      "bia": 4484,
      "Ġstrug": 4485,
      "known": 4486,
      "Ġnume": 4487,
      "oods": 4488,
      "Ġmajority": 4489,
      "Ġaccurate": 4490,
      "Ġliterature": 4491,
      "ĠEco": 4492,
      "Ġequal": 4493,
      "sell": 4494,
      "Ġmuscle": 4495,
      "Un": 4496,
      "stem": 4497,
      "del": 4498,
      "Ġregions": 4499,
      "mor": 4500,
      "Ġenhance": 4501,
      "tock": 4502,
      "ays": 4503,
      "Ġasked": 4504,
      "Ġbree": 4505,
      "Ġearlier": 4506,
      "academic": 4507,
      "Ġdange": 4508,
      "anda": 4509,
      "Ġconseque": 4510,
      "rote": 4511,
      "ĠChan": 4512,
      "ference": 4513,
      "take": 4514,
      "Ġkid": 4515,
      "29": 4516,
      "Ġunde": 4517,
      "Ġfacil": 4518,
      "Ġnovel": 4519,
      "trol": 4520,
      "Ġoptions": 4521,
      "Ġerro": 4522,
      "Ġexplain": 4523,
      "Ġtask": 4524,
      "Ġstories": 4525,
      "namic": 4526,
      "Ġship": 4527,
      "Ġdepression": 4528,
      "ĠJanuary": 4529,
      "Ġgir": 4530,
      "ghts": 4531,
      "rieve": 4532,
      "ĠWater": 4533,
      "Ġitems": 4534,
      "instance": 4535,
      "Ġstructures": 4536,
      "Ġconven": 4537,
      "Ġfresh": 4538,
      "rrow": 4539,
      "ĠOctober": 4540,
      "ĠEnviron": 4541,
      "Ġseque": 4542,
      "Ġbroad": 4543,
      "oral": 4544,
      "ĠFeb": 4545,
      "oon": 4546,
      "ĠBer": 4547,
      "Ġbillion": 4548,
      "ĠUK": 4549,
      "Ġinstance": 4550,
      "ield": 4551,
      "wit": 4552,
      "iation": 4553,
      "Ġmouth": 4554,
      "Ġprogress": 4555,
      "Ġfully": 4556,
      "Ġphiloso": 4557,
      "Ġtransfer": 4558,
      "Ġcharacteristics": 4559,
      "ĠCar": 4560,
      "irin": 4561,
      "Ġrelatively": 4562,
      "ĠMex": 4563,
      "Ġsitua": 4564,
      "Ġgraph": 4565,
      "iox": 4566,
      "Pa": 4567,
      "Ġcou": 4568,
      "Ġhimself": 4569,
      "Ġret": 4570,
      "Ġfores": 4571,
      "ĠSur": 4572,
      "ĠProt": 4573,
      "reast": 4574,
      "Ġacademic": 4575,
      "Ġnothing": 4576,
      "Ġdecl": 4577,
      "Ġtoward": 4578,
      "sac": 4579,
      "craft": 4580,
      "Ġgain": 4581,
      "bate": 4582,
      "hibit": 4583,
      "slo": 4584,
      "Ġstre": 4585,
      "Ġfair": 4586,
      "ĠIS": 4587,
      "Ġrelev": 4588,
      "Ġmember": 4589,
      "ighting": 4590,
      "ret": 4591,
      ");": 4592,
      "oma": 4593,
      "sation": 4594,
      "Ġchanged": 4595,
      "RE": 4596,
      "ley": 4597,
      "Ġgoals": 4598,
      "Ġmission": 4599,
      "ĠEast": 4600,
      "ĠAustralia": 4601,
      "Ġadministra": 4602,
      "Ġ2009": 4603,
      "ulty": 4604,
      "rato": 4605,
      "Ġport": 4606,
      "Ġswe": 4607,
      "Ġradia": 4608,
      "Ġpiece": 4609,
      "Ġcycle": 4610,
      "Ġiron": 4611,
      "Ġconsis": 4612,
      "fight": 4613,
      "Ġparticip": 4614,
      "ĠSince": 4615,
      "ĠCam": 4616,
      "28": 4617,
      "Ġdestro": 4618,
      "Ġplanning": 4619,
      "Ġcities": 4620,
      "logi": 4621,
      "Ad": 4622,
      "inate": 4623,
      "gent": 4624,
      "non": 4625,
      "Ġmoving": 4626,
      "ĠBecause": 4627,
      "Ġeffort": 4628,
      "Ġdetails": 4629,
      "Ġresource": 4630,
      "70": 4631,
      "tina": 4632,
      "Ġsna": 4633,
      "rals": 4634,
      "Ġmetal": 4635,
      "zon": 4636,
      "Ġroad": 4637,
      "ĠRoman": 4638,
      "Ġ2018": 4639,
      "uk": 4640,
      "Ġinvolves": 4641,
      "tern": 4642,
      "ĠTime": 4643,
      "ĠBur": 4644,
      "trict": 4645,
      "Ġfather": 4646,
      "rid": 4647,
      "orage": 4648,
      "ĠIns": 4649,
      "ilin": 4650,
      "tains": 4651,
      "Ġpol": 4652,
      "Ġdisorders": 4653,
      "bination": 4654,
      "ei": 4655,
      "ĠCity": 4656,
      "Ġplanet": 4657,
      "perts": 4658,
      "ĠTrans": 4659,
      "Ġcollabo": 4660,
      "Ġtitle": 4661,
      "Ġvary": 4662,
      "Ġnative": 4663,
      "Ġtechnologies": 4664,
      "Ġaspects": 4665,
      "Ġsolv": 4666,
      "Ġsolutions": 4667,
      "Ġneigh": 4668,
      "Ġmathe": 4669,
      "Ġsil": 4670,
      "gnitive": 4671,
      "tore": 4672,
      "Ġliqu": 4673,
      "ĠPresident": 4674,
      "Ġsolve": 4675,
      "Ġbone": 4676,
      "Ġcomin": 4677,
      "Ġclinical": 4678,
      "Ġcoming": 4679,
      "Ġaccom": 4680,
      "Ġrequirements": 4681,
      "Ġexisting": 4682,
      "sal": 4683,
      "erse": 4684,
      "Ġalcohol": 4685,
      "lli": 4686,
      "35": 4687,
      "ĠEach": 4688,
      "wrote": 4689,
      "Ġversion": 4690,
      "Ġtele": 4691,
      "lings": 4692,
      "Ġforest": 4693,
      "urther": 4694,
      "Ġspeech": 4695,
      "fine": 4696,
      "He": 4697,
      "Ġimpl": 4698,
      "ifically": 4699,
      "ST": 4700,
      "Ġnames": 4701,
      "Ġsm": 4702,
      "oco": 4703,
      "ĠTi": 4704,
      "Ġsettle": 4705,
      "lve": 4706,
      "Me": 4707,
      "Ġmee": 4708,
      "Ġpicture": 4709,
      "stics": 4710,
      "ĠTur": 4711,
      "ruary": 4712,
      "Ġhorse": 4713,
      "ĠGermany": 4714,
      "HE": 4715,
      "Ġanxiety": 4716,
      "âĢĿ,": 4717,
      "Ġfederal": 4718,
      "Ġ2008": 4719,
      "Ġoxygen": 4720,
      "rgin": 4721,
      "Ġfindings": 4722,
      "netic": 4723,
      "Ġconsisten": 4724,
      "Ġperspective": 4725,
      "Ġreference": 4726,
      "Ġhost": 4727,
      "Ġgua": 4728,
      "nals": 4729,
      "Ġven": 4730,
      "tence": 4731,
      "Ġeasier": 4732,
      "ĠTherefore": 4733,
      "wish": 4734,
      "Â°": 4735,
      "ĠEa": 4736,
      "Ġsupple": 4737,
      "ĠHar": 4738,
      "Ġextremely": 4739,
      "Ġgiving": 4740,
      "idat": 4741,
      "point": 4742,
      "ĠDecember": 4743,
      "ii": 4744,
      "Ġlesson": 4745,
      "Ġwrote": 4746,
      "Ġcapital": 4747,
      "iences": 4748,
      "Ġacc": 4749,
      "ĠIta": 4750,
      "ĠPri": 4751,
      "ĠWashington": 4752,
      "Ġworth": 4753,
      "ĠSee": 4754,
      "Ġbattle": 4755,
      "Ġrout": 4756,
      "ĠLondon": 4757,
      "Ġcontinued": 4758,
      "gypt": 4759,
      "ditionally": 4760,
      "ky": 4761,
      "Ġassessment": 4762,
      "oogle": 4763,
      "Ġben": 4764,
      "ĠSpan": 4765,
      "Ġformer": 4766,
      "Ġdistribution": 4767,
      "Ġhuge": 4768,
      "Ġvision": 4769,
      "Ġstatement": 4770,
      "ĠDevelop": 4771,
      "ĠLet": 4772,
      "En": 4773,
      "mitt": 4774,
      "Ġriver": 4775,
      "Ġbelieved": 4776,
      "Ġglass": 4777,
      "igure": 4778,
      "Ġtreated": 4779,
      "ĠColo": 4780,
      "ptions": 4781,
      "Ġinflam": 4782,
      "ĠTheir": 4783,
      "Ġcommand": 4784,
      "lysis": 4785,
      "Ġhair": 4786,
      "rase": 4787,
      "ĠSea": 4788,
      "Ġpheno": 4789,
      "idate": 4790,
      "Ġenjoy": 4791,
      "Ġremember": 4792,
      "Ġcrucial": 4793,
      "Ġdirection": 4794,
      "Wit": 4795,
      "Ġmer": 4796,
      "Ġtechn": 4797,
      "Ġlayer": 4798,
      "ĠIsrael": 4799,
      "Ġdecisions": 4800,
      "brin": 4801,
      "Ġsquare": 4802,
      "Ġapply": 4803,
      "ĠChurch": 4804,
      "Ġtemperatures": 4805,
      "dary": 4806,
      "ĠHer": 4807,
      "Ġreducing": 4808,
      "iling": 4809,
      "ctional": 4810,
      "eers": 4811,
      "Ġincome": 4812,
      "rients": 4813,
      "Ġfamous": 4814,
      "Ġempha": 4815,
      "Ġtown": 4816,
      "Ġ26": 4817,
      "Ġrespect": 4818,
      "Ġchance": 4819,
      "Ġelectricity": 4820,
      "Ġmilk": 4821,
      "panese": 4822,
      "Ġmoment": 4823,
      "logis": 4824,
      "Ġstem": 4825,
      "Ġtoot": 4826,
      "Ġplans": 4827,
      "33": 4828,
      "Ġ28": 4829,
      "ĠNovember": 4830,
      "ĠMid": 4831,
      "Ġgames": 4832,
      "Ġgeneration": 4833,
      "Ġseason": 4834,
      "Ġsignal": 4835,
      "Ġtend": 4836,
      "Ġorganic": 4837,
      "Ġslo": 4838,
      "Ġengage": 4839,
      "Ġsuggests": 4840,
      "car": 4841,
      "Ġpeace": 4842,
      "With": 4843,
      "ĠUnion": 4844,
      "Ġtransport": 4845,
      "rith": 4846,
      "itutions": 4847,
      "II": 4848,
      "SA": 4849,
      "bout": 4850,
      "Ġcarried": 4851,
      "usion": 4852,
      "Ġshall": 4853,
      "Ġceleb": 4854,
      "Ġintelli": 4855,
      "Ġvitamin": 4856,
      "ĠâĢ¢": 4857,
      "Ġinfections": 4858,
      "ĠAra": 4859,
      "Ġappears": 4860,
      "riculum": 4861,
      "iately": 4862,
      "Ġpresente": 4863,
      "Ġdetect": 4864,
      "Ġaller": 4865,
      "tea": 4866,
      "tom": 4867,
      "EC": 4868,
      "Ġfloo": 4869,
      "Ġpresented": 4870,
      "ĠFrance": 4871,
      "Ġstaff": 4872,
      "Ġkne": 4873,
      "Ġrelationships": 4874,
      "Ġ22": 4875,
      "chin": 4876,
      "Ġhighe": 4877,
      "Ġrecommended": 4878,
      "Ġhighes": 4879,
      "Ġhighest": 4880,
      "Ġ#": 4881,
      "Ġconnected": 4882,
      "Ġtechnique": 4883,
      "ĠPers": 4884,
      "Ġorganizations": 4885,
      "Ġvisua": 4886,
      "related": 4887,
      "yst": 4888,
      "Ġcausing": 4889,
      "logist": 4890,
      "Ġpattern": 4891,
      "Ġwidely": 4892,
      "Ġadult": 4893,
      "Ġrisks": 4894,
      "Ġarchitect": 4895,
      "Ġgave": 4896,
      "imed": 4897,
      "Ġpred": 4898,
      "Ġconcepts": 4899,
      "Ġtour": 4900,
      "VID": 4901,
      "Ġpopulations": 4902,
      "Ġroot": 4903,
      "store": 4904,
      "ctic": 4905,
      "Ġcourt": 4906,
      "ĠThus": 4907,
      "Ġtooth": 4908,
      "Ġreports": 4909,
      "They": 4910,
      "torage": 4911,
      "Ġrunning": 4912,
      "Ġsuppl": 4913,
      "apan": 4914,
      "ĠCounty": 4915,
      "Ġletter": 4916,
      "lize": 4917,
      "Ġpack": 4918,
      "Ġmap": 4919,
      "zo": 4920,
      "Ġthousands": 4921,
      "dis": 4922,
      "Ġnumerous": 4923,
      "Ġlas": 4924,
      "Ġconducted": 4925,
      "Ġ27": 4926,
      "Ġperformed": 4927,
      "rieved": 4928,
      "Ġfigure": 4929,
      "body": 4930,
      "Ġfight": 4931,
      "Ġintroduced": 4932,
      "Ġheavy": 4933,
      "Ġcombination": 4934,
      "Ġbodies": 4935,
      "Ġsurvey": 4936,
      "bird": 4937,
      "Ġcitizens": 4938,
      "Ġgender": 4939,
      "90": 4940,
      "Ġemotional": 4941,
      "Ġchronic": 4942,
      "ĠData": 4943,
      "Ġfrequently": 4944,
      "fear": 4945,
      "ĠNow": 4946,
      "Ġalternative": 4947,
      "Ġvill": 4948,
      "ĠOr": 4949,
      "racy": 4950,
      "erences": 4951,
      "Ġplease": 4952,
      "storage": 4953,
      "ssin": 4954,
      "iring": 4955,
      "ĠStan": 4956,
      "Ġwall": 4957,
      "Ġmedicine": 4958,
      "iar": 4959,
      "Ġtransi": 4960,
      "rator": 4961,
      "Ġworked": 4962,
      "Ġhappen": 4963,
      "Ġtrea": 4964,
      "Ġtren": 4965,
      "Ġsetting": 4966,
      "Ġrep": 4967,
      "Ġvolume": 4968,
      "Ġdidn": 4969,
      "Ġlearned": 4970,
      "Ġbecoming": 4971,
      "Ġprocessin": 4972,
      "Ġprocessing": 4973,
      "rai": 4974,
      "ĠInt": 4975,
      "phe": 4976,
      "Ġspring": 4977,
      "bile": 4978,
      "Ġchallenge": 4979,
      "Ġmoun": 4980,
      "Ġgarden": 4981,
      "Ġ195": 4982,
      "Ġrain": 4983,
      "Ġresulting": 4984,
      "EM": 4985,
      "ego": 4986,
      "Ġapproximately": 4987,
      "Ġpurchas": 4988,
      "Why": 4989,
      "ĠChildren": 4990,
      "Ġperhaps": 4991,
      "Ġeventually": 4992,
      "ĠStudents": 4993,
      "Ġdee": 4994,
      "Ġ2007": 4995,
      "ĠEgypt": 4996,
      "wrong": 4997,
      "AM": 4998,
      "Ġstati": 4999,
      "ĠWeb": 5000,
      "Ġfear": 5001,
      "inal": 5002,
      "Ġtin": 5003,
      "After": 5004,
      "Ġja": 5005,
      "Ġrock": 5006,
      "Ġforward": 5007,
      "Ġbon": 5008,
      "Ġhormo": 5009,
      "Ġmark": 5010,
      "Ġstorage": 5011,
      "ĠHouse": 5012,
      "Ġdefinition": 5013,
      "thet": 5014,
      "Ġpollution": 5015,
      "drome": 5016,
      "Ġnotes": 5017,
      "Ġpassed": 5018,
      "ĠSociety": 5019,
      "Ġopt": 5020,
      "Ġpurchase": 5021,
      "However": 5022,
      "ank": 5023,
      "Ġ2019": 5024,
      "logists": 5025,
      "itive": 5026,
      "Ġwal": 5027,
      "Ġvisual": 5028,
      "Ġchanging": 5029,
      "wealth": 5030,
      "vise": 5031,
      "Ġdepending": 5032,
      "Ġreality": 5033,
      "iable": 5034,
      "ief": 5035,
      "Ġvict": 5036,
      "Ġdecades": 5037,
      "Ġconfir": 5038,
      "aches": 5039,
      "funda": 5040,
      "Ġchurch": 5041,
      "Ġnotice": 5042,
      "Ġdescribe": 5043,
      "overnment": 5044,
      "ssing": 5045,
      "Ġupper": 5046,
      "gon": 5047,
      "prise": 5048,
      "Ġfields": 5049,
      "posi": 5050,
      "Ġimmediately": 5051,
      "Ġdeliv": 5052,
      "Ġincorpo": 5053,
      "Ġopin": 5054,
      "iful": 5055,
      "Ġeffectively": 5056,
      "Ġindependent": 5057,
      "Ġreaction": 5058,
      "ĠSpanish": 5059,
      "All": 5060,
      "Ġreprodu": 5061,
      "rine": 5062,
      "ĠWhy": 5063,
      "Ġseeds": 5064,
      "Ġbrin": 5065,
      "ĠGeneral": 5066,
      "Ġwrong": 5067,
      "Ġhappens": 5068,
      "avid": 5069,
      "ET": 5070,
      "Ġhomes": 5071,
      "Is": 5072,
      "Ġclassif": 5073,
      "Ġbin": 5074,
      "Ġestimated": 5075,
      "Ġsac": 5076,
      "breast": 5077,
      "ample": 5078,
      "Ġstore": 5079,
      "Ġtrig": 5080,
      "insi": 5081,
      "pun": 5082,
      "ĠCur": 5083,
      "oes": 5084,
      "Ġreferred": 5085,
      "Ġexchan": 5086,
      "Ġoperations": 5087,
      "Po": 5088,
      "Ġforeign": 5089,
      "Ġwarm": 5090,
      "Ġfunda": 5091,
      "Ġ80": 5092,
      "some": 5093,
      "Ġbuy": 5094,
      "ĠFree": 5095,
      "36": 5096,
      "Ġni": 5097,
      "According": 5098,
      "Ġparticipants": 5099,
      "Ġplane": 5100,
      "Ġclasse": 5101,
      "ectin": 5102,
      "Ġprinciples": 5103,
      "Ġpersona": 5104,
      "Ġsustainable": 5105,
      "neous": 5106,
      "ĠOrg": 5107,
      "ĠJust": 5108,
      "eri": 5109,
      "Ġstartin": 5110,
      "ĠHy": 5111,
      "Ġstarting": 5112,
      "\",": 5113,
      "ĠTeach": 5114,
      "ores": 5115,
      "Ġwai": 5116,
      "ĠAssociation": 5117,
      "vas": 5118,
      "Ġ2000": 5119,
      "Ġpages": 5120,
      "genous": 5121,
      "CO": 5122,
      "Ġbar": 5123,
      "Ġdiscusse": 5124,
      "Ġinfra": 5125,
      "Ġrelevant": 5126,
      "mally": 5127,
      "nels": 5128,
      "Li": 5129,
      "Ġcopy": 5130,
      "evel": 5131,
      "Ġune": 5132,
      "ĠOc": 5133,
      "Ġcontras": 5134,
      "meters": 5135,
      "ĠNi": 5136,
      "Ġleads": 5137,
      "Ġefficiency": 5138,
      "ĠFebruary": 5139,
      "ĠMet": 5140,
      "ĠGreek": 5141,
      "Ġconnection": 5142,
      "ĠWestern": 5143,
      "Ġproperly": 5144,
      "Ġcollege": 5145,
      "Ġtopics": 5146,
      "ĠSec": 5147,
      "ĠPhys": 5148,
      "Ġtru": 5149,
      "Ġoffice": 5150,
      "well": 5151,
      "istry": 5152,
      "turally": 5153,
      "Ġcontrast": 5154,
      "Ġinsi": 5155,
      "ĠPrin": 5156,
      "porary": 5157,
      "ĠJapanese": 5158,
      "ishin": 5159,
      "Ġdogs": 5160,
      "Ġvul": 5161,
      "uco": 5162,
      "Ġgets": 5163,
      "Ġcore": 5164,
      "45": 5165,
      "ecting": 5166,
      "blin": 5167,
      "cipl": 5168,
      "Ġadvanced": 5169,
      "ĠÃ": 5170,
      "Ġready": 5171,
      "ishing": 5172,
      "Ġviolence": 5173,
      "Ġinjury": 5174,
      "Ġfailure": 5175,
      "pto": 5176,
      "Ġmostly": 5177,
      "Ġurban": 5178,
      "ros": 5179,
      "Ġpolicies": 5180,
      "gres": 5181,
      "Ġig": 5182,
      "Ġbreast": 5183,
      "Ġencourage": 5184,
      "Ġfeeling": 5185,
      "ink": 5186,
      "ivat": 5187,
      "ations": 5188,
      "ax": 5189,
      "38": 5190,
      "ynamic": 5191,
      "Ġpen": 5192,
      "Ġfilm": 5193,
      "Ġtex": 5194,
      "DA": 5195,
      "Ġbuildings": 5196,
      "PS": 5197,
      "Ġtasks": 5198,
      "Ġpp": 5199,
      "Ġinternal": 5200,
      "ored": 5201,
      "Ġconflict": 5202,
      "Ġnar": 5203,
      "ĠProgram": 5204,
      "Ġvess": 5205,
      "ement": 5206,
      "Ġunits": 5207,
      "Ġmainly": 5208,
      "key": 5209,
      "Ġgold": 5210,
      "Ġoption": 5211,
      "Ġlim": 5212,
      "fit": 5213,
      "Ġweak": 5214,
      "died": 5215,
      "Ġclasses": 5216,
      "Ġvaccine": 5217,
      "Wo": 5218,
      "ĠJapan": 5219,
      "Ġregarding": 5220,
      "ull": 5221,
      "anger": 5222,
      "indi": 5223,
      "Ġradiation": 5224,
      "Ġinitial": 5225,
      "Ġdiscussion": 5226,
      "Ġterrit": 5227,
      "Ġdecla": 5228,
      "emo": 5229,
      "ĠUN": 5230,
      "Ġcredit": 5231,
      "Ġexperts": 5232,
      "ĠLaw": 5233,
      "Ġreleased": 5234,
      "ĠInternet": 5235,
      "ror": 5236,
      "Ġcovered": 5237,
      "ĠWilliam": 5238,
      "duction": 5239,
      "wered": 5240,
      "Ġbottom": 5241,
      "39": 5242,
      "ntal": 5243,
      "Ġocean": 5244,
      "Ġcommercial": 5245,
      "Ġlinked": 5246,
      "Ġlanguages": 5247,
      "Ġfort": 5248,
      "ĠLea": 5249,
      "rient": 5250,
      "Ġcircu": 5251,
      "unger": 5252,
      "Ġexci": 5253,
      "Ġnutrients": 5254,
      "Ġgather": 5255,
      "ĠAna": 5256,
      "Ġatmosphere": 5257,
      "Äģ": 5258,
      "Ġexactly": 5259,
      "Ġexperienced": 5260,
      "Ġdangerous": 5261,
      "tili": 5262,
      "Ġdeb": 5263,
      "aps": 5264,
      "respon": 5265,
      "Ġactual": 5266,
      "clin": 5267,
      "llent": 5268,
      "inten": 5269,
      "ances": 5270,
      "Ġboard": 5271,
      "Ġauthors": 5272,
      "stea": 5273,
      "ivate": 5274,
      "ko": 5275,
      "Ġdiagnosis": 5276,
      "Ġecosystem": 5277,
      "ĠIts": 5278,
      "iest": 5279,
      "Ġleg": 5280,
      "Ġintroduction": 5281,
      "Ġnuclear": 5282,
      "rves": 5283,
      "Cl": 5284,
      "eed": 5285,
      "tream": 5286,
      "Ġformation": 5287,
      "Ġmit": 5288,
      "Ġexposed": 5289,
      "Ġdetermined": 5290,
      "Ġadvantage": 5291,
      "Ġcent": 5292,
      "matics": 5293,
      "Ġreplace": 5294,
      "hot": 5295,
      "matically": 5296,
      "ĠCOVID": 5297,
      "Ġstrategy": 5298,
      "tals": 5299,
      "Ġeth": 5300,
      "ĠJewish": 5301,
      "Ġstand": 5302,
      "Ġelectrical": 5303,
      "bling": 5304,
      "Ġgenes": 5305,
      "ĠKen": 5306,
      "ĠAsia": 5307,
      "ĠST": 5308,
      "ĠAI": 5309,
      "Ġvital": 5310,
      "Ġparty": 5311,
      "Ġrefers": 5312,
      "Ġindustrial": 5313,
      "Ġillness": 5314,
      "Ġseed": 5315,
      "ĠPi": 5316,
      "Ġmoto": 5317,
      "Ġera": 5318,
      "Ġfinding": 5319,
      "Ġclearly": 5320,
      "Ġsurgery": 5321,
      "Ġfrequency": 5322,
      "Ġvegetables": 5323,
      "RO": 5324,
      "gic": 5325,
      "inner": 5326,
      "ĠLearning": 5327,
      "Ġadopt": 5328,
      "37": 5329,
      "Ġdegrees": 5330,
      "aid": 5331,
      "Here": 5332,
      "ĠOver": 5333,
      "Ġexpert": 5334,
      "Ġedit": 5335,
      "Ġhelpin": 5336,
      "Ġamounts": 5337,
      "Ġawareness": 5338,
      "Ġhelping": 5339,
      "Ġrace": 5340,
      "Ġmentione": 5341,
      "bul": 5342,
      "Ġmentioned": 5343,
      "scho": 5344,
      "terin": 5345,
      "Ġepi": 5346,
      "Ġsamples": 5347,
      "bre": 5348,
      "nis": 5349,
      "bili": 5350,
      "cm": 5351,
      "nent": 5352,
      "ĠOnce": 5353,
      "Ġfreedom": 5354,
      "ĠBas": 5355,
      "Ġhandl": 5356,
      "Ġfine": 5357,
      "Ġrecords": 5358,
      "ĠRetrieved": 5359,
      "Ġimproved": 5360,
      "ession": 5361,
      "Ġhearin": 5362,
      "Ġhearing": 5363,
      "Ġpartners": 5364,
      "Ġdiagnos": 5365,
      "vation": 5366,
      "Ġengineering": 5367,
      "tality": 5368,
      "ntence": 5369,
      "pse": 5370,
      "Ġdiagnose": 5371,
      "files": 5372,
      "buted": 5373,
      "Ġple": 5374,
      "rich": 5375,
      "Ġdouble": 5376,
      "pedia": 5377,
      "ĠGlo": 5378,
      "Ġelim": 5379,
      "Ġsituations": 5380,
      "Ġpun": 5381,
      "Ġcata": 5382,
      "ĠAir": 5383,
      "ĠDia": 5384,
      "pical": 5385,
      "Ġcircum": 5386,
      "marily": 5387,
      "ĠManage": 5388,
      "ram": 5389,
      "ealin": 5390,
      "Ġarticles": 5391,
      "Ġstruggle": 5392,
      "quest": 5393,
      "ĠGreen": 5394,
      "ealing": 5395,
      "Ġsexual": 5396,
      "gned": 5397,
      "Ġremoved": 5398,
      "ĠInde": 5399,
      "Ġeggs": 5400,
      "AD": 5401,
      "Ġult": 5402,
      "sets": 5403,
      "Ġmotor": 5404,
      "Ġoutput": 5405,
      "cret": 5406,
      "Ġevaluat": 5407,
      "Ġenable": 5408,
      "Ġfill": 5409,
      "Ġali": 5410,
      "Ġcreation": 5411,
      "Ġstea": 5412,
      "Ġaffects": 5413,
      "Ġjoint": 5414,
      "quat": 5415,
      "Ġ90": 5416,
      "ĠDevelopment": 5417,
      "nsiv": 5418,
      "ĠEd": 5419,
      "Ġconservation": 5420,
      "eren": 5421,
      "uted": 5422,
      "ulating": 5423,
      "ĠSch": 5424,
      "Ġboa": 5425,
      "Ġ2006": 5426,
      "Ġchose": 5427,
      "Ġstar": 5428,
      "Ġcharacters": 5429,
      "Ġscho": 5430,
      "vention": 5431,
      "rish": 5432,
      "ĠJames": 5433,
      "Ġconcerns": 5434,
      "Ġprocedure": 5435,
      "ching": 5436,
      "Ġwante": 5437,
      "Ġwanted": 5438,
      "Ġunivers": 5439,
      "dest": 5440,
      "berg": 5441,
      "Ġevaluate": 5442,
      "Ġfacts": 5443,
      "Ġanyone": 5444,
      "xy": 5445,
      "Ġattri": 5446,
      "Ġcivil": 5447,
      "ĠLatin": 5448,
      "Ġflex": 5449,
      "sage": 5450,
      "unately": 5451,
      "Ġtrust": 5452,
      "ĠBen": 5453,
      "acy": 5454,
      "Ġ29": 5455,
      "Ġmessage": 5456,
      "tants": 5457,
      "Ġlived": 5458,
      "nsive": 5459,
      "vity": 5460,
      "Ġimpacts": 5461,
      "Ġreligion": 5462,
      "ĠMary": 5463,
      "Fi": 5464,
      "view": 5465,
      "Ġpreviously": 5466,
      "Ġdraw": 5467,
      "ials": 5468,
      "rle": 5469,
      "Ġrecy": 5470,
      "Ġmoved": 5471,
      "session": 5472,
      "hreate": 5473,
      "ĠSun": 5474,
      "Ġwonder": 5475,
      "ĠCollege": 5476,
      "Ġhelped": 5477,
      "Ġallowin": 5478,
      "Ġcognitive": 5479,
      "Ġallowing": 5480,
      "Ġoperation": 5481,
      "Ġfai": 5482,
      "ĠSocial": 5483,
      "ĠRepubl": 5484,
      "Ġpatho": 5485,
      "Ġrepa": 5486,
      "tum": 5487,
      "Ġliquid": 5488,
      "rr": 5489,
      "pup": 5490,
      "wear": 5491,
      "hold": 5492,
      "Ġappa": 5493,
      "rush": 5494,
      "pth": 5495,
      "ĠCol": 5496,
      "uma": 5497,
      "Ġmeat": 5498,
      "Ġregard": 5499,
      "34": 5500,
      "Ġirri": 5501,
      "sand": 5502,
      "Ġche": 5503,
      "100": 5504,
      "Ġsolid": 5505,
      "ĠAb": 5506,
      "ĠHen": 5507,
      "ĠArch": 5508,
      "Ġdocument": 5509,
      "ĠReg": 5510,
      "Ġdatabase": 5511,
      "Ġphotograph": 5512,
      "Ġrelie": 5513,
      "hick": 5514,
      "Ġastro": 5515,
      "Ġpin": 5516,
      "bula": 5517,
      "Ġmaster": 5518,
      "ĠMedic": 5519,
      "crete": 5520,
      "met": 5521,
      "illa": 5522,
      "ĠAD": 5523,
      "Ġparticles": 5524,
      "Ġformat": 5525,
      "Ġoral": 5526,
      "ja": 5527,
      "Ġinven": 5528,
      "Ġproteins": 5529,
      "78": 5530,
      "cer": 5531,
      "Ġsout": 5532,
      "Ġreduction": 5533,
      "Ġcompe": 5534,
      "Ġheight": 5535,
      "Ġupdate": 5536,
      "ĠDavid": 5537,
      "irgin": 5538,
      "ficial": 5539,
      "Ġ70": 5540,
      "Ġlose": 5541,
      "Ġelement": 5542,
      "ĠEmp": 5543,
      "ĠHuman": 5544,
      "Ġvulne": 5545,
      "Ġmetabo": 5546,
      "stat": 5547,
      "uck": 5548,
      "iel": 5549,
      "minated": 5550,
      "entence": 5551,
      "Ġaid": 5552,
      "Ġkilled": 5553,
      "Ġchemicals": 5554,
      "swa": 5555,
      "ooth": 5556,
      "Ġpup": 5557,
      "Ġpredict": 5558,
      "ĠAg": 5559,
      "eated": 5560,
      "Ġtreatments": 5561,
      "Ġtips": 5562,
      "olu": 5563,
      "Ġbed": 5564,
      "Ġessays": 5565,
      "Ġdomes": 5566,
      "Ġpurposes": 5567,
      "Ġprepared": 5568,
      "Ġcampa": 5569,
      "Ġsell": 5570,
      "Ġslav": 5571,
      "gan": 5572,
      "Ġfait": 5573,
      "Ġyellow": 5574,
      "sign": 5575,
      "board": 5576,
      "Ġul": 5577,
      "sland": 5578,
      "eau": 5579,
      "Ġ2005": 5580,
      "yo": 5581,
      "Ġspect": 5582,
      "bein": 5583,
      "Ġslave": 5584,
      "Ġhandle": 5585,
      "usa": 5586,
      "alt": 5587,
      "Many": 5588,
      "clusive": 5589,
      "island": 5590,
      "lities": 5591,
      "erve": 5592,
      "Ġnoted": 5593,
      "sentence": 5594,
      "Ġconsequences": 5595,
      "Ġrepla": 5596,
      "Ġprescri": 5597,
      "Ġtouch": 5598,
      "Ġnine": 5599,
      "hibi": 5600,
      "olving": 5601,
      "Ġmuscles": 5602,
      "Our": 5603,
      "Ġprefer": 5604,
      "ĠTex": 5605,
      "zi": 5606,
      "ĠPen": 5607,
      "dian": 5608,
      "Ġidentity": 5609,
      "otes": 5610,
      "Ġabs": 5611,
      "hyd": 5612,
      "sector": 5613,
      "Ġcorrespon": 5614,
      "cons": 5615,
      "Ġoccas": 5616,
      "Ġbox": 5617,
      "Ġpieces": 5618,
      "Ġade": 5619,
      "Ġrene": 5620,
      "ĠLord": 5621,
      "Ġintereste": 5622,
      "Ġsouthern": 5623,
      "Ġmoi": 5624,
      "Ġpractical": 5625,
      "Ġinterested": 5626,
      "gina": 5627,
      "ĠCongress": 5628,
      "ĠVol": 5629,
      "Ġbegins": 5630,
      "Ġspeak": 5631,
      "Ġsand": 5632,
      "Ġfeature": 5633,
      "ĠÎ": 5634,
      "Ġflowers": 5635,
      "Ġhealthcare": 5636,
      "Ġthick": 5637,
      "ĠFurther": 5638,
      "ĠGovernment": 5639,
      "being": 5640,
      "75": 5641,
      "Ġprimarily": 5642,
      "Ġannual": 5643,
      "ĠBl": 5644,
      "Ġsentence": 5645,
      "Ġisland": 5646,
      "Ġshared": 5647,
      "Ġsounds": 5648,
      "Ġtrack": 5649,
      "structure": 5650,
      "Ġcatego": 5651,
      "Ġrecorded": 5652,
      "Ġhypot": 5653,
      "Ġturned": 5654,
      "riti": 5655,
      "Ġmanner": 5656,
      "Ġnorthern": 5657,
      "ler": 5658,
      "La": 5659,
      "Ġadvance": 5660,
      "Ġconstant": 5661,
      "Ġcurriculum": 5662,
      "ghtly": 5663,
      "Ġprior": 5664,
      "Ġmois": 5665,
      "Ġgoods": 5666,
      "Ġvalua": 5667,
      "Ġcomponen": 5668,
      "Ġed": 5669,
      "reg": 5670,
      "Ġcomponent": 5671,
      "ION": 5672,
      "Ġdefini": 5673,
      "Ġfarmers": 5674,
      "ination": 5675,
      "ĠCouncil": 5676,
      "Ġcouple": 5677,
      "Ġperma": 5678,
      "faster": 5679,
      "].": 5680,
      "Ġpredic": 5681,
      "unte": 5682,
      "Ġhat": 5683,
      "Ġfocused": 5684,
      "rison": 5685,
      "Ġconsists": 5686,
      "ĠWhite": 5687,
      "Ġcontinues": 5688,
      "Ġconcern": 5689,
      "________": 5690,
      "Ġimmun": 5691,
      "ĠEvery": 5692,
      "ĠGeorge": 5693,
      "ificial": 5694,
      "blog": 5695,
      "riage": 5696,
      "Ġcompleted": 5697,
      "Ġjud": 5698,
      "ym": 5699,
      "olera": 5700,
      "Ġratio": 5701,
      "Ġdrinking": 5702,
      "Ġletters": 5703,
      "Ġemail": 5704,
      "ellit": 5705,
      "Ġwealth": 5706,
      "Ġworse": 5707,
      "Ġfaster": 5708,
      "ssil": 5709,
      "AP": 5710,
      "Ġkinds": 5711,
      "ĠCiv": 5712,
      "Ġfruits": 5713,
      "ĠUsing": 5714,
      "ĠNews": 5715,
      "ĠClass": 5716,
      "lists": 5717,
      "goin": 5718,
      "Ġmeasured": 5719,
      "Ġreaso": 5720,
      "Ã¡": 5721,
      "65": 5722,
      "teel": 5723,
      "Ġowners": 5724,
      "Ġfluid": 5725,
      "Ġplate": 5726,
      "Ġtruth": 5727,
      "demic": 5728,
      "ĠAre": 5729,
      "going": 5730,
      "Ġsalt": 5731,
      "ama": 5732,
      "inesses": 5733,
      "fas": 5734,
      "Ġsubjects": 5735,
      "antic": 5736,
      "name": 5737,
      "seg": 5738,
      "Although": 5739,
      "chi": 5740,
      "Ġkept": 5741,
      "ĠCor": 5742,
      "filled": 5743,
      "ĠDisease": 5744,
      "Ġobtain": 5745,
      "ĠSub": 5746,
      "Ġcollected": 5747,
      "trations": 5748,
      "Ġliver": 5749,
      "Ġroots": 5750,
      "Ġassign": 5751,
      "Ġmonitoring": 5752,
      "Ġspecifically": 5753,
      "gorith": 5754,
      "ĠHel": 5755,
      "sched": 5756,
      "brie": 5757,
      "Ġdepends": 5758,
      "Ġze": 5759,
      "ĠTer": 5760,
      "ratic": 5761,
      "Ġstraight": 5762,
      "Ġpoet": 5763,
      "ellite": 5764,
      "ĠFl": 5765,
      "ĠHIV": 5766,
      "Ġhelpful": 5767,
      "Ġdivided": 5768,
      "Ġspiri": 5769,
      "ĠMuseum": 5770,
      "Ġlooks": 5771,
      "Ġconcentration": 5772,
      "Ġcoordin": 5773,
      "Ġoutcomes": 5774,
      "Ġfaith": 5775,
      "Ġexcellent": 5776,
      "ttery": 5777,
      "Ġmaximum": 5778,
      "Ġcombined": 5779,
      "Mo": 5780,
      "mittee": 5781,
      "Ġpul": 5782,
      "alley": 5783,
      "ĠMicro": 5784,
      "ĠOff": 5785,
      "Ġacces": 5786,
      "Ġsector": 5787,
      "rupt": 5788,
      "ĠBritain": 5789,
      "Ġinstitutions": 5790,
      "Ġsession": 5791,
      "ĠMini": 5792,
      "Ġdos": 5793,
      "cul": 5794,
      "Ġ190": 5795,
      "Ġangle": 5796,
      "get": 5797,
      "Ġinternet": 5798,
      "Ġrobo": 5799,
      "ĠSup": 5800,
      "EL": 5801,
      "Ġposse": 5802,
      "ak": 5803,
      "ĠProfe": 5804,
      "au": 5805,
      "forms": 5806,
      "Ġmeeting": 5807,
      "ĠÐ": 5808,
      "ĠCourt": 5809,
      "Ġbird": 5810,
      "type": 5811,
      "Ġexternal": 5812,
      "Ġcivili": 5813,
      "Ġstro": 5814,
      "Ġcontinuous": 5815,
      "ĠCho": 5816,
      "Ġsupporte": 5817,
      "Ġsupported": 5818,
      "Ġevolution": 5819,
      "iews": 5820,
      "Ġpoem": 5821,
      "Ġofficial": 5822,
      "ially": 5823,
      "Ġrecommend": 5824,
      "Ġsched": 5825,
      "ĠRi": 5826,
      "eans": 5827,
      "ĠAnt": 5828,
      "ases": 5829,
      "ĠMexico": 5830,
      "Ġlessons": 5831,
      "Ġperiods": 5832,
      "Ġbackground": 5833,
      "OS": 5834,
      "Ġont": 5835,
      "ĠLife": 5836,
      "Ġintended": 5837,
      "ĠAN": 5838,
      "sory": 5839,
      "Ġcamp": 5840,
      "Ġtaught": 5841,
      "ĠRed": 5842,
      "Ġton": 5843,
      "taneous": 5844,
      "Ġkeepin": 5845,
      "Ġbrie": 5846,
      "position": 5847,
      "irect": 5848,
      "Ġcreative": 5849,
      "Ġkeeping": 5850,
      "mith": 5851,
      "Ġkm": 5852,
      "Ġheard": 5853,
      "merican": 5854,
      "Ġoperating": 5855,
      "Ġep": 5856,
      "Ġbiological": 5857,
      "CC": 5858,
      "Ġvoice": 5859,
      "Ġclot": 5860,
      "Ġneut": 5861,
      "Ġparent": 5862,
      "Ġarti": 5863,
      "Ġsufficient": 5864,
      "Ġpet": 5865,
      "Ġconclu": 5866,
      "wan": 5867,
      "Ġclaim": 5868,
      "ops": 5869,
      "steel": 5870,
      "Ġextent": 5871,
      "Ġpret": 5872,
      "Ġseek": 5873,
      "quate": 5874,
      "mato": 5875,
      "ĠSim": 5876,
      "Ġinvestigat": 5877,
      "Ġattempt": 5878,
      "Ġmotion": 5879,
      "Ġdetailed": 5880,
      "obe": 5881,
      "Ġattacks": 5882,
      "Ġexperiment": 5883,
      "push": 5884,
      "Ġstic": 5885,
      "ĠFood": 5886,
      "ĠLin": 5887,
      "Ġmys": 5888,
      ".;": 5889,
      "Ġ35": 5890,
      "Ġfeelings": 5891,
      "Ġ*": 5892,
      "Ġsurrounding": 5893,
      "Most": 5894,
      "Ġonto": 5895,
      "Ġthoughts": 5896,
      "tters": 5897,
      "hist": 5898,
      "ĠCentral": 5899,
      "Ġdiversity": 5900,
      "Ġinflammation": 5901,
      "Ġbeautiful": 5902,
      "even": 5903,
      "Wa": 5904,
      "Ġteste": 5905,
      "Ġparticipate": 5906,
      "Ġwet": 5907,
      "Ġcenturies": 5908,
      "Ġgla": 5909,
      "cket": 5910,
      "Ġproposed": 5911,
      "ĠMars": 5912,
      "cious": 5913,
      "Ġindi": 5914,
      "Ġobvious": 5915,
      "ĠPac": 5916,
      "Ġtraffic": 5917,
      "Ġdisplay": 5918,
      "Ġscree": 5919,
      "Di": 5920,
      "ĠColl": 5921,
      "scal": 5922,
      "Ġreached": 5923,
      "input": 5924,
      "Ġconsc": 5925,
      "Ġadjust": 5926,
      "cessive": 5927,
      "Ġseg": 5928,
      "Ġagricultural": 5929,
      "los": 5930,
      "Ġcrops": 5931,
      "cium": 5932,
      "Ġideal": 5933,
      "Ġdecided": 5934,
      "Ġshowing": 5935,
      "32": 5936,
      "wel": 5937,
      "word": 5938,
      "hreat": 5939,
      "Ġserved": 5940,
      "tam": 5941,
      "Ġlif": 5942,
      "ĠMin": 5943,
      "Ġwes": 5944,
      "Ġprint": 5945,
      "Ġframework": 5946,
      "ued": 5947,
      "Ġcareer": 5948,
      "ĠTechnology": 5949,
      "Ġrespective": 5950,
      "bric": 5951,
      "Ġsort": 5952,
      "ĠMac": 5953,
      "Ġtechnical": 5954,
      "Ġsale": 5955,
      "tically": 5956,
      "Ġtoxic": 5957,
      "Ġhabitat": 5958,
      "Ġdensi": 5959,
      "ĠSecon": 5960,
      "Ġwest": 5961,
      "Ġdynamic": 5962,
      "Ġprio": 5963,
      "ĠHea": 5964,
      "ĠMart": 5965,
      "cept": 5966,
      "Ġapproaches": 5967,
      "Ġdose": 5968,
      "Ġindu": 5969,
      "Ġsteel": 5970,
      "ĠBC": 5971,
      "Ġcolum": 5972,
      "minant": 5973,
      "Ġsuitable": 5974,
      "Ġtypical": 5975,
      "Ġbreath": 5976,
      "rials": 5977,
      "Ġgeograph": 5978,
      "inha": 5979,
      "Ġworksheets": 5980,
      "OT": 5981,
      "Ġadvice": 5982,
      "Ġlabor": 5983,
      "Ġphone": 5984,
      "trated": 5985,
      "Ġnoi": 5986,
      "iology": 5987,
      "Ġconnect": 5988,
      "Ġthreat": 5989,
      "US": 5990,
      "Ġobtained": 5991,
      "spl": 5992,
      "intenance": 5993,
      "Ġvaluable": 5994,
      "Ġsaying": 5995,
      "ĠOb": 5996,
      "reates": 5997,
      "Ġcontrolled": 5998,
      "tating": 5999,
      "pies": 6000,
      "ĠBar": 6001,
      "lars": 6002,
      "verage": 6003,
      "Ġpush": 6004,
      "wering": 6005,
      "fish": 6006,
      "Ġsati": 6007,
      "rles": 6008,
      "Ġassem": 6009,
      "oted": 6010,
      "Ġble": 6011,
      "Ġcoast": 6012,
      "Ġexpress": 6013,
      "Ġdental": 6014,
      "nses": 6015,
      "dar": 6016,
      "ĠCal": 6017,
      "ĠOrgani": 6018,
      "ĠBlo": 6019,
      "Ġabuse": 6020,
      "Ġsyndrome": 6021,
      "Ġene": 6022,
      "eff": 6023,
      "From": 6024,
      "Ġsmart": 6025,
      "Ġspent": 6026,
      "Ġplo": 6027,
      "ĠPsy": 6028,
      "Ġmis": 6029,
      "Ġplays": 6030,
      "Ġspend": 6031,
      "Ġmedium": 6032,
      "precia": 6033,
      "ĠNAS": 6034,
      "Ġemergency": 6035,
      "Ġdebate": 6036,
      "solute": 6037,
      "Ġfacili": 6038,
      "rly": 6039,
      "Ġoccurred": 6040,
      "Ġstages": 6041,
      "Ġpapers": 6042,
      "Ġinfected": 6043,
      "Ġsuffer": 6044,
      "Ġpotentially": 6045,
      "Ġfollows": 6046,
      "Ġcommit": 6047,
      "Ġinsp": 6048,
      "Ġchapter": 6049,
      "Ġreci": 6050,
      "Na": 6051,
      "ĠService": 6052,
      "Ġlifestyle": 6053,
      "Ġresponsibility": 6054,
      "Ġjobs": 6055,
      "ĠEnergy": 6056,
      "rcha": 6057,
      "gressive": 6058,
      "Ġvoca": 6059,
      "Ġmorning": 6060,
      "Ġpregnancy": 6061,
      "Ġcoal": 6062,
      "lgorith": 6063,
      "listic": 6064,
      "Ġtested": 6065,
      "Sa": 6066,
      "Ġexplains": 6067,
      "Ġrepresents": 6068,
      "48": 6069,
      "Ġbusinesses": 6070,
      "Ġpropor": 6071,
      "eable": 6072,
      "Ġconvert": 6073,
      "Ġwalk": 6074,
      "Ġfas": 6075,
      "Hi": 6076,
      "ĠMas": 6077,
      "Ġmono": 6078,
      "Ġswa": 6079,
      "rence": 6080,
      "Ġinput": 6081,
      "which": 6082,
      "ller": 6083,
      "99": 6084,
      "invi": 6085,
      "'ll": 6086,
      "sche": 6087,
      "nium": 6088,
      "Ġlargely": 6089,
      "verty": 6090,
      "reds": 6091,
      "Ġfundamental": 6092,
      "reatest": 6093,
      "Ġcolors": 6094,
      "iance": 6095,
      "main": 6096,
      "ughter": 6097,
      "Ġplayed": 6098,
      "Ġbul": 6099,
      "Ġsatis": 6100,
      "ĠPublic": 6101,
      "Ġcounter": 6102,
      "Ġregularly": 6103,
      "Ġlice": 6104,
      "Ġwaters": 6105,
      "tingu": 6106,
      "Ġfinally": 6107,
      "Ġwhom": 6108,
      "ĠCla": 6109,
      "Ġauthority": 6110,
      "oors": 6111,
      "Ġrespi": 6112,
      "Ġcoo": 6113,
      "Ġdespite": 6114,
      "Ġdiverse": 6115,
      "Ġoffered": 6116,
      "Ġstudied": 6117,
      "ĠBoth": 6118,
      "portation": 6119,
      "algorith": 6120,
      "Ġnations": 6121,
      "Ġforced": 6122,
      "Ġleader": 6123,
      "lations": 6124,
      "Ġbank": 6125,
      "iona": 6126,
      "Ġinvestment": 6127,
      "toma": 6128,
      "mark": 6129,
      "Ġsecondary": 6130,
      "eaths": 6131,
      "Ġintelligence": 6132,
      "TS": 6133,
      "Ġcontainin": 6134,
      "Ġcontaining": 6135,
      "ĠMake": 6136,
      "uis": 6137,
      "Ġmedications": 6138,
      "Ġfarm": 6139,
      "Ġclick": 6140,
      "thetic": 6141,
      "nomy": 6142,
      "Ġscreen": 6143,
      "cling": 6144,
      "Pe": 6145,
      "Ġadapt": 6146,
      "Ġdic": 6147,
      "roid": 6148,
      "ĠDon": 6149,
      "DF": 6150,
      "Ġplaying": 6151,
      "pected": 6152,
      "Ġcrisis": 6153,
      "Ġcert": 6154,
      "Ġ2004": 6155,
      "Ġhit": 6156,
      "rency": 6157,
      "Ġvast": 6158,
      "ĠMath": 6159,
      "Ġ<": 6160,
      "Ġhaza": 6161,
      "oney": 6162,
      "Ġmanufacturing": 6163,
      "army": 6164,
      "Ġalgorith": 6165,
      "Ġsubstance": 6166,
      "Ġprocedures": 6167,
      "hereas": 6168,
      "Ġanswers": 6169,
      "Ġgrass": 6170,
      "ĠEss": 6171,
      "Ġobe": 6172,
      "Ġgrown": 6173,
      "Now": 6174,
      "rging": 6175,
      "Ġgeno": 6176,
      "ĠTexas": 6177,
      "felt": 6178,
      "Ġappearance": 6179,
      "Ġfertili": 6180,
      "MS": 6181,
      "shop": 6182,
      "ING": 6183,
      "ĠInc": 6184,
      "RI": 6185,
      "ĠAm": 6186,
      "oi": 6187,
      "Ġyouth": 6188,
      "Ġexpand": 6189,
      "bid": 6190,
      "ivation": 6191,
      "BC": 6192,
      "Ġexistence": 6193,
      "Ġmeant": 6194,
      "lates": 6195,
      "Ġdeco": 6196,
      "Ġvisi": 6197,
      "Ġincreasingly": 6198,
      "Ġcertainly": 6199,
      "Ġspl": 6200,
      "iruses": 6201,
      "ĠIsland": 6202,
      "Another": 6203,
      "ium": 6204,
      "That": 6205,
      "Ġbright": 6206,
      "More": 6207,
      "Ġharmful": 6208,
      "nounced": 6209,
      "Ġsequence": 6210,
      "Ġarmy": 6211,
      "Ġdiscussed": 6212,
      "Ġprotected": 6213,
      "ĠEm": 6214,
      "Ġpal": 6215,
      "31": 6216,
      "ĠTwo": 6217,
      "ĠDem": 6218,
      "Ġselected": 6219,
      "Ġemployees": 6220,
      "Pre": 6221,
      "Ta": 6222,
      "eent": 6223,
      "ĠSp": 6224,
      "âĢĻ.": 6225,
      "ĠJews": 6226,
      "Ġpoverty": 6227,
      "Ġsuggeste": 6228,
      "Ġsuggested": 6229,
      "Ġgirls": 6230,
      "Ġded": 6231,
      "ased": 6232,
      "dal": 6233,
      "down": 6234,
      "olutionary": 6235,
      "quality": 6236,
      "eenth": 6237,
      "hnic": 6238,
      "Ġexplained": 6239,
      "Ġshift": 6240,
      "dt": 6241,
      "spon": 6242,
      "uc": 6243,
      "ett": 6244,
      "snow": 6245,
      "hma": 6246,
      "ĠMont": 6247,
      "Ġlinks": 6248,
      "Ġblog": 6249,
      "Ġsubsequen": 6250,
      "ĠDec": 6251,
      "Ġslightly": 6252,
      "Ġaddre": 6253,
      "rida": 6254,
      "nding": 6255,
      "isms": 6256,
      "Ġprinciple": 6257,
      "gred": 6258,
      "ĠFound": 6259,
      "metry": 6260,
      "Ġages": 6261,
      "icians": 6262,
      "Ġeast": 6263,
      "Ġcontem": 6264,
      "ĠAut": 6265,
      "bear": 6266,
      "Ġwire": 6267,
      "Ġagriculture": 6268,
      "Ġadding": 6269,
      "udd": 6270,
      "force": 6271,
      "Ġaren": 6272,
      "rp": 6273,
      "ĠSpace": 6274,
      "Ġchain": 6275,
      "Ġstars": 6276,
      "Ġrecovery": 6277,
      "Ġcast": 6278,
      "ĠMedical": 6279,
      "ĠCro": 6280,
      "Ġtee": 6281,
      "Ġfacilities": 6282,
      "Ġpursu": 6283,
      "wood": 6284,
      "intake": 6285,
      "Ġmovements": 6286,
      "Ġreserve": 6287,
      "Ġgenerate": 6288,
      "Ġraised": 6289,
      "Ġprofessor": 6290,
      "bies": 6291,
      "orm": 6292,
      "trogen": 6293,
      "Ġinvi": 6294,
      "ĠProject": 6295,
      "Ġrapidly": 6296,
      "Ġcomprehensive": 6297,
      "Ġcas": 6298,
      "tury": 6299,
      "wable": 6300,
      "Ġbarri": 6301,
      "dens": 6302,
      "Ġgreatest": 6303,
      "Ġwestern": 6304,
      "Ġtw": 6305,
      "Ġinvestigate": 6306,
      "Ġintake": 6307,
      "Ġdrink": 6308,
      "Ġpark": 6309,
      "Ġacquire": 6310,
      "fro": 6311,
      "ĠPort": 6312,
      "Ġlegis": 6313,
      "ĠAnother": 6314,
      "ĠMiddle": 6315,
      "CS": 6316,
      "Ġconduct": 6317,
      "Ġspot": 6318,
      "Ġgrant": 6319,
      "Ġfelt": 6320,
      "Ġ2003": 6321,
      "Ġjournal": 6322,
      "ĠDu": 6323,
      "Ġsecure": 6324,
      "Ġrural": 6325,
      "stere": 6326,
      "ĠVirgin": 6327,
      "Ġimproving": 6328,
      "Ġprevention": 6329,
      "Ġigno": 6330,
      "Ġeliminate": 6331,
      "nesses": 6332,
      "Ġnutrition": 6333,
      "Da": 6334,
      "tery": 6335,
      "95": 6336,
      "ĠCatho": 6337,
      "ĠMedicine": 6338,
      "Ġrecognize": 6339,
      "ĠRead": 6340,
      "ĠWil": 6341,
      "Ġnetworks": 6342,
      "Ġpresident": 6343,
      "Ġvisible": 6344,
      "Ġbeneficial": 6345,
      "Ġwear": 6346,
      "Ġrough": 6347,
      "....": 6348,
      "ized": 6349,
      "Ġlates": 6350,
      "Ġwalls": 6351,
      "ĠNASA": 6352,
      "Ġast": 6353,
      "Ġlatest": 6354,
      "Ġsnow": 6355,
      "Ġrecognized": 6356,
      "Ġclosely": 6357,
      "Ġsides": 6358,
      "Ġminimum": 6359,
      "HO": 6360,
      "lor": 6361,
      "Stu": 6362,
      "Ġnaturally": 6363,
      "Cha": 6364,
      "Ġreaders": 6365,
      "Ġremained": 6366,
      "faces": 6367,
      "ĠElect": 6368,
      "ĠBook": 6369,
      "utin": 6370,
      "ĠGroup": 6371,
      "pathy": 6372,
      "Ġthreate": 6373,
      "ĠToday": 6374,
      "ritage": 6375,
      "iry": 6376,
      "stream": 6377,
      "tated": 6378,
      "Ġotherwise": 6379,
      "sports": 6380,
      "Ġsensitive": 6381,
      "stoma": 6382,
      "utive": 6383,
      "thers": 6384,
      "Ġexchange": 6385,
      "Ġinterests": 6386,
      "Ġeng": 6387,
      "Ġsets": 6388,
      "Ġmobile": 6389,
      "anguage": 6390,
      "Ġinfrastructure": 6391,
      "Ġbattery": 6392,
      "gua": 6393,
      "44": 6394,
      "cat": 6395,
      "Ġphoto": 6396,
      "Ġselection": 6397,
      "ĠGoogle": 6398,
      "ĠBay": 6399,
      "ĠPhi": 6400,
      "Ġsuffering": 6401,
      "Ġdeaths": 6402,
      "rstood": 6403,
      "terol": 6404,
      "ncing": 6405,
      "Ġenvironments": 6406,
      "Ġphrase": 6407,
      "Ġtwen": 6408,
      "Ġresol": 6409,
      "imize": 6410,
      "tored": 6411,
      "owns": 6412,
      "ht": 6413,
      "Ġwatch": 6414,
      "Ġworldwide": 6415,
      "inches": 6416,
      "Ġcirc": 6417,
      "ĠCap": 6418,
      "ĠReso": 6419,
      "Ġemotions": 6420,
      "ubt": 6421,
      "Ġnois": 6422,
      "Ġjustice": 6423,
      "Ġimmi": 6424,
      "Ġtrial": 6425,
      "icit": 6426,
      "Ġdescribes": 6427,
      "aim": 6428,
      "hale": 6429,
      "ĠWomen": 6430,
      "Ġaccompl": 6431,
      "Ġdistinct": 6432,
      "Ġdiscover": 6433,
      "Ġmoral": 6434,
      "Ġod": 6435,
      "shes": 6436,
      "rona": 6437,
      "ĠThomas": 6438,
      "CT": 6439,
      "Ġmolecules": 6440,
      "Ġprices": 6441,
      "ĠPower": 6442,
      "ĠCy": 6443,
      "ents": 6444,
      "flat": 6445,
      "Ġnoise": 6446,
      "ingred": 6447,
      "rium": 6448,
      "ĠStudies": 6449,
      "Ġtast": 6450,
      "ĠInformation": 6451,
      "Ġgovernments": 6452,
      "ĠKorea": 6453,
      "Ġru": 6454,
      "Ġhappened": 6455,
      "Ġprofessionals": 6456,
      "ĠGet": 6457,
      "Ġantibio": 6458,
      "flight": 6459,
      "Ġguidelines": 6460,
      "ĠConst": 6461,
      "Ġviews": 6462,
      "Ġenzy": 6463,
      "ĠBet": 6464,
      "Ġcircui": 6465,
      "Ġsports": 6466,
      "rders": 6467,
      "ĠFre": 6468,
      "Ġdiscri": 6469,
      "mia": 6470,
      "ocat": 6471,
      "bac": 6472,
      "ĠSin": 6473,
      "stored": 6474,
      "Ġdiges": 6475,
      "Ġportion": 6476,
      "Ġprepare": 6477,
      "tron": 6478,
      "ĠPacific": 6479,
      "ĠHam": 6480,
      "tering": 6481,
      "ĠLike": 6482,
      "Ġaim": 6483,
      "Ġstoma": 6484,
      "ĠPaul": 6485,
      "gues": 6486,
      "Ġfriend": 6487,
      "Ġingred": 6488,
      "Ġaccep": 6489,
      "stered": 6490,
      "Ġ45": 6491,
      "Ġskill": 6492,
      "rty": 6493,
      "erial": 6494,
      "ĠLabo": 6495,
      "Ġconcerned": 6496,
      "ungs": 6497,
      "ĠGuide": 6498,
      "Ġmam": 6499,
      "ĠEff": 6500,
      "ĠNet": 6501,
      "Ġtransmission": 6502,
      "ifying": 6503,
      "ĠPal": 6504,
      "Ġrespond": 6505,
      "Ġdensity": 6506,
      "ĠCivil": 6507,
      "Ġcapable": 6508,
      "Ġsatellite": 6509,
      "Ġexperiments": 6510,
      "dable": 6511,
      "Ġsurvival": 6512,
      "Ġdomestic": 6513,
      "Ġinches": 6514,
      "ĠRussia": 6515,
      "Ġdrop": 6516,
      "ĠAustra": 6517,
      "Ġmista": 6518,
      "Ġ1990": 6519,
      "Ġmedication": 6520,
      "ĠCD": 6521,
      "Ġcomputers": 6522,
      "ĠManagement": 6523,
      "ital": 6524,
      "ocate": 6525,
      "ske": 6526,
      "ĠWal": 6527,
      "field": 6528,
      "dden": 6529,
      "ĠMusl": 6530,
      "hio": 6531,
      "ĠKnow": 6532,
      "awa": 6533,
      "ĠPol": 6534,
      "ĠIN": 6535,
      "ĠPat": 6536,
      "Ġproducing": 6537,
      "Ġstored": 6538,
      "ÃŃ": 6539,
      "sick": 6540,
      "Ġbones": 6541,
      "Ġfol": 6542,
      "Ġroutine": 6543,
      "Ġcomposition": 6544,
      "Ġstated": 6545,
      "Ġdriving": 6546,
      "Ġdiscovery": 6547,
      "Ġcalo": 6548,
      "Ġvehicles": 6549,
      "ĠAss": 6550,
      "Ġbear": 6551,
      "Ġpolice": 6552,
      "Ġmaintenance": 6553,
      "Ġoccup": 6554,
      "Ġtaste": 6555,
      "Ġreader": 6556,
      "Ġinvas": 6557,
      "Ġcommunicate": 6558,
      "Ġinha": 6559,
      "Ġcrop": 6560,
      "Ġstarts": 6561,
      "fan": 6562,
      "Ġopening": 6563,
      "under": 6564,
      "umber": 6565,
      "Ġexpect": 6566,
      "Ġpersons": 6567,
      "Ġabund": 6568,
      "war": 6569,
      "Ġevolve": 6570,
      "ĠLake": 6571,
      "ifications": 6572,
      "ibility": 6573,
      "Ġstudyin": 6574,
      "Ġchildhood": 6575,
      "Ġstudying": 6576,
      "ĠRussian": 6577,
      "Tra": 6578,
      "Ġprotoco": 6579,
      "Ġexpensive": 6580,
      "Ġjourney": 6581,
      "Ġnormally": 6582,
      "ĠTri": 6583,
      "Ġreflect": 6584,
      "Ġcup": 6585,
      "Ġhundreds": 6586,
      "Ġexpec": 6587,
      "Ġscan": 6588,
      "ĠOut": 6589,
      "tts": 6590,
      "Ġleadership": 6591,
      "icles": 6592,
      "ĠTem": 6593,
      "Ġinteraction": 6594,
      "sert": 6595,
      "thesis": 6596,
      "limate": 6597,
      "hyt": 6598,
      "Ġmarine": 6599,
      "Ġdistingu": 6600,
      "Ġacids": 6601,
      "menting": 6602,
      "Ġ186": 6603,
      "'v": 6604,
      "'ve": 6605,
      "Ġlandscape": 6606,
      "Ev": 6607,
      "ĠStudy": 6608,
      "gens": 6609,
      "bulary": 6610,
      "Ġgenerated": 6611,
      "Ġargument": 6612,
      "ĠArmy": 6613,
      "Ġchoices": 6614,
      "Ġconclusion": 6615,
      "lot": 6616,
      "ĠIma": 6617,
      "Ġobserva": 6618,
      "Ġtrain": 6619,
      "Ġcreates": 6620,
      "fortunately": 6621,
      "ility": 6622,
      "Ġstran": 6623,
      "nario": 6624,
      "ĠInstead": 6625,
      "Ġforests": 6626,
      "bar": 6627,
      "Ġachieved": 6628,
      "Ġ2021": 6629,
      "Ġfiles": 6630,
      "Ġhundred": 6631,
      "ffee": 6632,
      "ĠLand": 6633,
      "Ġdocuments": 6634,
      "Ġmoon": 6635,
      "Ġfirm": 6636,
      "heless": 6637,
      "Ġrail": 6638,
      "Ġround": 6639,
      "ĠGar": 6640,
      "Ġresponses": 6641,
      "Ġselect": 6642,
      "prising": 6643,
      "Ġcultures": 6644,
      "ĠDan": 6645,
      "Ġwife": 6646,
      "Ġdetail": 6647,
      "Ġsick": 6648,
      "ĠCharles": 6649,
      "ĠSuch": 6650,
      "Ġelectronic": 6651,
      "Ġpromise": 6652,
      "Ġbehaviour": 6653,
      "eals": 6654,
      "Ġabsolute": 6655,
      "Ġcarbo": 6656,
      "burg": 6657,
      "Ġalt": 6658,
      "Ġdut": 6659,
      "ĠOF": 6660,
      "Ġspeaking": 6661,
      "Ġleaving": 6662,
      "nian": 6663,
      "ritis": 6664,
      "Ġreveale": 6665,
      "tability": 6666,
      "Ġrevealed": 6667,
      "ĠBible": 6668,
      "Ġ2001": 6669,
      "During": 6670,
      "genic": 6671,
      "Ġwaves": 6672,
      "Ġdeliver": 6673,
      "graphic": 6674,
      "ĠEaster": 6675,
      "plication": 6676,
      "Ġimpos": 6677,
      "Ġrid": 6678,
      "ĠDra": 6679,
      "85": 6680,
      "state": 6681,
      "affor": 6682,
      "with": 6683,
      "Ġprospe": 6684,
      "pick": 6685,
      "tera": 6686,
      "Ġinsects": 6687,
      "Ġpictures": 6688,
      "ĠWri": 6689,
      "Ġwis": 6690,
      "Ġaudience": 6691,
      "ĠCommission": 6692,
      "Can": 6693,
      "ĠWell": 6694,
      "Ġtradition": 6695,
      "Ġgradua": 6696,
      "Ġcm": 6697,
      "ĠControl": 6698,
      "gical": 6699,
      "mension": 6700,
      "Ġaccel": 6701,
      "Ġband": 6702,
      "ician": 6703,
      "Ġaccomp": 6704,
      "Ġreve": 6705,
      "Ġfloor": 6706,
      "Ġmillions": 6707,
      "46": 6708,
      "Ġaspect": 6709,
      "imat": 6710,
      "Ġrub": 6711,
      "Ġsurvive": 6712,
      "Ġlooked": 6713,
      "ĠMr": 6714,
      "ĠCommon": 6715,
      "arily": 6716,
      "ening": 6717,
      "Ġmembra": 6718,
      "ntions": 6719,
      "Ġcourses": 6720,
      "Ġbrown": 6721,
      "Ġacts": 6722,
      "ĠHist": 6723,
      "Ġconscious": 6724,
      "Ġthi": 6725,
      "Ġtried": 6726,
      "tegory": 6727,
      "ĠNor": 6728,
      "lise": 6729,
      "Ġvariable": 6730,
      "ums": 6731,
      "76": 6732,
      "ĠOld": 6733,
      "ĠCaro": 6734,
      "stantly": 6735,
      "Ġmere": 6736,
      "Ġstomach": 6737,
      "vative": 6738,
      "Ġtalking": 6739,
      "ĠAbout": 6740,
      "ellect": 6741,
      "ĠSov": 6742,
      "Ġresidents": 6743,
      "fortable": 6744,
      "ĠPC": 6745,
      "ucos": 6746,
      "prov": 6747,
      "spea": 6748,
      "Ġfiber": 6749,
      "Ġcomparison": 6750,
      "Ġparties": 6751,
      "arm": 6752,
      "plet": 6753,
      "pure": 6754,
      "ĠFoundation": 6755,
      "ois": 6756,
      "dations": 6757,
      "Ġfamiliar": 6758,
      "Ġ2002": 6759,
      "ĠScient": 6760,
      "Ġaffor": 6761,
      "Ġderived": 6762,
      "Ġproduces": 6763,
      "Jo": 6764,
      "mals": 6765,
      "Ġcalcium": 6766,
      "Ġdecline": 6767,
      "las": 6768,
      "ĠNature": 6769,
      "ĠDiff": 6770,
      "ucose": 6771,
      "hic": 6772,
      "Ġsoldiers": 6773,
      "Ġapprecia": 6774,
      "Ġelectron": 6775,
      "dily": 6776,
      "Ġcere": 6777,
      "Ġextensive": 6778,
      "Ġmassive": 6779,
      "Ġcand": 6780,
      "gie": 6781,
      "Ġvillage": 6782,
      "Ġpaid": 6783,
      "reatment": 6784,
      "Ġtransfor": 6785,
      "Ġflat": 6786,
      "Ġintensi": 6787,
      "Ġstation": 6788,
      "Ġprogramming": 6789,
      "New": 6790,
      "Ġcircuit": 6791,
      "ilding": 6792,
      "Ġinjuries": 6793,
      "ĠBudd": 6794,
      "Ġintervention": 6795,
      "stron": 6796,
      "eme": 6797,
      "imate": 6798,
      "Ġerror": 6799,
      "ivale": 6800,
      "Ġwildlife": 6801,
      "hrea": 6802,
      "Ġpercen": 6803,
      "uns": 6804,
      "Ġpriv": 6805,
      "Ġfigures": 6806,
      "ĠTHE": 6807,
      "ĠPr": 6808,
      "hu": 6809,
      "virus": 6810,
      "ioxide": 6811,
      "Ġ>": 6812,
      "quit": 6813,
      "romo": 6814,
      "Ġbehaviors": 6815,
      "LE": 6816,
      "stock": 6817,
      "ĠHome": 6818,
      "Ġfro": 6819,
      "Ġopinion": 6820,
      "Ġtens": 6821,
      "ete": 6822,
      "Ġmagnetic": 6823,
      "Ġorganisms": 6824,
      "nated": 6825,
      "Ġconsistent": 6826,
      "Ġske": 6827,
      "ĠRights": 6828,
      "ences": 6829,
      "?âĢĿ": 6830,
      "Ġphotos": 6831,
      "Ġinstall": 6832,
      "Ġanalys": 6833,
      "Ġdepth": 6834,
      "sul": 6835,
      "pus": 6836,
      "Ġraw": 6837,
      "Ġvs": 6838,
      "Ġunlike": 6839,
      "rizon": 6840,
      "Ġgrand": 6841,
      "Ġrequest": 6842,
      "ancer": 6843,
      "Ġmechanism": 6844,
      "Ġwarming": 6845,
      "hlet": 6846,
      "Ġclaims": 6847,
      "Ġinner": 6848,
      "Ġpreval": 6849,
      "Ġcompounds": 6850,
      "Ġunderstood": 6851,
      "Ġcurv": 6852,
      "Ġdolla": 6853,
      "Ġpreci": 6854,
      "Ġlisted": 6855,
      "Ġclosed": 6856,
      "Ġstron": 6857,
      "ĠEnvironmental": 6858,
      "ĠStr": 6859,
      "ivalen": 6860,
      "unter": 6861,
      "Ġdiscipl": 6862,
      "Ġtransition": 6863,
      "88": 6864,
      "Ġcars": 6865,
      "Ġexcept": 6866,
      "ansion": 6867,
      "Ġsignals": 6868,
      "mens": 6869,
      "Ġsche": 6870,
      "Ġgall": 6871,
      "Ġlibrary": 6872,
      "Ġpick": 6873,
      "icating": 6874,
      "Ġplas": 6875,
      "Ġcollect": 6876,
      "Ġcoope": 6877,
      "ilt": 6878,
      ".|": 6879,
      "Ġhabits": 6880,
      "Ġadopte": 6881,
      "Ġappeared": 6882,
      "Ġadopted": 6883,
      "Ġcloth": 6884,
      "olesterol": 6885,
      "Ġpsychological": 6886,
      "Ġmanufacture": 6887,
      "obl": 6888,
      "hor": 6889,
      "Ġbudge": 6890,
      "dential": 6891,
      "Ġfoundation": 6892,
      "Ġbreathing": 6893,
      "ĠRobert": 6894,
      "rust": 6895,
      "Ġhospital": 6896,
      "sters": 6897,
      "Ġsudden": 6898,
      "bled": 6899,
      "ĠDel": 6900,
      "Ġhydrogen": 6901,
      "Ġopposite": 6902,
      "Ġbat": 6903,
      "Ġcorn": 6904,
      "Ġ31": 6905,
      "Ġshell": 6906,
      "orial": 6907,
      "sme": 6908,
      "Ġwriter": 6909,
      "overs": 6910,
      "ĠLanguage": 6911,
      "Ġedge": 6912,
      "Ba": 6913,
      "Ġlocations": 6914,
      "ĠWind": 6915,
      "âĢĻ,": 6916,
      "Ġfixed": 6917,
      "Ġartificial": 6918,
      "Ġmonitor": 6919,
      "ĠQua": 6920,
      "Ġchec": 6921,
      "ĠCare": 6922,
      "Ġschedule": 6923,
      "Ġbelon": 6924,
      "eco": 6925,
      "Ġcorpo": 6926,
      "ĠPy": 6927,
      "Ġleaf": 6928,
      "Ġwish": 6929,
      "matical": 6930,
      "Ġvaccin": 6931,
      "Ġscenario": 6932,
      "rlia": 6933,
      "Ġsuccessfully": 6934,
      "ĠAtlan": 6935,
      "55": 6936,
      "ĠChem": 6937,
      "Ġindicates": 6938,
      "Ġbound": 6939,
      "Ġmixed": 6940,
      "Ġreactions": 6941,
      "llo": 6942,
      "whereas": 6943,
      "47": 6944,
      "ĠPract": 6945,
      "Ġaccounts": 6946,
      "glo": 6947,
      "ĠLu": 6948,
      "Ġcurve": 6949,
      "Ġimpossible": 6950,
      "Ġdifficulty": 6951,
      "fuge": 6952,
      "ashion": 6953,
      "Ġstock": 6954,
      "Ġaccum": 6955,
      "Ġwindow": 6956,
      "sem": 6957,
      "vised": 6958,
      "Ġmaintainin": 6959,
      "chem": 6960,
      "Ġmaintaining": 6961,
      "Ġpossibly": 6962,
      "uli": 6963,
      "Ġ)": 6964,
      "apart": 6965,
      "Ġreturned": 6966,
      "Ġmachines": 6967,
      "Ġhero": 6968,
      "Ġmechanisms": 6969,
      "Ġextended": 6970,
      "Ġexpressed": 6971,
      "ivalent": 6972,
      "scope": 6973,
      "Ġvessels": 6974,
      "Ġdys": 6975,
      "ĠSam": 6976,
      "Ġtrouble": 6977,
      "Ġthrea": 6978,
      "ordinary": 6979,
      "Ġmountain": 6980,
      "Ġsubstances": 6981,
      "Ġlots": 6982,
      "Ġcutting": 6983,
      "Research": 6984,
      "ĠUSA": 6985,
      "Ġrevolution": 6986,
      "gel": 6987,
      "Ġcompare": 6988,
      "plat": 6989,
      "Ġobjective": 6990,
      "Ġflight": 6991,
      "iction": 6992,
      "Ġdescription": 6993,
      "LA": 6994,
      "Ġnerve": 6995,
      "oph": 6996,
      "Ġunderlying": 6997,
      "Ġwhereas": 6998,
      "Ġneighbo": 6999,
      "Ġaccepted": 7000,
      "ĠEt": 7001,
      "Ġeducat": 7002,
      "Ġevaluation": 7003,
      "Ġpossibility": 7004,
      "plin": 7005,
      "49": 7006,
      "elect": 7007,
      "Ġtiny": 7008,
      "Ġunknown": 7009,
      "Ġregiona": 7010,
      "Ġsupportin": 7011,
      "Ġentirely": 7012,
      "Ġsupporting": 7013,
      "Ġdrawing": 7014,
      "ruption": 7015,
      "Ġcolour": 7016,
      "Ġload": 7017,
      "usal": 7018,
      "Ġvio": 7019,
      "Ġregional": 7020,
      "Us": 7021,
      "Ġconcrete": 7022,
      "active": 7023,
      "sides": 7024,
      "gression": 7025,
      ".âĢĻ": 7026,
      "Ġnur": 7027,
      "Ġdoctors": 7028,
      "Ġuniverse": 7029,
      "Ġinteractions": 7030,
      "llowin": 7031,
      "mies": 7032,
      "llowing": 7033,
      "rtho": 7034,
      "ĠAny": 7035,
      "ĠColum": 7036,
      "Ġlab": 7037,
      "Â·": 7038,
      "rvest": 7039,
      "ĠHenry": 7040,
      "ĠEngine": 7041,
      "Ġplatform": 7042,
      "Ġarchitecture": 7043,
      "Ġminin": 7044,
      "Ġfeedback": 7045,
      "ji": 7046,
      "idance": 7047,
      "icin": 7048,
      "Ġinstructions": 7049,
      "Ġchallenging": 7050,
      "500": 7051,
      "Ġmining": 7052,
      "ĠRes": 7053,
      "arms": 7054,
      "Ġincre": 7055,
      "called": 7056,
      "plant": 7057,
      "Tho": 7058,
      "Ġapart": 7059,
      "Ġofficials": 7060,
      "Ġhappy": 7061,
      "Ġinstruction": 7062,
      "ĠMis": 7063,
      "Ġrestric": 7064,
      "Ġgreatly": 7065,
      "Ġhousehold": 7066,
      "Ġcholesterol": 7067,
      "Ġassistance": 7068,
      "Ġqual": 7069,
      "Ġdoi": 7070,
      "Ġfunding": 7071,
      "tainin": 7072,
      "Figure": 7073,
      "taining": 7074,
      "89": 7075,
      "zen": 7076,
      "unk": 7077,
      "gus": 7078,
      "Ġcap": 7079,
      "Ġdioxide": 7080,
      "fighting": 7081,
      "à¥": 7082,
      "Ġabnor": 7083,
      "Ġaircraft": 7084,
      "Ġformal": 7085,
      "Ġethnic": 7086,
      "ĠSus": 7087,
      "Ġadministration": 7088,
      "Ġoriginally": 7089,
      "ource": 7090,
      "Ġfilled": 7091,
      "Lear": 7092,
      "Ġfrag": 7093,
      "Ġdecide": 7094,
      "Ġimplementation": 7095,
      "riters": 7096,
      "Ġnarrative": 7097,
      "icy": 7098,
      "astal": 7099,
      "Ġexamine": 7100,
      "Ġagreement": 7101,
      "Ġ500": 7102,
      "Ġpandemic": 7103,
      "wants": 7104,
      "Ġscholars": 7105,
      "charge": 7106,
      "ĠCompany": 7107,
      "truct": 7108,
      "ĠRome": 7109,
      "Ġina": 7110,
      "Ġremaining": 7111,
      "itutional": 7112,
      "Ġbroken": 7113,
      "Ġlaboratory": 7114,
      "Ġcalls": 7115,
      "Ġances": 7116,
      "UR": 7117,
      "ĠCatholic": 7118,
      "Ġslowly": 7119,
      "mend": 7120,
      "mond": 7121,
      "Ġassist": 7122,
      "cific": 7123,
      "ology": 7124,
      "Ã¼": 7125,
      "ĠAlex": 7126,
      "ĠSmith": 7127,
      "Ġcarefully": 7128,
      "Ġpy": 7129,
      "Ġgram": 7130,
      "Ġtwice": 7131,
      "beth": 7132,
      "Ġcircumstances": 7133,
      "Ġsky": 7134,
      "Ġtells": 7135,
      "Ġindex": 7136,
      "Ġbottle": 7137,
      "ĠHave": 7138,
      "ĠQues": 7139,
      "icon": 7140,
      "Ġpure": 7141,
      "power": 7142,
      "Ġsymbol": 7143,
      "Ġparagraph": 7144,
      "Ġwants": 7145,
      "Ġreinfor": 7146,
      "Ġpersi": 7147,
      "Ġzero": 7148,
      "asa": 7149,
      "Ġsmoking": 7150,
      "ĠCoo": 7151,
      "Ġgover": 7152,
      "ĠFra": 7153,
      "Ġbelief": 7154,
      "yste": 7155,
      "Ð¾": 7156,
      "Ġama": 7157,
      "imilar": 7158,
      "iant": 7159,
      "ĠNations": 7160,
      "Ġspon": 7161,
      "Ġbeliefs": 7162,
      "struction": 7163,
      "rators": 7164,
      "thout": 7165,
      "77": 7166,
      "asse": 7167,
      "Ġadvantages": 7168,
      "Ġtissues": 7169,
      "Ġmarked": 7170,
      "Other": 7171,
      "86": 7172,
      "Ġvoltage": 7173,
      "Ġminerals": 7174,
      "Ġobl": 7175,
      "ichard": 7176,
      "Ġfeeding": 7177,
      "Ġsimpl": 7178,
      "scale": 7179,
      "Ġlayers": 7180,
      "iated": 7181,
      "got": 7182,
      "Ġstream": 7183,
      "pressive": 7184,
      "Ġnavi": 7185,
      "ĠLibrary": 7186,
      "Ġindustries": 7187,
      "Ġsharing": 7188,
      "ĠVirginia": 7189,
      "ĠEmpire": 7190,
      "Ġconfidence": 7191,
      "ĠJose": 7192,
      "Ġarm": 7193,
      "Ġconsumers": 7194,
      "itudes": 7195,
      "Ġax": 7196,
      "Ġhouses": 7197,
      "Ġfever": 7198,
      "reams": 7199,
      "ĠFlorida": 7200,
      "dency": 7201,
      "Ġpresentation": 7202,
      "Ġ300": 7203,
      "dor": 7204,
      "Ġstable": 7205,
      "edi": 7206,
      "Ġcoffee": 7207,
      "Ġrecognition": 7208,
      "Ġarms": 7209,
      "Ġuniversity": 7210,
      "idity": 7211,
      "ĠStanda": 7212,
      "ania": 7213,
      "ury": 7214,
      "Ġsupports": 7215,
      "road": 7216,
      "Ġrepresente": 7217,
      "Ġrepresented": 7218,
      "ĠSoviet": 7219,
      "ĠBoo": 7220,
      "ffa": 7221,
      "Ġvariables": 7222,
      "tact": 7223,
      "Ġknew": 7224,
      "Ġultimately": 7225,
      "Ġfossil": 7226,
      "Ġlac": 7227,
      "Ġobesity": 7228,
      "Ġviruses": 7229,
      "minen": 7230,
      "Ġeveryday": 7231,
      "Ġimprovement": 7232,
      "ĠRad": 7233,
      "Ġregulations": 7234,
      "Ġdust": 7235,
      "Ġsheet": 7236,
      "ĠAS": 7237,
      "Ġlearners": 7238,
      "Ġmini": 7239,
      "Since": 7240,
      "Ð°": 7241,
      "tivity": 7242,
      "Ġkit": 7243,
      "nings": 7244,
      "Ġconventional": 7245,
      "Ġcollea": 7246,
      "sher": 7247,
      "ville": 7248,
      "Ġstands": 7249,
      "fits": 7250,
      "Ġtale": 7251,
      "Ġcardio": 7252,
      "Ġmanaged": 7253,
      "Ġcloud": 7254,
      "Ġpose": 7255,
      "Ġglucose": 7256,
      "ĠSecond": 7257,
      "Ġdistrict": 7258,
      "Ġlatter": 7259,
      "Ġbiggest": 7260,
      "ĠAustralian": 7261,
      "Ġpermanent": 7262,
      "ĠAdditionally": 7263,
      "âĢĺ": 7264,
      "Ġexercises": 7265,
      "heme": 7266,
      "EP": 7267,
      "avin": 7268,
      "Ġphilosophy": 7269,
      "Ġgree": 7270,
      "pling": 7271,
      "ider": 7272,
      "Ġau": 7273,
      "Ġmarriage": 7274,
      "Ne": 7275,
      "Ðµ": 7276,
      "Ġawa": 7277,
      "Ġorganized": 7278,
      "ĠSafe": 7279,
      "Ġfly": 7280,
      "rce": 7281,
      "Ġthy": 7282,
      "Ġscene": 7283,
      "Ġdirecto": 7284,
      "metric": 7285,
      "Ġscri": 7286,
      "Ġvulnerable": 7287,
      "Ġcandidate": 7288,
      "Ġchea": 7289,
      "Ġegg": 7290,
      "Ġpersis": 7291,
      "derstanding": 7292,
      "ĠMer": 7293,
      "matory": 7294,
      "Ġemphasi": 7295,
      "ĠRepublic": 7296,
      "level": 7297,
      "Ġfan": 7298,
      "ĠExam": 7299,
      "iming": 7300,
      "Ġwalking": 7301,
      "porte": 7302,
      "Ġusage": 7303,
      "Ġchosen": 7304,
      "Ġmeasurement": 7305,
      "BN": 7306,
      "Ġformula": 7307,
      "tility": 7308,
      "ĠIP": 7309,
      "Ġpropo": 7310,
      "ĠFort": 7311,
      "rey": 7312,
      "imer": 7313,
      "Ġsignificance": 7314,
      "Ġcampaign": 7315,
      "Ġtruly": 7316,
      "IP": 7317,
      "ĠProfessor": 7318,
      "Ġanalyse": 7319,
      "ĠLis": 7320,
      "Ġseein": 7321,
      "ivated": 7322,
      "Ġseeing": 7323,
      "05": 7324,
      "Ġsul": 7325,
      "Ġimmediate": 7326,
      "Ġdirector": 7327,
      "Ġindependence": 7328,
      "verti": 7329,
      "Ġcritic": 7330,
      "Ġgreenhouse": 7331,
      "Ġrespiratory": 7332,
      "Ġconnections": 7333,
      "Ġjoin": 7334,
      "ĠIre": 7335,
      "station": 7336,
      "Ġunable": 7337,
      "Ġsmooth": 7338,
      "ened": 7339,
      "ĠDiv": 7340,
      "ĠReco": 7341,
      "Ġintellect": 7342,
      "Ġsem": 7343,
      "Ġdefine": 7344,
      "ĠPhili": 7345,
      "Ġcustomers": 7346,
      "hyth": 7347,
      "Ġtransportation": 7348,
      "ĠSer": 7349,
      "making": 7350,
      "loy": 7351,
      "plete": 7352,
      "Ġdecade": 7353,
      "ĠUnder": 7354,
      "Ġfourt": 7355,
      "Ġoutd": 7356,
      "Ġpercentage": 7357,
      "Ġsocie": 7358,
      "tton": 7359,
      "ander": 7360,
      "gaz": 7361,
      "uter": 7362,
      "Ġopened": 7363,
      "Ġunless": 7364,
      "Ġzone": 7365,
      "Ġsprea": 7366,
      "Ġmuseum": 7367,
      "sens": 7368,
      "Ġcloser": 7369,
      "ĠDen": 7370,
      "Ġovers": 7371,
      "Ġinsulin": 7372,
      "ĠClin": 7373,
      "Ġwel": 7374,
      "atom": 7375,
      "Ġdedicated": 7376,
      "ĠVal": 7377,
      "Ġsuit": 7378,
      "Ġconstruct": 7379,
      "Ġnet": 7380,
      "Ġorgans": 7381,
      "Ġreliable": 7382,
      "My": 7383,
      "Ġpretty": 7384,
      "antum": 7385,
      "Ġremot": 7386,
      "IL": 7387,
      "Ġyounger": 7388,
      "Ġroles": 7389,
      "Ġremote": 7390,
      "Let": 7391,
      "Ã³": 7392,
      "Ġdiagnosed": 7393,
      "ĠGlobal": 7394,
      "tinal": 7395,
      "ires": 7396,
      "Ġmice": 7397,
      "fashion": 7398,
      "Ġborder": 7399,
      "archa": 7400,
      "ĠExpe": 7401,
      "Ġexcess": 7402,
      "Ġkidney": 7403,
      "df": 7404,
      "Ġultra": 7405,
      "ĠPM": 7406,
      "Le": 7407,
      "Ġcrow": 7408,
      "dible": 7409,
      "ĠGood": 7410,
      "ĠHisto": 7411,
      "Ġends": 7412,
      "bell": 7413,
      "weight": 7414,
      "Ġdelivery": 7415,
      "Ġreplaced": 7416,
      "Ġtheme": 7417,
      "Ġreduces": 7418,
      "Ġpipe": 7419,
      "spread": 7420,
      "Ġnos": 7421,
      "cript": 7422,
      "Ġfunctional": 7423,
      "01": 7424,
      "ĠThos": 7425,
      "plate": 7426,
      "Ġcats": 7427,
      "uen": 7428,
      "ube": 7429,
      "Ġlabel": 7430,
      "Ġsettings": 7431,
      "llel": 7432,
      "ssment": 7433,
      "Ġstroke": 7434,
      "ĠOnly": 7435,
      "acco": 7436,
      "ĠSum": 7437,
      "Ġrandom": 7438,
      "Ġbom": 7439,
      "Ġcategories": 7440,
      "ĠThose": 7441,
      "Ġperi": 7442,
      "thlet": 7443,
      "ĠCanadian": 7444,
      "See": 7445,
      "Ġacknow": 7446,
      "Ha": 7447,
      "Ġneck": 7448,
      "Ġrelation": 7449,
      "diversity": 7450,
      "nable": 7451,
      "gineers": 7452,
      "sited": 7453,
      "cademy": 7454,
      "inh": 7455,
      "bridge": 7456,
      "sisted": 7457,
      "Ġauthorities": 7458,
      "Ġlimits": 7459,
      "ĠSma": 7460,
      "Ġplen": 7461,
      "san": 7462,
      "UN": 7463,
      "Read": 7464,
      "Ġvirtual": 7465,
      "vascular": 7466,
      "Ġvocabulary": 7467,
      "lous": 7468,
      "chen": 7469,
      "ml": 7470,
      "Ġlegs": 7471,
      "member": 7472,
      "Sh": 7473,
      "Ġapprov": 7474,
      "Ġinstruments": 7475,
      "athlet": 7476,
      "chia": 7477,
      "Ġattached": 7478,
      "Ġapprove": 7479,
      "Ġnucle": 7480,
      "Ġdemonstrated": 7481,
      "arise": 7482,
      "lpha": 7483,
      "ĠSurv": 7484,
      "Ġobservations": 7485,
      "torm": 7486,
      "BS": 7487,
      "Ġsmoke": 7488,
      "cash": 7489,
      "Ġlaun": 7490,
      "Ġfewer": 7491,
      "DP": 7492,
      "Ġcapture": 7493,
      "ĠAge": 7494,
      "Ġfrequent": 7495,
      "Ġly": 7496,
      "Ġdent": 7497,
      "ĠUp": 7498,
      "lights": 7499,
      "Ġarise": 7500,
      "Ġcovers": 7501,
      "Ġ1980": 7502,
      "Ġsecre": 7503,
      "Ġmm": 7504,
      "Ġmechanical": 7505,
      "ĠNative": 7506,
      "ĠParis": 7507,
      "Ġgod": 7508,
      "ong": 7509,
      "ĠEli": 7510,
      "ĠEarly": 7511,
      "ĠOffice": 7512,
      "ships": 7513,
      "IG": 7514,
      "fift": 7515,
      "Ġdistur": 7516,
      "Ġcrime": 7517,
      "Ġpic": 7518,
      "tail": 7519,
      "Your": 7520,
      "ĠVer": 7521,
      "tences": 7522,
      "Ġmoisture": 7523,
      "Ġcrysta": 7524,
      "ntences": 7525,
      "nam": 7526,
      "nic": 7527,
      "rbi": 7528,
      "Ġsuccee": 7529,
      "Ġguarant": 7530,
      "Ġsurprise": 7531,
      "Ġagencies": 7532,
      "cyt": 7533,
      "pher": 7534,
      "zzl": 7535,
      "head": 7536,
      "Ġequivalent": 7537,
      "ĠSouthern": 7538,
      "Ġtube": 7539,
      "Ġlung": 7540,
      "Ġbrief": 7541,
      "Ġtrials": 7542,
      "Ġquali": 7543,
      "ane": 7544,
      "Ġcart": 7545,
      "Ġchic": 7546,
      "ĠSwe": 7547,
      "truction": 7548,
      "aving": 7549,
      "wine": 7550,
      "post": 7551,
      "Ġresulte": 7552,
      "Ġdownload": 7553,
      "Ġresulted": 7554,
      "Ġhorizon": 7555,
      "Ġterritory": 7556,
      "Ġmur": 7557,
      "how": 7558,
      "Ġdetection": 7559,
      "ĠItaly": 7560,
      "CD": 7561,
      "Ġfailed": 7562,
      "ĠHall": 7563,
      "ideos": 7564,
      "ĠOx": 7565,
      "Ġ1999": 7566,
      "Ġshapes": 7567,
      "Ġrespectively": 7568,
      "Ġoutbrea": 7569,
      "ĠNorthern": 7570,
      "Ġinstrument": 7571,
      "Gene": 7572,
      "tamins": 7573,
      "ĠConstitution": 7574,
      "Ġcatch": 7575,
      "Ġexists": 7576,
      "Ġkilo": 7577,
      "uel": 7578,
      "ĠSciences": 7579,
      "ĠInv": 7580,
      "Ġarcha": 7581,
      "Ġ36": 7582,
      "Ġtheories": 7583,
      "rrange": 7584,
      "Ġcontribut": 7585,
      "rna": 7586,
      "Ġspiritual": 7587,
      "ginal": 7588,
      "Ġeastern": 7589,
      "Ġgap": 7590,
      "pump": 7591,
      "Ġsupplies": 7592,
      "ĠDic": 7593,
      "Ġah": 7594,
      "Ġresolution": 7595,
      "Ġnecessarily": 7596,
      "uting": 7597,
      "Ġathlet": 7598,
      "ĠSpain": 7599,
      "Ġconver": 7600,
      "Ġsurfaces": 7601,
      "unction": 7602,
      "emes": 7603,
      "ju": 7604,
      "Ġcompetition": 7605,
      "Ġtroops": 7606,
      "nds": 7607,
      "ĠClimate": 7608,
      "Ġcards": 7609,
      "Ġdivision": 7610,
      "servin": 7611,
      "Ġdesire": 7612,
      "serving": 7613,
      "Ġnose": 7614,
      "ishment": 7615,
      "Ġinfluenced": 7616,
      "writers": 7617,
      "Ġhus": 7618,
      "ĠDir": 7619,
      "Ġaccuracy": 7620,
      "neu": 7621,
      "Ġatom": 7622,
      "Ġtrained": 7623,
      "Ġthesis": 7624,
      "Ġentry": 7625,
      "ĠAgric": 7626,
      "Ġexpansion": 7627,
      "ĠReport": 7628,
      "Ġsections": 7629,
      "Ġlies": 7630,
      "ĠMen": 7631,
      "Ġfighting": 7632,
      "Ġconfi": 7633,
      "Ġdoor": 7634,
      "ĠChe": 7635,
      "Ġaccessible": 7636,
      "Ġnerv": 7637,
      "Ġspaces": 7638,
      "Ġgenerations": 7639,
      "ported": 7640,
      "Ġtic": 7641,
      "ĠIreland": 7642,
      "Ro": 7643,
      "rah": 7644,
      "ĠOcean": 7645,
      "minent": 7646,
      "zh": 7647,
      "Ġ1970": 7648,
      "Ġcharacterized": 7649,
      "lina": 7650,
      "Ġblocks": 7651,
      "Ġassociation": 7652,
      "iological": 7653,
      "Ġrising": 7654,
      "Ġnewspa": 7655,
      "yl": 7656,
      "tteries": 7657,
      "Ġpowers": 7658,
      "ĠEssay": 7659,
      "ĠPost": 7660,
      "ĠStat": 7661,
      "ĠPha": 7662,
      "arrange": 7663,
      "Ġful": 7664,
      "Ġpainting": 7665,
      "Ġstrin": 7666,
      "Ġmeters": 7667,
      "Ġturns": 7668,
      "Ġsme": 7669,
      "Ġpolitics": 7670,
      "42": 7671,
      "Ġunus": 7672,
      "Ġdepend": 7673,
      "ĠMad": 7674,
      "Ġnervous": 7675,
      "ĠVict": 7676,
      "Ġmaps": 7677,
      "ĠBus": 7678,
      "ĠRel": 7679,
      "butions": 7680,
      "ĠKeep": 7681,
      "cesse": 7682,
      "%)": 7683,
      "ĠThan": 7684,
      "Ġdestroyed": 7685,
      "Ġcamera": 7686,
      "ĠYear": 7687,
      "Ġtexts": 7688,
      "Ġaccept": 7689,
      "minin": 7690,
      "Ġexcee": 7691,
      "storm": 7692,
      "Ġmeasurements": 7693,
      "such": 7694,
      "Ġwillin": 7695,
      "Ġwilling": 7696,
      "nue": 7697,
      "Ġsens": 7698,
      "nior": 7699,
      "Ġserver": 7700,
      "rosion": 7701,
      "Ġcomposed": 7702,
      "gins": 7703,
      "Ġfocuses": 7704,
      "Ġcopper": 7705,
      "Ġsong": 7706,
      "gths": 7707,
      "nsider": 7708,
      "Ġstanding": 7709,
      "zzle": 7710,
      "Ġpump": 7711,
      "aims": 7712,
      "Ġinvolving": 7713,
      "Lo": 7714,
      "born": 7715,
      "grants": 7716,
      "Ġdaughter": 7717,
      "Ġthousand": 7718,
      "Ġcite": 7719,
      "plas": 7720,
      "Ġpreventing": 7721,
      "87": 7722,
      "ĠWild": 7723,
      "Ġswim": 7724,
      "Ġoperate": 7725,
      "Ġmeal": 7726,
      "pray": 7727,
      "Ġobserve": 7728,
      "Ġrocks": 7729,
      "Ġarrange": 7730,
      "First": 7731,
      "Ã¶": 7732,
      "Ġrenewable": 7733,
      "brush": 7734,
      "Ġmanip": 7735,
      "tas": 7736,
      "iac": 7737,
      "Ġaims": 7738,
      "entions": 7739,
      "Ġguidance": 7740,
      "Ġplayers": 7741,
      "Ġcontained": 7742,
      "tarian": 7743,
      "preme": 7744,
      "Ġharvest": 7745,
      "Ġhighlight": 7746,
      "ĠPres": 7747,
      "urage": 7748,
      "Ġthorough": 7749,
      "ĠJer": 7750,
      "ĠMoreover": 7751,
      "Ġlaunch": 7752,
      "alpha": 7753,
      "Ġindee": 7754,
      "Ġmatch": 7755,
      "keting": 7756,
      "Ġindeed": 7757,
      "Ġhousing": 7758,
      "Ġ75": 7759,
      "Ġtank": 7760,
      "Ġhole": 7761,
      "Ġfounded": 7762,
      "Ġwww": 7763,
      "Ġrivers": 7764,
      "Ġemployment": 7765,
      "Ġchlo": 7766,
      "Ġadequate": 7767,
      "ĠNatural": 7768,
      "certain": 7769,
      "ichael": 7770,
      "stract": 7771,
      "ffe": 7772,
      "Ġpreparation": 7773,
      "ib": 7774,
      "Ġphenome": 7775,
      "ĠYet": 7776,
      "Ġahead": 7777,
      "%.": 7778,
      "Ġintes": 7779,
      "Ġinsurance": 7780,
      "fts": 7781,
      "Ġpleas": 7782,
      "Ġfemales": 7783,
      "rrived": 7784,
      "Ġintegrated": 7785,
      "unted": 7786,
      "Ġdamaged": 7787,
      "American": 7788,
      "eties": 7789,
      "Ġmolecular": 7790,
      "ĠReview": 7791,
      "arrived": 7792,
      "Ġexamination": 7793,
      "Eve": 7794,
      "Ġexhibit": 7795,
      "wl": 7796,
      "ĠTake": 7797,
      "Ġdoubt": 7798,
      "Ġrice": 7799,
      "ĠSte": 7800,
      "Ġtre": 7801,
      "Ġongoing": 7802,
      "ĠEconomic": 7803,
      "Ġexcessive": 7804,
      "ĠCi": 7805,
      "Ġnurse": 7806,
      "ĠBraz": 7807,
      "ĠFederal": 7808,
      "ĠLearn": 7809,
      "Ġphysics": 7810,
      "rain": 7811,
      "tational": 7812,
      "Ġemployed": 7813,
      "96": 7814,
      "Ġpair": 7815,
      "Ġwidespread": 7816,
      "ĠAni": 7817,
      "43": 7818,
      "aste": 7819,
      "ĠThrough": 7820,
      "Ġbutter": 7821,
      "ĠLong": 7822,
      "Ġang": 7823,
      "olden": 7824,
      "ĠCancer": 7825,
      "asters": 7826,
      "phys": 7827,
      "Ġindicat": 7828,
      "ĠFurthermore": 7829,
      "Ġfashion": 7830,
      "shed": 7831,
      "tably": 7832,
      "Ġacute": 7833,
      "Ġvote": 7834,
      "Ġarrived": 7835,
      "icago": 7836,
      "ĠPara": 7837,
      "dth": 7838,
      "entences": 7839,
      "cel": 7840,
      "Ġcategory": 7841,
      "Ġ1998": 7842,
      "Ġgut": 7843,
      "ĠJack": 7844,
      "Ġdiss": 7845,
      "Pl": 7846,
      "Ġreverse": 7847,
      "Ġlibe": 7848,
      "cure": 7849,
      "ĠPeter": 7850,
      "Ġree": 7851,
      "Ġphosp": 7852,
      "health": 7853,
      "mons": 7854,
      "tched": 7855,
      "Even": 7856,
      "idents": 7857,
      "everal": 7858,
      "imal": 7859,
      "mining": 7860,
      "ĠBel": 7861,
      "Ġmild": 7862,
      "ione": 7863,
      "Ġjudge": 7864,
      "Ġcontract": 7865,
      "olesce": 7866,
      "Ġindicated": 7867,
      "Ġmathematics": 7868,
      "Dr": 7869,
      "Ġartis": 7870,
      "Ġcash": 7871,
      "Ġmales": 7872,
      "Ġcoordina": 7873,
      "Ġships": 7874,
      "ĠAP": 7875,
      "rational": 7876,
      "SS": 7877,
      "ĠRichard": 7878,
      "Ġtransac": 7879,
      "ĠMark": 7880,
      "sentences": 7881,
      "fea": 7882,
      "tee": 7883,
      "Ġourselves": 7884,
      "Ġfavorite": 7885,
      "Ġestimates": 7886,
      "thon": 7887,
      "umps": 7888,
      "ĠKingdom": 7889,
      "Ġoutcome": 7890,
      "rray": 7891,
      "Ġcriteria": 7892,
      "Ġdating": 7893,
      "Ġgone": 7894,
      "Ġburning": 7895,
      "Ġinsect": 7896,
      "mative": 7897,
      "Ġparticipation": 7898,
      "iewed": 7899,
      "ĠTable": 7900,
      "ĠSet": 7901,
      "Ġ1960": 7902,
      "ĠList": 7903,
      "IR": 7904,
      "Ġholds": 7905,
      "Ġneighbor": 7906,
      "Ġcontrols": 7907,
      "Ġwait": 7908,
      "ĠTen": 7909,
      "Ġcorona": 7910,
      "ĠWho": 7911,
      "Ġstorm": 7912,
      "Ġnearby": 7913,
      "Ġextin": 7914,
      "Ġoccu": 7915,
      "Ġconstantly": 7916,
      "trans": 7917,
      "ulti": 7918,
      "ĠTro": 7919,
      "Ġsentences": 7920,
      "Ġcircle": 7921,
      "41": 7922,
      "Ġgraduat": 7923,
      "Ġsurve": 7924,
      "Ġconsumer": 7925,
      "Ġgraduate": 7926,
      "ectors": 7927,
      "ace": 7928,
      "Ġcapita": 7929,
      "Ġshel": 7930,
      "live": 7931,
      "Ġresto": 7932,
      "Ġliteracy": 7933,
      "lles": 7934,
      "ĠDoe": 7935,
      "yer": 7936,
      "Ġslavery": 7937,
      "Ġfarming": 7938,
      "arts": 7939,
      "ivi": 7940,
      "Ġbiology": 7941,
      "Ġbrings": 7942,
      "Ġgrew": 7943,
      "tech": 7944,
      "Ġmortality": 7945,
      "Ġpray": 7946,
      "Ġdependent": 7947,
      "Ġbridge": 7948,
      "Ġoffering": 7949,
      "pons": 7950,
      "Ġwriters": 7951,
      "Ġscore": 7952,
      "Ġrely": 7953,
      "nish": 7954,
      "Ġlect": 7955,
      "Ġimplement": 7956,
      "Ġinh": 7957,
      "ĠNetwork": 7958,
      "Ġattend": 7959,
      "OL": 7960,
      "Ġhur": 7961,
      "Ġlands": 7962,
      "ĠMill": 7963,
      "Ġcentre": 7964,
      "Ġpool": 7965,
      "Ġoccasion": 7966,
      "Ġ32": 7967,
      "Ġouter": 7968,
      "Ġpositions": 7969,
      "Ġexplanation": 7970,
      "Ġsecret": 7971,
      "idal": 7972,
      "ĠAma": 7973,
      "ĠFrank": 7974,
      "ĠJoseph": 7975,
      "Ġgala": 7976,
      "Ġbabies": 7977,
      "Ġye": 7978,
      "Ġdesigns": 7979,
      "vour": 7980,
      "Ġrin": 7981,
      "Ġdistributed": 7982,
      "hibition": 7983,
      "Ġdesired": 7984,
      "Ġdiscrimination": 7985,
      "ove": 7986,
      "Ġoptimi": 7987,
      "phic": 7988,
      "found": 7989,
      "print": 7990,
      "Ġeffectiveness": 7991,
      "Ġmoderate": 7992,
      "Im": 7993,
      "Ġconsiderin": 7994,
      "ĠCra": 7995,
      "presen": 7996,
      "Ġconsidering": 7997,
      "Ġheating": 7998,
      "66": 7999,
      "inch": 8000,
      "ĠAdministra": 8001,
      "sei": 8002,
      "nsors": 8003,
      "Ġensuring": 8004,
      "Ġdanger": 8005,
      "dua": 8006,
      "terior": 8007,
      "Ġworry": 8008,
      "pdf": 8009,
      "logue": 8010,
      "Ġpresents": 8011,
      "Ġpassage": 8012,
      "Ġpharma": 8013,
      "Ġcomprise": 8014,
      "Ġcolleagues": 8015,
      "troduction": 8016,
      "ĠPsycho": 8017,
      "Ġcollaboration": 8018,
      "OC": 8019,
      "79": 8020,
      "utch": 8021,
      "Ġsummary": 8022,
      "Ġchief": 8023,
      "Ġtight": 8024,
      "Ġmood": 8025,
      "note": 8026,
      "Ġchar": 8027,
      "ada": 8028,
      "Ġminds": 8029,
      "Ġmarkets": 8030,
      "ervation": 8031,
      "Ġwors": 8032,
      "eration": 8033,
      "ĠBank": 8034,
      "HD": 8035,
      "Ġconsume": 8036,
      "IM": 8037,
      "Ġintense": 8038,
      "Ġcour": 8039,
      "Ġphenomenon": 8040,
      "lite": 8041,
      "llyin": 8042,
      "Ġcoordinat": 8043,
      "Ġlaunched": 8044,
      "Ġcleaning": 8045,
      "Ġrecommendations": 8046,
      "Ġfalse": 8047,
      "llying": 8048,
      "Ġputting": 8049,
      "Ġwash": 8050,
      "Ã¢": 8051,
      "rism": 8052,
      "abilities": 8053,
      "uous": 8054,
      "Ġmanife": 8055,
      "Ġfift": 8056,
      "vated": 8057,
      "gment": 8058,
      "Ġemphasis": 8059,
      "Ġpartner": 8060,
      "Ġprocee": 8061,
      "ĠValley": 8062,
      "gated": 8063,
      "Ġcoastal": 8064,
      "cyclo": 8065,
      "Ġburn": 8066,
      "wal": 8067,
      "ĠAcademy": 8068,
      "Ġmino": 8069,
      "Ġfunds": 8070,
      "igation": 8071,
      "Ġcook": 8072,
      "IA": 8073,
      "Ġunt": 8074,
      "Ġpaint": 8075,
      "ĠFer": 8076,
      "ĠFac": 8077,
      "rted": 8078,
      "Ġvert": 8079,
      "ĠVo": 8080,
      "Ġabilities": 8081,
      "ĠRoyal": 8082,
      "UT": 8083,
      "Ġcomments": 8084,
      "Ġplus": 8085,
      "Ġcomplicated": 8086,
      "ulates": 8087,
      "Ġbacterial": 8088,
      "spher": 8089,
      "Ġeducate": 8090,
      "Ġ150": 8091,
      "Ġtwenty": 8092,
      "Ġdomain": 8093,
      "aero": 8094,
      "Ġartists": 8095,
      "Ġknows": 8096,
      "Ġspirit": 8097,
      "ĠBefore": 8098,
      "Ġjoined": 8099,
      "ML": 8100,
      "gov": 8101,
      "ĠKi": 8102,
      "Ġremark": 8103,
      "Ġnitrogen": 8104,
      "ĠStreet": 8105,
      "uss": 8106,
      "ĠEU": 8107,
      "Ġmissing": 8108,
      "Ġbreeding": 8109,
      "while": 8110,
      "lav": 8111,
      "Ġstructural": 8112,
      "Ġroute": 8113,
      "Ġforget": 8114,
      "Ġnano": 8115,
      "ĠAND": 8116,
      "Once": 8117,
      "Ġended": 8118,
      "ups": 8119,
      "leep": 8120,
      "Ġagency": 8121,
      "Ġimplemented": 8122,
      "dation": 8123,
      "Ġarts": 8124,
      "Ġliterary": 8125,
      "eek": 8126,
      "Ġpounds": 8127,
      "Ġvideos": 8128,
      "Ġseeking": 8129,
      "Ġsweet": 8130,
      "Ġanalyze": 8131,
      "Ġcomplications": 8132,
      "Ġloved": 8133,
      "Ġdrawn": 8134,
      "ĠWriting": 8135,
      "Ġremoval": 8136,
      "ĠMu": 8137,
      "htt": 8138,
      "bean": 8139,
      "Ġhistori": 8140,
      "Ġfacilitate": 8141,
      "Ġflag": 8142,
      "gies": 8143,
      "array": 8144,
      "ĠEastern": 8145,
      "Ġvalv": 8146,
      "ĠWorksh": 8147,
      "Ġpregnant": 8148,
      "Ġboost": 8149,
      "Ġparallel": 8150,
      "worth": 8151,
      "Vi": 8152,
      "Ġconstructed": 8153,
      "Ġfix": 8154,
      "Ġturning": 8155,
      "Ġflower": 8156,
      "Ġplenty": 8157,
      "Ġdepartment": 8158,
      "intra": 8159,
      "aqua": 8160,
      "stical": 8161,
      "Fin": 8162,
      "Ġpersist": 8163,
      "ĠScott": 8164,
      "kistan": 8165,
      "ĠMoun": 8166,
      "Ġreceiving": 8167,
      "Al": 8168,
      "ĠDemoc": 8169,
      "itle": 8170,
      "ĠReading": 8171,
      "Ġminor": 8172,
      "Ġinstalled": 8173,
      "Ġrefuge": 8174,
      "ĠCri": 8175,
      "Ġmatters": 8176,
      "Ġgradually": 8177,
      "ĠTimes": 8178,
      "Ġinformed": 8179,
      "eeding": 8180,
      "ttes": 8181,
      "Ġingredients": 8182,
      "ĠChange": 8183,
      "ĠSal": 8184,
      "Ġyield": 8185,
      "Ġbeauty": 8186,
      "Ġsunlight": 8187,
      "ĠFigure": 8188,
      "Ġmarried": 8189,
      "Ġclothing": 8190,
      "Ġdeeper": 8191,
      "nsor": 8192,
      "ĠWord": 8193,
      "Ġcalories": 8194,
      "56": 8195,
      "Ġobjectives": 8196,
      "Ġepide": 8197,
      "erent": 8198,
      "Ġasthma": 8199,
      "Ġhormone": 8200,
      "ulf": 8201,
      "Ġwhatever": 8202,
      "Ġcenters": 8203,
      "Ġfacin": 8204,
      "ivo": 8205,
      "Ġfacing": 8206,
      "Ġstrongly": 8207,
      "Ġnarrow": 8208,
      "Ġbranches": 8209,
      "ĠMetho": 8210,
      "Ġbanks": 8211,
      "Ġspending": 8212,
      "ĠMoon": 8213,
      "Ġadverti": 8214,
      "ĠBill": 8215,
      "Ġinteract": 8216,
      "Ġprinting": 8217,
      "solv": 8218,
      "Ġimplications": 8219,
      "mag": 8220,
      "onal": 8221,
      "Ġfea": 8222,
      "Ġvalve": 8223,
      "obacco": 8224,
      "Ġstatistics": 8225,
      "Ġshut": 8226,
      "Ġalpha": 8227,
      "ĠCommittee": 8228,
      "Ġswitch": 8229,
      "Ġdifficulties": 8230,
      "Ġequation": 8231,
      "Ġconversation": 8232,
      "Ġdecreased": 8233,
      "Ġissued": 8234,
      "ptive": 8235,
      "Ġshot": 8236,
      "Ġstatements": 8237,
      "Ġbrother": 8238,
      "organi": 8239,
      "tches": 8240,
      "ĠNut": 8241,
      "Ġvariation": 8242,
      "Ġthermal": 8243,
      "Ġlegislation": 8244,
      "CA": 8245,
      "Ġcollective": 8246,
      "ĠIndust": 8247,
      "Ġboys": 8248,
      "ĠBoard": 8249,
      "vations": 8250,
      "ĠOrganization": 8251,
      "Ġcompete": 8252,
      "sedi": 8253,
      "ĠISBN": 8254,
      "Ġproven": 8255,
      "Ġmoves": 8256,
      "kipedia": 8257,
      "iners": 8258,
      "cracy": 8259,
      "solve": 8260,
      "ĠLes": 8261,
      "ĠIII": 8262,
      "Ġmul": 8263,
      "liest": 8264,
      "spheric": 8265,
      "Ġvan": 8266,
      "Ġcontemporary": 8267,
      "Ġvarieties": 8268,
      "school": 8269,
      "ĠYe": 8270,
      "Ġsupposed": 8271,
      "Ġstability": 8272,
      "Ġarchaeo": 8273,
      "Ġinterpret": 8274,
      "ĠResources": 8275,
      "ĠAtlantic": 8276,
      "ĠCheck": 8277,
      "night": 8278,
      "zhe": 8279,
      "Not": 8280,
      "Ġcolumn": 8281,
      "Ġspectrum": 8282,
      "ĠSk": 8283,
      "ĠTop": 8284,
      "prove": 8285,
      "Ġruns": 8286,
      "Ġaero": 8287,
      "Ġserves": 8288,
      "ĠGua": 8289,
      "Ġagents": 8290,
      "Ġerrors": 8291,
      "ional": 8292,
      "Ġexperimental": 8293,
      "Ġstronger": 8294,
      "ĠAsian": 8295,
      "Ġedition": 8296,
      "Ġgam": 8297,
      "Ġtrends": 8298,
      "Ġfilter": 8299,
      "Ġdrain": 8300,
      "mony": 8301,
      "Ġdiameter": 8302,
      "sport": 8303,
      "Ġdeplo": 8304,
      "Ġassa": 8305,
      "Ġcommitted": 8306,
      "Ġdegra": 8307,
      "Ġkg": 8308,
      "Ġdebt": 8309,
      "Ġgue": 8310,
      "Ġdestruction": 8311,
      "cate": 8312,
      "Ġbudget": 8313,
      "Ġcorrectly": 8314,
      "Ġinnovation": 8315,
      "Ġearthqua": 8316,
      "Ġchart": 8317,
      "Ġexploi": 8318,
      "Ġabsence": 8319,
      "Ġ65": 8320,
      "Ġaqua": 8321,
      "Ġapproved": 8322,
      "ĠItalian": 8323,
      "Ġsubsequent": 8324,
      "syste": 8325,
      "igue": 8326,
      "Ġholding": 8327,
      "Ġmarks": 8328,
      "Ġvitamins": 8329,
      "Ġpublication": 8330,
      "Ġlistening": 8331,
      "ĠType": 8332,
      "hone": 8333,
      "ĠChapter": 8334,
      "ĠBig": 8335,
      "Ġknowin": 8336,
      "Ġasking": 8337,
      "Ġknowing": 8338,
      "Ġ;": 8339,
      "Ġimagin": 8340,
      "ending": 8341,
      "ĠProv": 8342,
      "dish": 8343,
      "dina": 8344,
      "types": 8345,
      "vings": 8346,
      "ĠSometimes": 8347,
      "Ġproo": 8348,
      "ĠCell": 8349,
      "Ġtreating": 8350,
      "ĠFamily": 8351,
      "Ġtropical": 8352,
      "Ġvaccines": 8353,
      "mel": 8354,
      "pH": 8355,
      "kespea": 8356,
      "Ġcomfortable": 8357,
      "Ġworksheet": 8358,
      "Ġquantity": 8359,
      "apt": 8360,
      "ĠCarolina": 8361,
      "Ġsoul": 8362,
      "CE": 8363,
      "Ġpow": 8364,
      "Ġsei": 8365,
      "ssen": 8366,
      "Ġrelief": 8367,
      "ĠDoes": 8368,
      "Ġsedi": 8369,
      "Ġmeasuring": 8370,
      "Ġpeak": 8371,
      "ĠDesign": 8372,
      "ĠPhot": 8373,
      "Ġthreats": 8374,
      "El": 8375,
      "Ġthanks": 8376,
      "Ġorgan": 8377,
      "row": 8378,
      "Ġmessages": 8379,
      "cation": 8380,
      "inva": 8381,
      "Ġidentifying": 8382,
      "71": 8383,
      "Ġimpe": 8384,
      "Ġros": 8385,
      "Ġteams": 8386,
      "rink": 8387,
      "98": 8388,
      "Ġweigh": 8389,
      "Ġkee": 8390,
      "ĠGeorg": 8391,
      "trating": 8392,
      "ool": 8393,
      "Ġdeclared": 8394,
      "Ġches": 8395,
      "Ġdetected": 8396,
      "Ġsubst": 8397,
      "ĠScho": 8398,
      "Ġrepair": 8399,
      "mentally": 8400,
      "Ġboy": 8401,
      "Ġwasn": 8402,
      "Ġmyt": 8403,
      "rsh": 8404,
      "stantial": 8405,
      "Ġcontrovers": 8406,
      "ulatory": 8407,
      "Ġcontine": 8408,
      "Ġ1997": 8409,
      "ioxid": 8410,
      "ensors": 8411,
      "Ġinteractive": 8412,
      "iven": 8413,
      "idation": 8414,
      "Ġchest": 8415,
      "Ġbranch": 8416,
      "Ġsilver": 8417,
      "strict": 8418,
      "ĠRevolution": 8419,
      "Ġconfirmed": 8420,
      "Ġdealin": 8421,
      "Ġdealing": 8422,
      "ĠCompa": 8423,
      "zers": 8424,
      "ĠServices": 8425,
      "Ġintensity": 8426,
      "nsus": 8427,
      "ĠDespite": 8428,
      "rdi": 8429,
      "dvan": 8430,
      "words": 8431,
      "quiring": 8432,
      "Ġengaged": 8433,
      "cher": 8434,
      "Ġmembrane": 8435,
      "Ġparameters": 8436,
      "ĠCount": 8437,
      "rliament": 8438,
      "Every": 8439,
      "Ġseconds": 8440,
      "CH": 8441,
      "ĠEngineering": 8442,
      "rel": 8443,
      "Ġenables": 8444,
      "Ġidentification": 8445,
      "Fa": 8446,
      "Ġracial": 8447,
      "ĠOpen": 8448,
      "RA": 8449,
      "Ġsport": 8450,
      "icide": 8451,
      "Ġintra": 8452,
      "nn": 8453,
      "iot": 8454,
      "ellin": 8455,
      "Ġdescen": 8456,
      "ĠPlease": 8457,
      "Ġcooking": 8458,
      "Ġsight": 8459,
      "Ġfunctionin": 8460,
      "fol": 8461,
      "Ġfunctioning": 8462,
      "Use": 8463,
      "Ġvictims": 8464,
      "Ġescape": 8465,
      "Ġsyste": 8466,
      "Ġexperiencing": 8467,
      "ĠZea": 8468,
      "uation": 8469,
      "ĠChristmas": 8470,
      "ĠViet": 8471,
      "Ġamazing": 8472,
      "Ġcareful": 8473,
      "Ġspin": 8474,
      "eon": 8475,
      "Because": 8476,
      "heren": 8477,
      "Ġdance": 8478,
      "Ġengaging": 8479,
      "olerance": 8480,
      "Ġinfect": 8481,
      "mps": 8482,
      "slands": 8483,
      "idden": 8484,
      "Ġattribute": 8485,
      "Ġaudio": 8486,
      "islands": 8487,
      "Ġdepart": 8488,
      "ĠPet": 8489,
      "Ġrob": 8490,
      "Ġmg": 8491,
      "Ġder": 8492,
      "Ġhazard": 8493,
      "Ġfourth": 8494,
      "igns": 8495,
      "Ġtumo": 8496,
      "Ġnone": 8497,
      "Ġresolve": 8498,
      "ĠIrish": 8499,
      "Ġgained": 8500,
      "iche": 8501,
      "Ġrealize": 8502,
      "Ġhoney": 8503,
      "Ġrose": 8504,
      "xi": 8505,
      "books": 8506,
      "lea": 8507,
      "ENT": 8508,
      "ĠAsse": 8509,
      "ĠInve": 8510,
      "sensors": 8511,
      "icing": 8512,
      "Ġrepl": 8513,
      "ichi": 8514,
      "Ġbite": 8515,
      "MP": 8516,
      "Ġexamined": 8517,
      "mont": 8518,
      "bry": 8519,
      "Ġhistoric": 8520,
      "Ty": 8521,
      "asi": 8522,
      "Ġinva": 8523,
      "ĠStra": 8524,
      "ony": 8525,
      "Ġtargets": 8526,
      "gran": 8527,
      "ĠChicago": 8528,
      "Ġcarryin": 8529,
      "Ġsala": 8530,
      "Ġcarrying": 8531,
      "ifts": 8532,
      "Ġje": 8533,
      "Ġscreening": 8534,
      "Ġbeings": 8535,
      "lace": 8536,
      "Ġconsideration": 8537,
      "Ġregulation": 8538,
      "Ġfascin": 8539,
      "ĠFace": 8540,
      "ĠParty": 8541,
      "Ġfaced": 8542,
      "Ġaffectin": 8543,
      "Ġcort": 8544,
      "Ġaffecting": 8545,
      "Ġfalls": 8546,
      "Ġlungs": 8547,
      "Ġmineral": 8548,
      "Ġencouraged": 8549,
      "announced": 8550,
      "Ġeme": 8551,
      "Ġfell": 8552,
      "igital": 8553,
      "Ġgrid": 8554,
      "Ġsuscept": 8555,
      "ĠThough": 8556,
      "Ġislands": 8557,
      "gling": 8558,
      "Ġholes": 8559,
      "ĠFinally": 8560,
      "rays": 8561,
      "Ġhealing": 8562,
      "Ġdietary": 8563,
      "Ġcaptured": 8564,
      "orse": 8565,
      "Ġlake": 8566,
      "Ġinvent": 8567,
      "Ġgases": 8568,
      "Ġinvestigation": 8569,
      "apse": 8570,
      "Ġheads": 8571,
      "Ġowner": 8572,
      "Ġampl": 8573,
      "Ġlights": 8574,
      "Publ": 8575,
      "nsory": 8576,
      "Ġrarely": 8577,
      "Ġmodified": 8578,
      "Ġmaintained": 8579,
      "Ġantic": 8580,
      "ĠMichael": 8581,
      "lato": 8582,
      "fract": 8583,
      "Ġtrend": 8584,
      "ĠHan": 8585,
      "Ġentered": 8586,
      "Ġpsychology": 8587,
      "Ġarray": 8588,
      "Ġverif": 8589,
      "ĠAnalysis": 8590,
      "ephan": 8591,
      "Ġnutrient": 8592,
      "Ġrelax": 8593,
      "ument": 8594,
      "chain": 8595,
      "Ġmetals": 8596,
      "Ġfacility": 8597,
      "Ġinterpretation": 8598,
      "Ġelection": 8599,
      "bama": 8600,
      "Ġspli": 8601,
      "Ġhence": 8602,
      "plain": 8603,
      "Ġrepresentation": 8604,
      "vy": 8605,
      "Ġrecording": 8606,
      "peror": 8607,
      "Ġgri": 8608,
      "uni": 8609,
      "Ġprocessed": 8610,
      "Ġprominent": 8611,
      "ĠCommunity": 8612,
      "Ġcustomer": 8613,
      "ln": 8614,
      "ĠBrown": 8615,
      "Ġlabe": 8616,
      "Ġtheore": 8617,
      "ĠFour": 8618,
      "ĠClo": 8619,
      "Ġevolved": 8620,
      "Ġnegot": 8621,
      "Ġpassing": 8622,
      "Ġquantum": 8623,
      "tland": 8624,
      "73": 8625,
      "Ġprinted": 8626,
      "Ġdates": 8627,
      "Ġadolesce": 8628,
      "Ġtraditions": 8629,
      "Ġagreed": 8630,
      "rdered": 8631,
      "ĠDown": 8632,
      "Ġinitially": 8633,
      "Ġprovider": 8634,
      "rry": 8635,
      "Ġlisten": 8636,
      "Ġdeficiency": 8637,
      "Ġminute": 8638,
      "Ġremin": 8639,
      "hand": 8640,
      "Ġattempts": 8641,
      "ĠTV": 8642,
      "ularity": 8643,
      "Ġsomewhat": 8644,
      "Ġannounced": 8645,
      "holders": 8646,
      "Ġheada": 8647,
      "Ð¸": 8648,
      "Ġproportion": 8649,
      "Ġperception": 8650,
      "Ġtrip": 8651,
      "Ġovercome": 8652,
      "tles": 8653,
      "Ġstreet": 8654,
      "igat": 8655,
      "tores": 8656,
      "ĠMS": 8657,
      "ĠWhere": 8658,
      "Ġimaging": 8659,
      "Ġoriginat": 8660,
      "elling": 8661,
      "Ġfatty": 8662,
      "Ġbigger": 8663,
      "Ġprotective": 8664,
      "Ġartist": 8665,
      "Ġfabric": 8666,
      "Ġchemistry": 8667,
      "toms": 8668,
      "Ġhono": 8669,
      "Ġobservation": 8670,
      "Ġdemands": 8671,
      "Ġantibiotics": 8672,
      "Ġren": 8673,
      "Ġforth": 8674,
      "berty": 8675,
      "Ġinnovative": 8676,
      "Ġisolated": 8677,
      "Ġpreserve": 8678,
      "ritional": 8679,
      "Ġindigenous": 8680,
      "Ġessentially": 8681,
      "made": 8682,
      "ulus": 8683,
      "sites": 8684,
      "lder": 8685,
      "Ġsought": 8686,
      "crus": 8687,
      "bial": 8688,
      "Ġpersonality": 8689,
      "ultaneous": 8690,
      "Ġadvocate": 8691,
      "Ġpanels": 8692,
      "ckl": 8693,
      "Ġstrain": 8694,
      "EE": 8695,
      "othera": 8696,
      "Ġtuto": 8697,
      "Today": 8698,
      "Ġmathematical": 8699,
      "Ġhappening": 8700,
      "never": 8701,
      "due": 8702,
      "mits": 8703,
      "Ġbringing": 8704,
      "Ġrestrict": 8705,
      "Ġproductivity": 8706,
      "ĠpH": 8707,
      "Ġaband": 8708,
      "pointed": 8709,
      "kespeare": 8710,
      "Ġethical": 8711,
      "Ġdelivered": 8712,
      "Per": 8713,
      "dow": 8714,
      "Ġconsul": 8715,
      "angered": 8716,
      "ae": 8717,
      "Ġpropa": 8718,
      "Ġslaves": 8719,
      "Ġassigned": 8720,
      "Ġmeals": 8721,
      "Ġlaser": 8722,
      "Ġsensors": 8723,
      "poli": 8724,
      "84": 8725,
      "59": 8726,
      "Ġfes": 8727,
      "Ġmixture": 8728,
      "fini": 8729,
      "piration": 8730,
      "83": 8731,
      "Ġcele": 8732,
      "ĠCont": 8733,
      "Ġchi": 8734,
      "Ġsensitivity": 8735,
      "pending": 8736,
      "Ġhusband": 8737,
      "Ġ1996": 8738,
      "Ġlicense": 8739,
      "kh": 8740,
      "Ġstring": 8741,
      "ĠIss": 8742,
      "Ġgrows": 8743,
      "Ġconcerning": 8744,
      "Ġoccurring": 8745,
      "Ġassets": 8746,
      "Ġservin": 8747,
      "iability": 8748,
      "Ġmanaging": 8749,
      "Ġserving": 8750,
      "Ġtun": 8751,
      "People": 8752,
      "rosis": 8753,
      "Ġopposed": 8754,
      "Ġ400": 8755,
      "Ġdisabilities": 8756,
      "Ġequally": 8757,
      "tats": 8758,
      "Ġuniversa": 8759,
      "ĠVen": 8760,
      "Ġabdo": 8761,
      "Ġsplit": 8762,
      "Ġsales": 8763,
      "Ġgat": 8764,
      "icts": 8765,
      "Ġconsiderable": 8766,
      "aded": 8767,
      "Ġcoolin": 8768,
      "Ġinters": 8769,
      "tha": 8770,
      "Ġcooling": 8771,
      "Get": 8772,
      "ckle": 8773,
      "Ġoptima": 8774,
      "ix": 8775,
      "Ġflood": 8776,
      "Ġassignment": 8777,
      "Ġcalculated": 8778,
      "ĠPlant": 8779,
      "ison": 8780,
      "Ġflows": 8781,
      "Ġpotat": 8782,
      "Ġintroduce": 8783,
      "ensor": 8784,
      "Ġfinished": 8785,
      "Ġbatteries": 8786,
      "ĠIdent": 8787,
      "Ġmosquit": 8788,
      "Ġsatisf": 8789,
      "Ġvertical": 8790,
      "ĠMartin": 8791,
      "pol": 8792,
      "Ġknee": 8793,
      "Ġexa": 8794,
      "ĠIndians": 8795,
      "Ġflash": 8796,
      "ĠSimilar": 8797,
      "Ġplanting": 8798,
      "Ġresem": 8799,
      "pm": 8800,
      "rbit": 8801,
      "asts": 8802,
      "Ġdisaster": 8803,
      "Ġavailability": 8804,
      "Ġstyles": 8805,
      "Ġexpan": 8806,
      "ĠPop": 8807,
      "example": 8808,
      "Ġbehavioral": 8809,
      "Ġinterventions": 8810,
      "Ġinfant": 8811,
      "Ġblind": 8812,
      "Ġtail": 8813,
      "ĠZealand": 8814,
      "Ġneither": 8815,
      "Ġcoordinate": 8816,
      "72": 8817,
      "Ġpanel": 8818,
      "ĠIo": 8819,
      "Ġsizes": 8820,
      "urer": 8821,
      "Ġautism": 8822,
      "Ġ?": 8823,
      "Ġdefense": 8824,
      "oa": 8825,
      "real": 8826,
      "Ġanywhere": 8827,
      "ieval": 8828,
      "Ġoriginate": 8829,
      "Ġexha": 8830,
      "Ġtrauma": 8831,
      "ĠTes": 8832,
      "03": 8833,
      "Ġlinear": 8834,
      "ĠGl": 8835,
      "Ġcounty": 8836,
      "Ġconcentrations": 8837,
      "ĠAgency": 8838,
      "Ġsigned": 8839,
      "Ġaged": 8840,
      "iday": 8841,
      "Ġgrain": 8842,
      "Ġpupils": 8843,
      "mm": 8844,
      "Ġecosystems": 8845,
      "Ġsubstantial": 8846,
      "beach": 8847,
      "Ġtechnological": 8848,
      "fem": 8849,
      "ĠSecurity": 8850,
      "Ġcarbohyd": 8851,
      "Ġweapons": 8852,
      "Ġforming": 8853,
      "Ġnewly": 8854,
      "icals": 8855,
      "Ġturb": 8856,
      "garded": 8857,
      "Ġprotectin": 8858,
      "Ġcardiovascular": 8859,
      "Ġprotecting": 8860,
      "ĠCentre": 8861,
      "Ġtowns": 8862,
      "Ġloos": 8863,
      "Ġfairly": 8864,
      "Ġtons": 8865,
      "Ġdrought": 8866,
      "ĠLy": 8867,
      "Ġroughly": 8868,
      "tude": 8869,
      "Ġplanned": 8870,
      "Ġhorses": 8871,
      "jecte": 8872,
      "ĠOpe": 8873,
      "Ġgate": 8874,
      "Ġflour": 8875,
      "br": 8876,
      "fiction": 8877,
      "Ġcompound": 8878,
      "Ġrhyth": 8879,
      "Ġcompens": 8880,
      "arri": 8881,
      "Ġtip": 8882,
      "jected": 8883,
      "Ġpestic": 8884,
      "zheimer": 8885,
      "Ġuniversal": 8886,
      "Ġexcit": 8887,
      "rization": 8888,
      "Ġcharacteristic": 8889,
      "vily": 8890,
      "Ġsolving": 8891,
      "ome": 8892,
      "Ġusual": 8893,
      "lizing": 8894,
      "Ġcombat": 8895,
      "ĠSpi": 8896,
      "Ġunusual": 8897,
      "cell": 8898,
      "nsin": 8899,
      "Ġreca": 8900,
      "Ġtranslation": 8901,
      "Ġdig": 8902,
      "74": 8903,
      "ĠAvo": 8904,
      "BT": 8905,
      "Ġstake": 8906,
      "ĠNeuro": 8907,
      "Ġwine": 8908,
      "Ġcoverin": 8909,
      "Ġearliest": 8910,
      "Ġcovering": 8911,
      "gible": 8912,
      "ody": 8913,
      "alum": 8914,
      "Ġviral": 8915,
      "ĠOnline": 8916,
      "undaries": 8917,
      "Ġillustrate": 8918,
      "hai": 8919,
      "Ġbiodiversity": 8920,
      "Ġrecycling": 8921,
      "Ġ1995": 8922,
      "Ġsocio": 8923,
      "ĠBan": 8924,
      "Ġprotocol": 8925,
      "soft": 8926,
      "ĠAnn": 8927,
      "conne": 8928,
      "ulato": 8929,
      "Ġcrus": 8930,
      "Ġcomputin": 8931,
      "nee": 8932,
      "Ġcomputing": 8933,
      "reek": 8934,
      "ĠEnvironment": 8935,
      "Ġadmini": 8936,
      "Ġeducators": 8937,
      "mann": 8938,
      "outh": 8939,
      "ĠTest": 8940,
      "Ġengineers": 8941,
      "Ġbees": 8942,
      "Ġbeach": 8943,
      "Ġshoul": 8944,
      "TP": 8945,
      "Ġepiso": 8946,
      "Ġvisitors": 8947,
      "Ġcontribution": 8948,
      "Ġdriven": 8949,
      "Ġforma": 8950,
      "gazine": 8951,
      "Ġtemple": 8952,
      "CP": 8953,
      "Ġpoetry": 8954,
      "Sta": 8955,
      "ulator": 8956,
      "Ġscienti": 8957,
      "Ġbalanced": 8958,
      "Ġrecover": 8959,
      "class": 8960,
      "Ġfishin": 8961,
      "strat": 8962,
      "ĠExplo": 8963,
      "Ġauth": 8964,
      "ĠAdd": 8965,
      "Ġfishing": 8966,
      "including": 8967,
      "tz": 8968,
      "kens": 8969,
      "Ġclassified": 8970,
      "Ġduration": 8971,
      "ĠWall": 8972,
      "ildren": 8973,
      "dges": 8974,
      "Ġplot": 8975,
      "Ġtall": 8976,
      "rado": 8977,
      "umin": 8978,
      "ĠDie": 8979,
      "Ġproviders": 8980,
      "atoms": 8981,
      "06": 8982,
      "ĠLouis": 8983,
      "Ġoldest": 8984,
      "Ġprincipal": 8985,
      "Ġclient": 8986,
      "ĠGen": 8987,
      "Ġauthe": 8988,
      "Ġauthen": 8989,
      "Fig": 8990,
      "ĠAnti": 8991,
      "Ġworship": 8992,
      "peut": 8993,
      "ĠOxford": 8994,
      "Ġuncertain": 8995,
      "ization": 8996,
      "Ġdollars": 8997,
      "81": 8998,
      "ĠFind": 8999,
      "Ġscientis": 9000,
      "Ġscientist": 9001,
      "sensor": 9002,
      "Ġfinger": 9003,
      "Ġregardless": 9004,
      "ĠThree": 9005,
      "02": 9006,
      "rably": 9007,
      "Ġbrow": 9008,
      "Ġlie": 9009,
      "ĠKey": 9010,
      "giene": 9011,
      "iod": 9012,
      "stores": 9013,
      "Ġintellectual": 9014,
      "Ġcollapse": 9015,
      "Ġease": 9016,
      "rically": 9017,
      "ĠArticle": 9018,
      "MA": 9019,
      "Ġaccommo": 9020,
      "Ġpromoting": 9021,
      "ĠHand": 9022,
      "orbit": 9023,
      "Med": 9024,
      "Ġexception": 9025,
      "Ġsupplements": 9026,
      "Ġassume": 9027,
      "Ġfle": 9028,
      "Ġheavily": 9029,
      "Ġenemy": 9030,
      "Ġchances": 9031,
      "ĪĴ": 9032,
      "ferences": 9033,
      "Ġwarning": 9034,
      "Ġmusical": 9035,
      "Ġarri": 9036,
      "Ġuncom": 9037,
      "pries": 9038,
      "Ġmerely": 9039,
      "Ġchromo": 9040,
      "Over": 9041,
      "neys": 9042,
      "ĠAmong": 9043,
      "Ġcommission": 9044,
      "putation": 9045,
      "Ġ1950": 9046,
      "ĠHill": 9047,
      "Ġproved": 9048,
      "tos": 9049,
      "Ġcolonies": 9050,
      "Ġproof": 9051,
      "ĠProdu": 9052,
      "ĠCP": 9053,
      "Ġtract": 9054,
      "Ġmigration": 9055,
      "kel": 9056,
      "Ġclim": 9057,
      "kins": 9058,
      "Ġexclusive": 9059,
      "Ġplayer": 9060,
      "ĠSafety": 9061,
      "Ġfract": 9062,
      "ĠConce": 9063,
      "Ġtraits": 9064,
      "Ġstores": 9065,
      "Ġchannel": 9066,
      "Ġsurprising": 9067,
      "ĠCre": 9068,
      "ĠMor": 9069,
      "fede": 9070,
      "Ġtelevision": 9071,
      "Ġantioxid": 9072,
      "vor": 9073,
      "Ġagent": 9074,
      "Ġcriminal": 9075,
      "Ġexploration": 9076,
      "ĠHoly": 9077,
      "Ġpeoples": 9078,
      "Ġatoms": 9079,
      "ĠLee": 9080,
      "Ġcorresponding": 9081,
      "Ġmanda": 9082,
      "chro": 9083,
      "Ġimagine": 9084,
      "ĠHelp": 9085,
      "Ġvariations": 9086,
      "ĠWhich": 9087,
      "Ġphysician": 9088,
      "Ġreachin": 9089,
      "Ġreaching": 9090,
      "Ġadve": 9091,
      "Ġroads": 9092,
      "Ġrepeated": 9093,
      "82": 9094,
      "Ġappoint": 9095,
      "Ġlaid": 9096,
      "AB": 9097,
      "Ġadven": 9098,
      "enior": 9099,
      "Ġflexible": 9100,
      "pine": 9101,
      "Ġconsumed": 9102,
      "IDS": 9103,
      "ĠNote": 9104,
      "Ġhardware": 9105,
      "aimed": 9106,
      "Ġviewed": 9107,
      "Ġinsight": 9108,
      "ĠHospi": 9109,
      "Ġfats": 9110,
      "Ġurine": 9111,
      "Ap": 9112,
      "ĠStart": 9113,
      "nom": 9114,
      "ĠCu": 9115,
      "Ġconstitute": 9116,
      "ĠConne": 9117,
      "ots": 9118,
      "04": 9119,
      "cury": 9120,
      "ĠVan": 9121,
      "Ġhapp": 9122,
      "Ġbread": 9123,
      "prai": 9124,
      "Ġcoverage": 9125,
      "Ġalum": 9126,
      "Ġfuels": 9127,
      "rmed": 9128,
      "Who": 9129,
      "Ġdisap": 9130,
      "rug": 9131,
      "Ġfellow": 9132,
      "Ġcul": 9133,
      "Ã¤": 9134,
      "Ġseparated": 9135,
      "ishes": 9136,
      "Ġinsights": 9137,
      "HS": 9138,
      "ĠMem": 9139,
      "ĠGrade": 9140,
      "Ġathlete": 9141,
      "Ġautomatically": 9142,
      "Ġactiva": 9143,
      "Ġadds": 9144,
      "lating": 9145,
      "monia": 9146,
      "Ġevil": 9147,
      "Also": 9148,
      "Ġaimed": 9149,
      "93": 9150,
      "vard": 9151,
      "Ġring": 9152,
      "ckets": 9153,
      "Ġphy": 9154,
      "Ġcontributed": 9155,
      "Ġwheel": 9156,
      "53": 9157,
      "Ġdischarge": 9158,
      "ĠCir": 9159,
      "Ġacquired": 9160,
      "Ġane": 9161,
      "Ġinten": 9162,
      "ĠAust": 9163,
      "oked": 9164,
      "holds": 9165,
      "tile": 9166,
      "ĠIsla": 9167,
      "ĠLit": 9168,
      "%,": 9169,
      "ĠSon": 9170,
      "Ġecological": 9171,
      "ĠIra": 9172,
      "ĠDistrict": 9173,
      "ĠYa": 9174,
      "ĠAdministration": 9175,
      "gare": 9176,
      "whel": 9177,
      "Ġvegetation": 9178,
      "Ġcav": 9179,
      "unici": 9180,
      "Ġclaimed": 9181,
      "Ġappreciat": 9182,
      "Ġsumma": 9183,
      "bodies": 9184,
      "rchy": 9185,
      "Ġinspired": 9186,
      "Ġdisability": 9187,
      "som": 9188,
      "Ġappreciate": 9189,
      "Ġgun": 9190,
      "ĠTO": 9191,
      "DS": 9192,
      "pra": 9193,
      "ĠInf": 9194,
      "promise": 9195,
      "ĠStrat": 9196,
      "Ġfocusin": 9197,
      "logic": 9198,
      "Ġfocusing": 9199,
      "berry": 9200,
      "Ġsymbols": 9201,
      "uds": 9202,
      "Ġcough": 9203,
      "lised": 9204,
      "eale": 9205,
      "Ġhypothesis": 9206,
      "tionality": 9207,
      "Ġseemed": 9208,
      "Ġstick": 9209,
      "NS": 9210,
      "Ġmaybe": 9211,
      "cessed": 9212,
      "ordered": 9213,
      "Ġpries": 9214,
      "Ġgrains": 9215,
      "Ġsharp": 9216,
      "Ġconvey": 9217,
      "Ġemotion": 9218,
      "Ġmir": 9219,
      "Ġsustainability": 9220,
      "pendent": 9221,
      "Ġprogramme": 9222,
      "Ġsodium": 9223,
      "Ġexpectations": 9224,
      "hemes": 9225,
      "blan": 9226,
      "Ġvent": 9227,
      "Ġbac": 9228,
      "cessor": 9229,
      "Ġactivat": 9230,
      "rten": 9231,
      "Gra": 9232,
      "Ġwebsites": 9233,
      "Ġ33": 9234,
      "Ġcapabilities": 9235,
      "egal": 9236,
      "Ġsimultaneous": 9237,
      "Ġorbit": 9238,
      "Ġphilosoph": 9239,
      "Ġbond": 9240,
      "Ġthereby": 9241,
      "Ġheritage": 9242,
      "Ġextend": 9243,
      "Ġintegration": 9244,
      "Ġprecise": 9245,
      "etime": 9246,
      "Ġacknowledge": 9247,
      "Ġhomework": 9248,
      "Ġdiagram": 9249,
      "ptor": 9250,
      "Ġà¤": 9251,
      "Sha": 9252,
      "ĠOri": 9253,
      "Ġpull": 9254,
      "Ġcalculate": 9255,
      "Ġofficers": 9256,
      "Ġwithdra": 9257,
      "Ġdiffer": 9258,
      "Ġstations": 9259,
      "97": 9260,
      "Ġdetermining": 9261,
      "nna": 9262,
      "Ġcord": 9263,
      "ĠTry": 9264,
      "Ġsuffered": 9265,
      "Ġshoe": 9266,
      "fulness": 9267,
      "St": 9268,
      "Ġdefen": 9269,
      "asses": 9270,
      "mensiona": 9271,
      "bian": 9272,
      "Ġspan": 9273,
      "ĠSol": 9274,
      "Ġaddiction": 9275,
      "Ġhormones": 9276,
      "Ġspeci": 9277,
      "mensional": 9278,
      "Ġdemocracy": 9279,
      "ĠAlzheimer": 9280,
      "imit": 9281,
      "Ġsensor": 9282,
      "dder": 9283,
      "Ġboundaries": 9284,
      "ĠEnd": 9285,
      "Ġgift": 9286,
      "Ġion": 9287,
      "Ġprece": 9288,
      "Ġfatigue": 9289,
      "Ġprai": 9290,
      "ette": 9291,
      "generation": 9292,
      "Ġexciting": 9293,
      "whale": 9294,
      "Ġdominant": 9295,
      "Ġdigestive": 9296,
      "cyte": 9297,
      "ĠScotland": 9298,
      "ifies": 9299,
      "mage": 9300,
      "ĠPrevention": 9301,
[...]
