{
  "version": "1.0",
  "truncation": null,
  "padding": null,
  "added_tokens": [
    {
      "id": 0,
      "content": "<BOS>",
      "single_word": false,
      "lstrip": false,
      "rstrip": false,
      "normalized": false,
      "special": true
    },
    {
      "id": 1,
      "content": "<EOS>",
      "single_word": false,
      "lstrip": false,
      "rstrip": false,
      "normalized": false,
      "special": true
    },
    {
      "id": 2,
      "content": "<start_of_turn>",
      "single_word": false,
      "lstrip": false,
      "rstrip": false,
      "normalized": false,
      "special": true
    },
    {
      "id": 3,
      "content": "<end_of_turn>",
      "single_word": false,
      "lstrip": false,
      "rstrip": false,
      "normalized": false,
      "special": true
    },
    {
      "id": 4,
      "content": "<DUMMY_2>",
      "single_word": false,
      "lstrip": false,
      "rstrip": false,
      "normalized": false,
      "special": true
    },
    {
      "id": 5,
      "content": "<DUMMY_3>",
      "single_word": false,
      "lstrip": false,
      "rstrip": false,
      "normalized": false,
      "special": true
    },
    {
      "id": 6,
      "content": "<DUMMY_4>",
      "single_word": false,
      "lstrip": false,
      "rstrip": false,
      "normalized": false,
      "special": true
    },
    {
      "id": 7,
      "content": "<DUMMY_5>",
      "single_word": false,
      "lstrip": false,
      "rstrip": false,
      "normalized": false,
      "special": true
    },
    {
      "id": 8,
      "content": "<DUMMY_6>",
      "single_word": false,
      "lstrip": false,
      "rstrip": false,
      "normalized": false,
      "special": true
    },
    {
      "id": 9,
      "content": "<DUMMY_7>",
      "single_word": false,
      "lstrip": false,
      "rstrip": false,
      "normalized": false,
      "special": true
    },
    {
      "id": 10,
      "content": "<DUMMY_8>",
      "single_word": false,
      "lstrip": false,
      "rstrip": false,
      "normalized": false,
      "special": true
    },
    {
      "id": 11,
      "content": "<DUMMY_9>",
      "single_word": false,
      "lstrip": false,
      "rstrip": false,
      "normalized": false,
      "special": true
    }
  ],
  "normalizer": null,
  "pre_tokenizer": {
    "type": "ByteLevel",
    "add_prefix_space": false,
    "trim_offsets": true,
    "use_regex": true
  },
  "post_processor": {
    "type": "TemplateProcessing",
    "single": [
      {
        "Sequence": {
          "id": "A",
          "type_id": 0
        }
      }
    ],
    "pair": [
      {
        "Sequence": {
          "id": "A",
          "type_id": 0
        }
      },
      {
        "Sequence": {
          "id": "B",
          "type_id": 1
        }
      }
    ],
    "special_tokens": {}
  },
  "decoder": {
    "type": "ByteLevel",
    "add_prefix_space": true,
    "trim_offsets": true,
    "use_regex": true
  },
  "model": {
    "type": "BPE",
    "dropout": null,
    "unk_token": null,
    "continuing_subword_prefix": null,
    "end_of_word_suffix": null,
    "fuse_unk": false,
    "byte_fallback": false,
    "ignore_merges": false,
    "vocab": {
      "<BOS>": 0,
      "<EOS>": 1,
      "<start_of_turn>": 2,
      "<end_of_turn>": 3,
      "<DUMMY_2>": 4,
      "<DUMMY_3>": 5,
      "<DUMMY_4>": 6,
      "<DUMMY_5>": 7,
      "<DUMMY_6>": 8,
      "<DUMMY_7>": 9,
      "<DUMMY_8>": 10,
      "<DUMMY_9>": 11,
      "!": 12,
      "\"": 13,
      "#": 14,
      "$": 15,
      "%": 16,
      "&": 17,
      "'": 18,
      "(": 19,
      ")": 20,
      "*": 21,
      "+": 22,
      ",": 23,
      "-": 24,
      ".": 25,
      "/": 26,
      "0": 27,
      "1": 28,
      "2": 29,
      "3": 30,
      "4": 31,
      "5": 32,
      "6": 33,
      "7": 34,
      "8": 35,
      "9": 36,
      ":": 37,
      ";": 38,
      "<": 39,
      "=": 40,
      ">": 41,
      "?": 42,
      "@": 43,
      "A": 44,
      "B": 45,
      "C": 46,
      "D": 47,
      "E": 48,
      "F": 49,
      "G": 50,
      "H": 51,
      "I": 52,
      "J": 53,
      "K": 54,
      "L": 55,
      "M": 56,
      "N": 57,
      "O": 58,
      "P": 59,
      "Q": 60,
      "R": 61,
      "S": 62,
      "T": 63,
      "U": 64,
      "V": 65,
      "W": 66,
      "X": 67,
      "Y": 68,
      "Z": 69,
      "[": 70,
      "\\": 71,
      "]": 72,
      "^": 73,
      "_": 74,
      "`": 75,
      "a": 76,
      "b": 77,
      "c": 78,
      "d": 79,
      "e": 80,
      "f": 81,
      "g": 82,
      "h": 83,
      "i": 84,
      "j": 85,
      "k": 86,
      "l": 87,
      "m": 88,
      "n": 89,
      "o": 90,
      "p": 91,
      "q": 92,
      "r": 93,
      "s": 94,
      "t": 95,
      "u": 96,
      "v": 97,
      "w": 98,
      "x": 99,
      "y": 100,
      "z": 101,
      "{": 102,
      "|": 103,
      "}": 104,
      "~": 105,
      "¡": 106,
      "¢": 107,
      "£": 108,
      "¤": 109,
      "¥": 110,
      "¦": 111,
      "§": 112,
      "¨": 113,
      "©": 114,
      "ª": 115,
      "«": 116,
      "¬": 117,
      "®": 118,
      "¯": 119,
      "°": 120,
      "±": 121,
      "²": 122,
      "³": 123,
      "´": 124,
      "µ": 125,
      "¶": 126,
      "·": 127,
      "¸": 128,
      "¹": 129,
      "º": 130,
      "»": 131,
      "¼": 132,
      "½": 133,
      "¾": 134,
      "¿": 135,
      "À": 136,
      "Á": 137,
      "Â": 138,
      "Ã": 139,
      "Ä": 140,
      "Å": 141,
      "Æ": 142,
      "Ç": 143,
      "È": 144,
      "É": 145,
      "Ê": 146,
      "Ë": 147,
      "Ì": 148,
      "Í": 149,
      "Î": 150,
      "Ï": 151,
      "Ð": 152,
      "Ñ": 153,
      "Ò": 154,
      "Ó": 155,
      "Ô": 156,
      "Õ": 157,
      "Ö": 158,
      "×": 159,
      "Ø": 160,
      "Ù": 161,
      "Ú": 162,
      "Û": 163,
      "Ü": 164,
      "Ý": 165,
      "Þ": 166,
      "ß": 167,
      "à": 168,
      "á": 169,
      "â": 170,
      "ã": 171,
      "ä": 172,
      "å": 173,
      "æ": 174,
      "ç": 175,
      "è": 176,
      "é": 177,
      "ê": 178,
      "ë": 179,
      "ì": 180,
      "í": 181,
      "î": 182,
      "ï": 183,
      "ð": 184,
      "ñ": 185,
      "ò": 186,
      "ó": 187,
      "ô": 188,
      "õ": 189,
      "ö": 190,
      "÷": 191,
      "ø": 192,
      "ù": 193,
      "ú": 194,
      "û": 195,
      "ü": 196,
      "ý": 197,
      "þ": 198,
      "ÿ": 199,
      "Ā": 200,
      "ā": 201,
      "Ă": 202,
      "ă": 203,
      "Ą": 204,
      "ą": 205,
      "Ć": 206,
      "ć": 207,
      "Ĉ": 208,
      "ĉ": 209,
      "Ċ": 210,
      "ċ": 211,
      "Č": 212,
      "č": 213,
      "Ď": 214,
      "ď": 215,
      "Đ": 216,
      "đ": 217,
      "Ē": 218,
      "ē": 219,
      "Ĕ": 220,
      "ĕ": 221,
      "Ė": 222,
      "ė": 223,
      "Ę": 224,
      "ę": 225,
      "Ě": 226,
      "ě": 227,
      "Ĝ": 228,
      "ĝ": 229,
      "Ğ": 230,
      "ğ": 231,
      "Ġ": 232,
      "ġ": 233,
      "Ģ": 234,
      "ģ": 235,
      "Ĥ": 236,
      "ĥ": 237,
      "Ħ": 238,
      "ħ": 239,
      "Ĩ": 240,
      "ĩ": 241,
      "Ī": 242,
      "ī": 243,
      "Ĭ": 244,
      "ĭ": 245,
      "Į": 246,
      "į": 247,
      "İ": 248,
      "ı": 249,
      "Ĳ": 250,
      "ĳ": 251,
      "Ĵ": 252,
      "ĵ": 253,
      "Ķ": 254,
      "ķ": 255,
      "ĸ": 256,
      "Ĺ": 257,
      "ĺ": 258,
      "Ļ": 259,
      "ļ": 260,
      "Ľ": 261,
      "ľ": 262,
      "Ŀ": 263,
      "ŀ": 264,
      "Ł": 265,
      "ł": 266,
      "Ń": 267,
      "Ġt": 268,
      "Ġa": 269,
      "in": 270,
      "he": 271,
      "ĠĠ": 272,
      "re": 273,
      "on": 274,
      "er": 275,
      "Ġthe": 276,
      "at": 277,
      "Ġs": 278,
      "en": 279,
      "or": 280,
      "Ġc": 281,
      "es": 282,
      "it": 283,
      "is": 284,
      "nd": 285,
      "Ġo": 286,
      "al": 287,
      "ing": 288,
      "Ġp": 289,
      "Ġw": 290,
      "Ġf": 291,
      "an": 292,
      "ion": 293,
      "Ġb": 294,
      "ed": 295,
      "Ġin": 296,
      "ou": 297,
      "ar": 298,
      "Ġand": 299,
      "Ġof": 300,
      "Ġm": 301,
      "Ġd": 302,
      "ic": 303,
      "Ġto": 304,
      "ĠĠĠĠ": 305,
      "le": 306,
      "ro": 307,
      "ent": 308,
      "ct": 309,
      "as": 310,
      "Ġe": 311,
      "Ġre": 312,
      "Ġth": 313,
      "Ġh": 314,
      "st": 315,
      "om": 316,
      "ve": 317,
      "il": 318,
      "Ġn": 319,
      "Ġl": 320,
      "et": 321,
      "Ġis": 322,
      "ĠT": 323,
      "ra": 324,
      "im": 325,
      "ation": 326,
      "ol": 327,
      "id": 328,
      "ce": 329,
      "ly": 330,
      "ut": 331,
      "ot": 332,
      "Ġg": 333,
      "us": 334,
      "Ġfor": 335,
      "ĠA": 336,
      "ig": 337,
      "ow": 338,
      "ĠS": 339,
      "ur": 340,
      "ĠĠĠ": 341,
      "Ġy": 342,
      "ĠI": 343,
      "ch": 344,
      "el": 345,
      "Ġst": 346,
      "Ġ\\": 347,
      "ĠC": 348,
      "am": 349,
      "ul": 350,
      "Ġbe": 351,
      "ers": 352,
      "Ġon": 353,
      "if": 354,
      "ir": 355,
      "ith": 356,
      "Ġpro": 357,
      "Ġyou": 358,
      "Ġthat": 359,
      "Ġcon": 360,
      "ay": 361,
      "Ġwith": 362,
      "Ġ1": 363,
      "Ġ(": 364,
      "ate": 365,
      "un": 366,
      "Ġas": 367,
      "se": 368,
      "ad": 369,
      "ver": 370,
      "um": 371,
      "qu": 372,
      "Ġan": 373,
      "Ġit": 374,
      "ĠĠĠĠĠĠĠĠ": 375,
      "ge": 376,
      "ab": 377,
      "ĠThe": 378,
      "od": 379,
      "ess": 380,
      "ĠP": 381,
      "Ġor": 382,
      "Ġare": 383,
      "Ġex": 384,
      "est": 385,
      "ĠM": 386,
      "ment": 387,
      "Ġal": 388,
      "ist": 389,
      "iv": 390,
      "Ġv": 391,
      "her": 392,
      "res": 393,
      "ive": 394,
      "Ġcom": 395,
      "pp": 396,
      "ect": 397,
      "ter": 398,
      "ity": 399,
      "Ġwh": 400,
      "Ġ=": 401,
      "ĠB": 402,
      "Ġde": 403,
      "Ġ2": 404,
      "th": 405,
      "Ġ|": 406,
      "ies": 407,
      "ke": 408,
      "ĠD": 409,
      "--": 410,
      "os": 411,
      "ac": 412,
      "ain": 413,
      "igh": 414,
      "ĠW": 415,
      "Ġus": 416,
      "Ġcan": 417,
      "ri": 418,
      "and": 419,
      "ĠF": 420,
      "ore": 421,
      "ĠR": 422,
      "Ġsu": 423,
      "'s": 424,
      "em": 425,
      "ill": 426,
      "Ġhe": 427,
      "pt": 428,
      "âĢ": 429,
      "ant": 430,
      "ĠH": 431,
      "ĊĠĠĠ": 432,
      "ial": 433,
      "ĠE": 434,
      "rom": 435,
      "op": 436,
      "Ġwe": 437,
      "**": 438,
      "ort": 439,
      "Ġ\"": 440,
      "oc": 441,
      "ud": 442,
      "Ġby": 443,
      "nt": 444,
      "Ġr": 445,
      "Ġen": 446,
      "ld": 447,
      "Ġne": 448,
      "ure": 449,
      "pl": 450,
      "ĠĠĠĠĠĠĠ": 451,
      "art": 452,
      "Ġat": 453,
      "Ġch": 454,
      "Ġse": 455,
      "ĠN": 456,
      "ions": 457,
      "ĠL": 458,
      "te": 459,
      "Ġfrom": 460,
      "ight": 461,
      "Ġha": 462,
      "Ġ$": 463,
      "pe": 464,
      "Ġle": 465,
      "Ġsh": 466,
      "Ġnot": 467,
      "00": 468,
      "per": 469,
      "ical": 470,
      "ĠG": 471,
      "ust": 472,
      "age": 473,
      "ĊĠĠĠĠĠĠĠ": 474,
      "Ġ-": 475,
      "ine": 476,
      "iz": 477,
      "og": 478,
      "all": 479,
      "Ġyour": 480,
      "Ġu": 481,
      "Ġthis": 482,
      "Ġim": 483,
      "ag": 484,
      "our": 485,
      "act": 486,
      "able": 487,
      "red": 488,
      "ns": 489,
      "Ġcomp": 490,
      "Ġpl": 491,
      "ĠO": 492,
      "ult": 493,
      "Ġhave": 494,
      "end": 495,
      "ff": 496,
      "ard": 497,
      "The": 498,
      "ich": 499,
      "ide": 500,
      "ance": 501,
      "rou": 502,
      "ould": 503,
      "Ġwas": 504,
      "ations": 505,
      "out": 506,
      "ip": 507,
      "orm": 508,
      "ue": 509,
      "Ġad": 510,
      "ost": 511,
      "du": 512,
      "ak": 513,
      "ĠTh": 514,
      "Ġwor": 515,
      "Ġtheir": 516,
      "ction": 517,
      "Ġab": 518,
      "ated": 519,
      "Ġres": 520,
      "ome": 521,
      "cl": 522,
      "cc": 523,
      "Ġwhe": 524,
      "int": 525,
      "Ġ\\(": 526,
      "Ġall": 527,
      "ame": 528,
      "are": 529,
      "..": 530,
      "ĠU": 531,
      "ach": 532,
      "ther": 533,
      "Ġcont": 534,
      "Ġint": 535,
      "ans": 536,
      "Ġk": 537,
      "ie": 538,
      "Ġ3": 539,
      "ence": 540,
      "ib": 541,
      "gh": 542,
      "Ġun": 543,
      "Ġapp": 544,
      "ind": 545,
      "ary": 546,
      "ell": 547,
      "ile": 548,
      "ous": 549,
      "ru": 550,
      "ast": 551,
      "ents": 552,
      "ks": 553,
      "ep": 554,
      "ign": 555,
      "Ġte": 556,
      "Ġcl": 557,
      "Ġdo": 558,
      "xt": 559,
      "ĠIn": 560,
      "Ġwill": 561,
      "rac": 562,
      "ass": 563,
      "ber": 564,
      "ry": 565,
      "Ġimp": 566,
      "ĊĠĠĠĠĠĠĠĠ": 567,
      "ear": 568,
      "Ġwhich": 569,
      "ime": 570,
      "Ġme": 571,
      "ual": 572,
      "ice": 573,
      "form": 574,
      "ase": 575,
      "vel": 576,
      "Ġhas": 577,
      "ong": 578,
      "ition": 579,
      "ĠJ": 580,
      "ere": 581,
      "ress": 582,
      "one": 583,
      "Ġj": 584,
      ").": 585,
      "Ġthey": 586,
      "Ġper": 587,
      "Ġif": 588,
      "oo": 589,
      "Ġdis": 590,
      "ire": 591,
      "ap": 592,
      "Ġqu": 593,
      "Ġ+": 594,
      "----": 595,
      "ack": 596,
      "Ġ`": 597,
      "ĠThis": 598,
      "Ġsc": 599,
      "ang": 600,
      "Ġmore": 601,
      "Ġbut": 602,
      "ike": 603,
      "av": 604,
      "ood": 605,
      "ake": 606,
      "so": 607,
      "ord": 608,
      "ace": 609,
      "ia": 610,
      "Ġout": 611,
      "wer": 612,
      "ail": 613,
      "ors": 614,
      "Ġman": 615,
      "Ġpr": 616,
      "ite": 617,
      "ens": 618,
      "Ġsp": 619,
      "ces": 620,
      "reat": 621,
      "Ġar": 622,
      "),": 623,
      "low": 624,
      "Ġ0": 625,
      "Ġone": 626,
      "ific": 627,
      "ount": 628,
      "ĠIt": 629,
      "ĠV": 630,
      "Ġ4": 631,
      "nder": 632,
      "Ġ20": 633,
      "Ġro": 634,
      "ub": 635,
      "ĠK": 636,
      "ory": 637,
      "Ġother": 638,
      "Ġev": 639,
      "âĢĻ": 640,
      "Ġpart": 641,
      "Ġcomm": 642,
      "ild": 643,
      "Ġso": 644,
      "con": 645,
      "ath": 646,
      "}{": 647,
      "Ġspe": 648,
      "Ġtr": 649,
      "Ġpre": 650,
      "Ġalso": 651,
      "ater": 652,
      "Ġnum": 653,
      "Ġits": 654,
      "Ġsy": 655,
      "Ġup": 656,
      "fere": 657,
      "elf": 658,
      "ĠSt": 659,
      "ata": 660,
      "ple": 661,
      "king": 662,
      "Ġind": 663,
      "frac": 664,
      "ates": 665,
      "Ġlike": 666,
      "now": 667,
      "Ġfe": 668,
      "Ġabout": 669,
      "Ġ5": 670,
      "ĠY": 671,
      "ms": 672,
      "ose": 673,
      "ĠâĢ": 674,
      "ative": 675,
      "ree": 676,
      "cess": 677,
      "ound": 678,
      "ari": 679,
      "ating": 680,
      "clud": 681,
      "Ġprov": 682,
      "Ġem": 683,
      "ll": 684,
      "erv": 685,
      "ef": 686,
      "ject": 687,
      "very": 688,
      "Ġtime": 689,
      "Ġdes": 690,
      "ph": 691,
      "ility": 692,
      "ric": 693,
      "Ġacc": 694,
      "Ġinto": 695,
      "nswer": 696,
      "aus": 697,
      "Ġcol": 698,
      "Ġcons": 699,
      "Ġstud": 700,
      "ments": 701,
      "ĊĠĠĠĠĠĠĠĠĠĠĠ": 702,
      "hat": 703,
      "##": 704,
      "Ġval": 705,
      "ne": 706,
      "ning": 707,
      "ĠĠĠĠĠĠĠĠĠĠĠĠĠĠĠĠ": 708,
      "Ġrec": 709,
      "Ġpos": 710,
      "les": 711,
      "Ġunder": 712,
      "ys": 713,
      "we": 714,
      "Ġdif": 715,
      "Ġtra": 716,
      "Ġover": 717,
      "ities": 718,
      "Ġfun": 719,
      "Ġexp": 720,
      "Ġoff": 721,
      "ally": 722,
      "Ġbet": 723,
      "Ġwhen": 724,
      "Ġthese": 725,
      "Ġthem": 726,
      "Ġneed": 727,
      "ft": 728,
      "ble": 729,
      "Ġgo": 730,
      "lic": 731,
      "==": 732,
      "ish": 733,
      "ays": 734,
      "ove": 735,
      "__": 736,
      "lect": 737,
      "ov": 738,
      "ings": 739,
      "Ġany": 740,
      "irst": 741,
      "Ġ19": 742,
      "In": 743,
      "ution": 744,
      "Ġinclud": 745,
      "Ġsol": 746,
      "ise": 747,
      "lp": 748,
      "Ġwho": 749,
      "ĠCh": 750,
      "'t": 751,
      "Ġhow": 752,
      "stem": 753,
      "Ġ'": 754,
      "ons": 755,
      "estion": 756,
      "oint": 757,
      "ract": 758,
      "ĊĊĠĠĠ": 759,
      "cre": 760,
      "Ġinter": 761,
      "Ġtw": 762,
      "Ġra": 763,
      "Ġhelp": 764,
      "cial": 765,
      "Ġpe": 766,
      "Ġact": 767,
      "rib": 768,
      "Ġsome": 769,
      "ular": 770,
      "row": 771,
      "Ġmay": 772,
      "Ġthan": 773,
      "Ġuse": 774,
      "Ġbec": 775,
      "Ġinv": 776,
      "Ġsuch": 777,
      "eth": 778,
      "Ġeff": 779,
      "uring": 780,
      "Ġadd": 781,
      "ark": 782,
      "Ġmod": 783,
      "Ġrel": 784,
      "rough": 785,
      "cept": 786,
      "rit": 787,
      "Ġthere": 788,
      "Qu": 789,
      "ob": 790,
      "ics": 791,
      "Ġform": 792,
      "Ġhis": 793,
      "Ġret": 794,
      "urn": 795,
      "ures": 796,
      "Ġnew": 797,
      "Ġshould": 798,
      "Ġstr": 799,
      "ool": 800,
      "ram": 801,
      "``": 802,
      "ient": 803,
      "Ġrep": 804,
      "Ġag": 805,
      "Ġknow": 806,
      "its": 807,
      ":**": 808,
      "Ġfol": 809,
      "\"\"": 810,
      "oth": 811,
      "als": 812,
      "Ġyear": 813,
      "Ġass": 814,
      "erm": 815,
      "Ġprodu": 816,
      "ener": 817,
      "ren": 818,
      "ĊĠĠ": 819,
      "Ġ6": 820,
      "ange": 821,
      "Ġsa": 822,
      "Ġtwo": 823,
      "Ġequ": 824,
      "ize": 825,
      "Ġdiffere": 826,
      "Ġwere": 827,
      "ased": 828,
      "ook": 829,
      "alth": 830,
      "olog": 831,
      "Ġ**": 832,
      "enc": 833,
      "Ġbl": 834,
      "Ġreg": 835,
      "ian": 836,
      "Ġeach": 837,
      "Ġdata": 838,
      "Ġwhat": 839,
      "put": 840,
      "Ġwork": 841,
      "ople": 842,
      "ause": 843,
      "text": 844,
      "get": 845,
      "ĠRe": 846,
      "Ġusing": 847,
      "Ġsystem": 848,
      "Ġfollow": 849,
      "Ġvari": 850,
      "ential": 851,
      "Ġph": 852,
      "Ġx": 853,
      "Ġdef": 854,
      "Ġfirst": 855,
      "ues": 856,
      "tain": 857,
      "ational": 858,
      "Ġset": 859,
      "Ġsub": 860,
      "ful": 861,
      "oy": 862,
      "Ġam": 863,
      "ough": 864,
      "Ġused": 865,
      "Ġwhere": 866,
      "Ġke": 867,
      "Ġob": 868,
      "ting": 869,
      "Answer": 870,
      "Ġrequ": 871,
      "Ġthrough": 872,
      "Ġnumber": 873,
      "ower": 874,
      "Ġget": 875,
      "Ġinte": 876,
      "Ġco": 877,
      "velop": 878,
      "Ġno": 879,
      "Ġbeen": 880,
      "Ġwould": 881,
      "ible": 882,
      "Ġonly": 883,
      "ds": 884,
      "pport": 885,
      "ten": 886,
      "Ġac": 887,
      "fter": 888,
      "Ġ#": 889,
      "Ġtrans": 890,
      "ss": 891,
      "Ġfunction": 892,
      "imes": 893,
      "Ġexper": 894,
      "ience": 895,
      "Ġour": 896,
      "Ġfl": 897,
      "Ġ\\)": 898,
      "ween": 899,
      "Ġpeople": 900,
      "Ġsim": 901,
      "Ġinst": 902,
      "Ġrem": 903,
      "round": 904,
      "Question": 905,
      "\")": 906,
      "Ġdet": 907,
      "ax": 908,
      "aking": 909,
      "uc": 910,
      "âĶ": 911,
      "ied": 912,
      "ict": 913,
      "ĠPro": 914,
      "ices": 915,
      "Ġty": 916,
      "Th": 917,
      "hes": 918,
      "ick": 919,
      "Ġspec": 920,
      "Ġsign": 921,
      "Ġbetween": 922,
      "ĠIf": 923,
      "stand": 924,
      "ced": 925,
      "own": 926,
      "iss": 927,
      "hed": 928,
      "Ġatt": 929,
      "Ġimport": 930,
      "Ġpers": 931,
      "Ġprocess": 932,
      "Ġ{": 933,
      "à¤": 934,
      "Ġprovid": 935,
      "Ġresult": 936,
      "Ġmat": 937,
      "Ġmost": 938,
      "Ġ10": 939,
      "Ġresp": 940,
      "itive": 941,
      "ample": 942,
      "Ġmake": 943,
      "Ġhigh": 944,
      "iven": 945,
      "ident": 946,
      "):": 947,
      "omm": 948,
      "$$": 949,
      "ec": 950,
      "Ġthen": 951,
      "chn": 952,
      "fore": 953,
      "Ġmain": 954,
      "hen": 955,
      "Ġ201": 956,
      "der": 957,
      "ĠCon": 958,
      "Ġ7": 959,
      "ruct": 960,
      "Ġdist": 961,
      "20": 962,
      "resent": 963,
      "ĠEx": 964,
      "Ġdevelop": 965,
      "Ġsm": 966,
      "Ġfind": 967,
      "iew": 968,
      "--------": 969,
      "eng": 970,
      "Ġjust": 971,
      "Ġproble": 972,
      "Ġbu": 973,
      "Ġcur": 974,
      "Ġdifferent": 975,
      "ĠHe": 976,
      "ĠFor": 977,
      "iqu": 978,
      "ional": 979,
      "ines": 980,
      "erg": 981,
      "Ġcre": 982,
      "Ġdoes": 983,
      "ty": 984,
      "ĠHow": 985,
      "Ġpoint": 986,
      "cul": 987,
      "Ġappro": 988,
      "hip": 989,
      "formation": 990,
      "ock": 991,
      "ious": 992,
      "Ġ8": 993,
      "ĠUn": 994,
      "Ġhealth": 995,
      "\",": 996,
      "aw": 997,
      "Ġher": 998,
      "up": 999,
      "ex": 1000,
      "arch": 1001,
      "ife": 1002,
      "ĊĠ": 1003,
      "ts": 1004,
      "ically": 1005,
      "Ġcor": 1006,
      "Ġpol": 1007,
      "Ġself": 1008,
      "ivers": 1009,
      "ink": 1010,
      "Ġ[": 1011,
      "ng": 1012,
      "Ġcomple": 1013,
      "ness": 1014,
      "Ġmany": 1015,
      "ror": 1016,
      "irect": 1017,
      "Ġgra": 1018,
      "Ġchild": 1019,
      "ily": 1020,
      "ever": 1021,
      "iel": 1022,
      "Ġgener": 1023,
      "Ġinf": 1024,
      "Ġins": 1025,
      "ode": 1026,
      "Ġmy": 1027,
      "Ġdec": 1028,
      "ives": 1029,
      "ĠWhat": 1030,
      "Ġwell": 1031,
      "ature": 1032,
      "Ġplay": 1033,
      "Ġserv": 1034,
      "Ġhad": 1035,
      "chool": 1036,
      "ify": 1037,
      "ages": 1038,
      "ew": 1039,
      "Ġreturn": 1040,
      "Ġprog": 1041,
      "Ġent": 1042,
      "Ġeffect": 1043,
      "Ġlead": 1044,
      "ection": 1045,
      "Ġmin": 1046,
      "ving": 1047,
      "ute": 1048,
      "Ġ\"\"\"": 1049,
      "ized": 1050,
      "ward": 1051,
      "Ġ9": 1052,
      "the": 1053,
      "ĠAr": 1054,
      "Ġsur": 1055,
      "Ġloc": 1056,
      "Ġboth": 1057,
      "vent": 1058,
      "ethod": 1059,
      "ality": 1060,
      "dition": 1061,
      "ural": 1062,
      "âĶĢ": 1063,
      "old": 1064,
      "Ġlear": 1065,
      "ability": 1066,
      "gan": 1067,
      "ps": 1068,
      "inal": 1069,
      "ivid": 1070,
      "ix": 1071,
      "Ġens": 1072,
      "Ġwhile": 1073,
      "rent": 1074,
      "Ġafter": 1075,
      "()": 1076,
      "ond": 1077,
      "ider": 1078,
      "Ġchar": 1079,
      "ade": 1080,
      "hem": 1081,
      "ript": 1082,
      "ĠWe": 1083,
      "Ġext": 1084,
      "000": 1085,
      "alcul": 1086,
      "10": 1087,
      "Ġsk": 1088,
      "Ġed": 1089,
      "Ġcould": 1090,
      "Ġdisc": 1091,
      "ants": 1092,
      "Ġcar": 1093,
      "Ġtechn": 1094,
      "led": 1095,
      "Ġperson": 1096,
      "Ġevery": 1097,
      "Ġexpl": 1098,
      "Ġclass": 1099,
      "Ġaut": 1100,
      "Ġfact": 1101,
      "str": 1102,
      "ger": 1103,
      "Ġsee": 1104,
      "Ġmed": 1105,
      "Ġ&": 1106,
      "Ġunderstand": 1107,
      "wn": 1108,
      "mer": 1109,
      "Ġdep": 1110,
      "ck": 1111,
      "This": 1112,
      "Ġlong": 1113,
      "Ġincre": 1114,
      "Ġeven": 1115,
      "âĶĢâĶĢ": 1116,
      "Ġstart": 1117,
      "tern": 1118,
      "nce": 1119,
      "Ġwater": 1120,
      "Ġback": 1121,
      "ins": 1122,
      "Ġav": 1123,
      "ateg": 1124,
      "ork": 1125,
      "ĠThey": 1126,
      "Ġway": 1127,
      "Ġfollowing": 1128,
      "....": 1129,
      "gg": 1130,
      "Ġstudents": 1131,
      "Ġduring": 1132,
      "ined": 1133,
      "Ġprint": 1134,
      "de": 1135,
      "Ġpartic": 1136,
      "Ġtest": 1137,
      "ĠInd": 1138,
      "bers": 1139,
      "Ġallow": 1140,
      "ists": 1141,
      "port": 1142,
      "Ġsupport": 1143,
      "Ġright": 1144,
      "iron": 1145,
      "Ġbecause": 1146,
      "els": 1147,
      "ĠAn": 1148,
      "ases": 1149,
      "air": 1150,
      "ĠWh": 1151,
      "Ġgu": 1152,
      "Ġhand": 1153,
      "io": 1154,
      "com": 1155,
      "Ġshe": 1156,
      "ited": 1157,
      "ety": 1158,
      "Ġcommun": 1159,
      "Ġproduct": 1160,
      "und": 1161,
      "Ġyears": 1162,
      "Ġopt": 1163,
      "iness": 1164,
      "ator": 1165,
      "ining": 1166,
      "Ġvalue": 1167,
      "Ġconf": 1168,
      "Ġmethod": 1169,
      "\\)": 1170,
      "other": 1171,
      "ĠYou": 1172,
      "====": 1173,
      "Ġbeing": 1174,
      "Ġread": 1175,
      "any": 1176,
      "ĠAd": 1177,
      "Ġart": 1178,
      "uch": 1179,
      "ency": 1180,
      "to": 1181,
      "val": 1182,
      "Ġmon": 1183,
      "ĠAl": 1184,
      "Ġref": 1185,
      "Ġstate": 1186,
      "Ġbel": 1187,
      "Ġsame": 1188,
      "ired": 1189,
      "read": 1190,
      "Ġcount": 1191,
      "ology": 1192,
      "Ġcle": 1193,
      "Ġmust": 1194,
      "ern": 1195,
      "line": 1196,
      "Ġinformation": 1197,
      "Ġpar": 1198,
      "Ġadv": 1199,
      "Ġfound": 1200,
      "ets": 1201,
      "ves": 1202,
      "ier": 1203,
      "Ġoften": 1204,
      "Ġdi": 1205,
      "ron": 1206,
      "Ġconst": 1207,
      "Ġser": 1208,
      "ason": 1209,
      "\\[": 1210,
      "Ġ*": 1211,
      "Ġvis": 1212,
      "ected": 1213,
      "ted": 1214,
      "Ġfil": 1215,
      "ash": 1216,
      "arm": 1217,
      "ually": 1218,
      "ER": 1219,
      "```": 1220,
      "viron": 1221,
      "Ġgiven": 1222,
      ".\"": 1223,
      "self": 1224,
      "Ġdid": 1225,
      "oci": 1226,
      "Ġdesign": 1227,
      "Ġlar": 1228,
      "Ġmult": 1229,
      "Ġeng": 1230,
      "Ġshow": 1231,
      "St": 1232,
      "ĠâĢĵ": 1233,
      "Ġcall": 1234,
      "Ġline": 1235,
      "Ġcent": 1236,
      "Ġdirect": 1237,
      "Ġear": 1238,
      "Ġpat": 1239,
      "Ġpot": 1240,
      "Ġworld": 1241,
      "lement": 1242,
      "Ġoper": 1243,
      "akes": 1244,
      "ince": 1245,
      "Ġthose": 1246,
      "Ġve": 1247,
      "Ġgrow": 1248,
      "ral": 1249,
      "Ġpower": 1250,
      "itions": 1251,
      "Ġbefore": 1252,
      "Ġlevel": 1253,
      "Ġperform": 1254,
      "ital": 1255,
      "Ġincluding": 1256,
      "Ġ200": 1257,
      "Ġlife": 1258,
      "Ġsignific": 1259,
      "(\"": 1260,
      "Ġprof": 1261,
      "Ġproblem": 1262,
      "Ġproper": 1263,
      "ody": 1264,
      "Ġend": 1265,
      "Ġtyp": 1266,
      "eg": 1267,
      "ĠAs": 1268,
      "Ġident": 1269,
      "pr": 1270,
      "ale": 1271,
      "...": 1272,
      "ism": 1273,
      "irc": 1274,
      "ĊĊĠĠĠĠĠĠĠ": 1275,
      "oad": 1276,
      "cent": 1277,
      "ull": 1278,
      "ccess": 1279,
      "ather": 1280,
      "ividual": 1281,
      "Ġmark": 1282,
      "ved": 1283,
      "Ġown": 1284,
      "ization": 1285,
      "rest": 1286,
      "Ġche": 1287,
      "ĠTo": 1288,
      "Ġkey": 1289,
      "Ġtext": 1290,
      "Ġredu": 1291,
      "Ġpositive": 1292,
      "Ġcare": 1293,
      "app": 1294,
      "Ġgood": 1295,
      "Ġgrou": 1296,
      "Ġlist": 1297,
      "Ġanal": 1298,
      "ield": 1299,
      "ustom": 1300,
      "ique": 1301,
      "sc": 1302,
      "pro": 1303,
      "Ġtake": 1304,
      "Ġbus": 1305,
      "Ġstep": 1306,
      "ery": 1307,
      "Ġ12": 1308,
      "Ġdown": 1309,
      "Ġreal": 1310,
      "ray": 1311,
      "Ġpur": 1312,
      "Ġ18": 1313,
      "Ġdon": 1314,
      "tal": 1315,
      "Ġpract": 1316,
      "ave": 1317,
      "rol": 1318,
      "Ġconn": 1319,
      "ven": 1320,
      "Ġschool": 1321,
      "ublic": 1322,
      "Ġexample": 1323,
      "over": 1324,
      "imate": 1325,
      "Ġtable": 1326,
      "Ġfam": 1327,
      "Ġimportant": 1328,
      "Ġmem": 1329,
      "Ġgl": 1330,
      "ĠCom": 1331,
      "vironment": 1332,
      "Ġinvol": 1333,
      "Ġsmall": 1334,
      "Ġiss": 1335,
      "Ġpop": 1336,
      "Ġhum": 1337,
      "par": 1338,
      "cond": 1339,
      "ross": 1340,
      "ert": 1341,
      "ask": 1342,
      "Ġindividual": 1343,
      "Ġ<": 1344,
      "ision": 1345,
      "ĠThese": 1346,
      "ĠSe": 1347,
      "ploy": 1348,
      "iving": 1349,
      "Ġbo": 1350,
      "ering": 1351,
      "Ġname": 1352,
      "Ġimpro": 1353,
      "Ġcurrent": 1354,
      "Ġbr": 1355,
      "vers": 1356,
      "ank": 1357,
      "Ġdr": 1358,
      "pen": 1359,
      "Ġfin": 1360,
      "12": 1361,
      "Ġwant": 1362,
      "oss": 1363,
      "uss": 1364,
      "Ġmet": 1365,
      "Ġplan": 1366,
      "Ġstand": 1367,
      "Ġuser": 1368,
      "ergy": 1369,
      "Ġel": 1370,
      "âĢĿ": 1371,
      "Ġagain": 1372,
      "Ġposs": 1373,
      "apt": 1374,
      "Ġrese": 1375,
      "Ġsignificant": 1376,
      "Ġcalcul": 1377,
      "Ġneg": 1378,
      "ars": 1379,
      "Ġdesc": 1380,
      "Ġprovide": 1381,
      "ration": 1382,
      "Ġmuch": 1383,
      "Ġvery": 1384,
      "19": 1385,
      "Ġcreat": 1386,
      "name": 1387,
      "Ġcontain": 1388,
      "^{": 1389,
      "anc": 1390,
      "Ġgreat": 1391,
      "Ġcontin": 1392,
      "IN": 1393,
      "Ġwithout": 1394,
      "ner": 1395,
      "Ġcreate": 1396,
      "Ġinteg": 1397,
      "Ġapplic": 1398,
      "ified": 1399,
      "day": 1400,
      "Ġless": 1401,
      "Ġspecific": 1402,
      "Ġthree": 1403,
      "**:": 1404,
      "Ġfile": 1405,
      "ug": 1406,
      "pos": 1407,
      "ĠSh": 1408,
      "Ġinc": 1409,
      "pect": 1410,
      "ocus": 1411,
      "tle": 1412,
      "land": 1413,
      "bs": 1414,
      "Ġactiv": 1415,
      "'re": 1416,
      "Ġsolution": 1417,
      "ior": 1418,
      "ental": 1419,
      "enef": 1420,
      "ĠDe": 1421,
      "Ġest": 1422,
      "ling": 1423,
      "oid": 1424,
      "Ġmaking": 1425,
      "Ġpotential": 1426,
      "ah": 1427,
      "Ġbased": 1428,
      "Ġz": 1429,
      "ĊĊ": 1430,
      "ĠHowever": 1431,
      "ames": 1432,
      "Ġdem": 1433,
      "Ġcour": 1434,
      "What": 1435,
      "Ġmade": 1436,
      "Ġess": 1437,
      "Ġchildren": 1438,
      "Ġorgan": 1439,
      "ared": 1440,
      "amp": 1441,
      "ense": 1442,
      "ote": 1443,
      "ĠThere": 1444,
      "ĠAnswer": 1445,
      "ocial": 1446,
      "Ġproject": 1447,
      "Ġprot": 1448,
      "Ġvarious": 1449,
      "AT": 1450,
      "Ġsaid": 1451,
      "Ġcommon": 1452,
      "_{": 1453,
      "acter": 1454,
      "Ġdue": 1455,
      "Ġ15": 1456,
      "Ġtem": 1457,
      "Ġwithin": 1458,
      "ills": 1459,
      "ĊĠĠĠĠĠĠĠĠĠĠĠĠĠĠĠ": 1460,
      "Ġi": 1461,
      "times": 1462,
      "Ġexpress": 1463,
      "Ġday": 1464,
      "Ġbeh": 1465,
      "---": 1466,
      "ĠSc": 1467,
      "Ġcost": 1468,
      "Ġprogram": 1469,
      "To": 1470,
      "Ġnow": 1471,
      "Ġbest": 1472,
      "Ġ\\]": 1473,
      "ulation": 1474,
      "ware": 1475,
      "ots": 1476,
      "less": 1477,
      "Ġbuild": 1478,
      "Ġaround": 1479,
      "Ġeas": 1480,
      "Ġlog": 1481,
      "omet": 1482,
      "Ġbusiness": 1483,
      "Ġtop": 1484,
      "Ġconsider": 1485,
      "Ġdel": 1486,
      "Ġer": 1487,
      "rect": 1488,
      "ences": 1489,
      "Ġfood": 1490,
      "aj": 1491,
      "AR": 1492,
      "Ġinclude": 1493,
      "view": 1494,
      "Ġrun": 1495,
      "ĠĠĠĠĠĠĠĠĠĠĠĠĠĠĠĠĠĠĠĠĠĠĠĠĠĠĠĠĠĠĠĠ": 1496,
      "Ġenvironment": 1497,
      "Ġexperience": 1498,
      "man": 1499,
      "Ġprom": 1500,
      "Ġsaf": 1501,
      "Ġtry": 1502,
      "way": 1503,
      "Ġmus": 1504,
      "sq": 1505,
      "ination": 1506,
      "Ġris": 1507,
      "ention": 1508,
      "Ġelect": 1509,
      "meric": 1510,
      ".,": 1511,
      "____": 1512,
      "atic": 1513,
      "hor": 1514,
      "âĢĵ": 1515,
      "Ġpass": 1516,
      "agement": 1517,
      "Ġmight": 1518,
      "ication": 1519,
      "Ġmodel": 1520,
      "Ġdeterm": 1521,
      "Ġ202": 1522,
      "ĠâĢľ": 1523,
      "right": 1524,
      "Ġobject": 1525,
      "Ġ/": 1526,
      "ffic": 1527,
      "ances": 1528,
      "ON": 1529,
      "ĠIs": 1530,
      "Ġsuccess": 1531,
      "Ġarea": 1532,
      "gs": 1533,
      "Ġfocus": 1534,
      "Ġsum": 1535,
      "Ġtoo": 1536,
      "Ġmean": 1537,
      "Ġaff": 1538,
      "ertain": 1539,
      "duct": 1540,
      "Ġhist": 1541,
      ",\"": 1542,
      "aterial": 1543,
      "ape": 1544,
      "ered": 1545,
      "ording": 1546,
      "Ġcustom": 1547,
      "Ġenergy": 1548,
      "Ġorder": 1549,
      "Ġeduc": 1550,
      "Ġter": 1551,
      "Ġbre": 1552,
      "Ġsl": 1553,
      "Ġinterest": 1554,
      "ta": 1555,
      "Ġaccess": 1556,
      "ples": 1557,
      "ĠPl": 1558,
      "Ġteam": 1559,
      "ĠTr": 1560,
      "Ġhome": 1561,
      "here": 1562,
      "Ġocc": 1563,
      "Ġide": 1564,
      "\":": 1565,
      "Wh": 1566,
      "###": 1567,
      "Ġbenef": 1568,
      "itial": 1569,
      "ables": 1570,
      "Ġtri": 1571,
      "Ġhim": 1572,
      "Ġtotal": 1573,
      "Ġcap": 1574,
      "Ġmeas": 1575,
      "Ġchang": 1576,
      "Ġwrit": 1577,
      "ĠAnd": 1578,
      "co": 1579,
      "tt": 1580,
      "cd": 1581,
      "ways": 1582,
      "ee": 1583,
      "Ġnon": 1584,
      "Ġdev": 1585,
      "Ġlit": 1586,
      "ouse": 1587,
      "Ġchange": 1588,
      "Ġstruct": 1589,
      "Ġnegative": 1590,
      "of": 1591,
      "11": 1592,
      "arent": 1593,
      "Ġlim": 1594,
      "Ġstudy": 1595,
      "50": 1596,
      "rt": 1597,
      "yn": 1598,
      "Ġcase": 1599,
      "Ġsecond": 1600,
      "Ġ->": 1601,
      "ource": 1602,
      "Ġensure": 1603,
      "Ġlight": 1604,
      "raph": 1605,
      "LE": 1606,
      "ĠSo": 1607,
      "Ġtool": 1608,
      "ead": 1609,
      "ĠCl": 1610,
      "ĠAmeric": 1611,
      "ĠNew": 1612,
      "âĢĶ": 1613,
      "Ġsent": 1614,
      "Ġplace": 1615,
      "ources": 1616,
      "ends": 1617,
      "ium": 1618,
      "iversity": 1619,
      "Ġpres": 1620,
      "ĠRes": 1621,
      "Pro": 1622,
      "Ġchall": 1623,
      "Ġkeep": 1624,
      "ards": 1625,
      "Ġvalues": 1626,
      "Ġbody": 1627,
      "ively": 1628,
      "rror": 1629,
      "ides": 1630,
      "mb": 1631,
      "rain": 1632,
      "Ġele": 1633,
      "atures": 1634,
      "Ġknown": 1635,
      "lish": 1636,
      "utions": 1637,
      "urns": 1638,
      "ished": 1639,
      "iod": 1640,
      "sh": 1641,
      "for": 1642,
      "requ": 1643,
      "ĠTe": 1644,
      "Ġphys": 1645,
      "Ġtype": 1646,
      "ats": 1647,
      "Con": 1648,
      "Ġinvest": 1649,
      "Ġmarket": 1650,
      "omen": 1651,
      "rix": 1652,
      "Ġtreat": 1653,
      "ik": 1654,
      "Ġrepresent": 1655,
      "Ġavail": 1656,
      "ending": 1657,
      "Ġ.": 1658,
      "Ġlearning": 1659,
      "Ġhy": 1660,
      "Ġpost": 1661,
      "Ġcomb": 1662,
      "Ġlast": 1663,
      "Ġenc": 1664,
      "erc": 1665,
      "ries": 1666,
      "Ġbetter": 1667,
      "ton": 1668,
      "inc": 1669,
      "atch": 1670,
      "Ġorig": 1671,
      "Ġpresent": 1672,
      "Ġrange": 1673,
      "Ġrest": 1674,
      "Ġthough": 1675,
      "Ġmaterial": 1676,
      "Ġopen": 1677,
      "Ġfeel": 1678,
      "ength": 1679,
      "au": 1680,
      "Ġunique": 1681,
      "angu": 1682,
      "Ġ\\).": 1683,
      "Ġinput": 1684,
      "lu": 1685,
      "Ġresults": 1686,
      "rite": 1687,
      "Ġcontrol": 1688,
      "Ġstill": 1689,
      "min": 1690,
      "play": 1691,
      "Ġstrateg": 1692,
      "Ġaddition": 1693,
      "work": 1694,
      "ories": 1695,
      "oring": 1696,
      "az": 1697,
      "Ġvol": 1698,
      "Ġdig": 1699,
      "ĠComm": 1700,
      "Ġremain": 1701,
      "Ġ:": 1702,
      "Ġgame": 1703,
      "Ġparticular": 1704,
      "imal": 1705,
      "Ġfac": 1706,
      "Ġdevelopment": 1707,
      "Ġthink": 1708,
      "ĠBy": 1709,
      "Ġresearch": 1710,
      "Error": 1711,
      "ients": 1712,
      "ES": 1713,
      "por": 1714,
      "Ġsocial": 1715,
      "Ġcult": 1716,
      "Ġimpact": 1717,
      "py": 1718,
      "Ġdat": 1719,
      "br": 1720,
      "Ġlarge": 1721,
      "Ġmove": 1722,
      "reen": 1723,
      "Ġessential": 1724,
      "Ġmov": 1725,
      "Ġans": 1726,
      "ĠEng": 1727,
      "ument": 1728,
      "Ġreport": 1729,
      "ume": 1730,
      "Ġsit": 1731,
      "\\]": 1732,
      "ilities": 1733,
      "ĠZ": 1734,
      "be": 1735,
      "Ġnumbers": 1736,
      "ieve": 1737,
      "Ġgroup": 1738,
      "Ġcru": 1739,
      "Ġunderstanding": 1740,
      "oot": 1741,
      "vert": 1742,
      "cur": 1743,
      "ended": 1744,
      "ems": 1745,
      "Ġrele": 1746,
      "ĠBut": 1747,
      "raw": 1748,
      "Ġrequire": 1749,
      "cdot": 1750,
      "Ġhead": 1751,
      "Ġland": 1752,
      "Ġemploy": 1753,
      "ights": 1754,
      "med": 1755,
      "aging": 1756,
      "ored": 1757,
      "oun": 1758,
      "ann": 1759,
      "Ġlook": 1760,
      "Ġmaintain": 1761,
      "Ġsupp": 1762,
      "ĠX": 1763,
      "Ġpublic": 1764,
      "icle": 1765,
      "Ġprofess": 1766,
      "Ġanother": 1767,
      "iple": 1768,
      "ditions": 1769,
      "me": 1770,
      "ĠNo": 1771,
      "15": 1772,
      "ived": 1773,
      "acher": 1774,
      "ĠIm": 1775,
      "urther": 1776,
      "Ġrelations": 1777,
      "Ġsing": 1778,
      "ibility": 1779,
      "conom": 1780,
      "Ġhig": 1781,
      "sqrt": 1782,
      "Ġgover": 1783,
      "Ġrole": 1784,
      "def": 1785,
      "How": 1786,
      "Ġlearn": 1787,
      "Ġcrit": 1788,
      "cer": 1789,
      "atural": 1790,
      "agn": 1791,
      "ilar": 1792,
      "orn": 1793,
      "olution": 1794,
      "Ġrece": 1795,
      "Ġcomput": 1796,
      "Ġhuman": 1797,
      "izing": 1798,
      "Ġ16": 1799,
      "Ġlet": 1800,
      "Ġgr": 1801,
      "Ġprob": 1802,
      "path": 1803,
      "Ġenh": 1804,
      "Ġair": 1805,
      "ently": 1806,
      "pre": 1807,
      "Ġcomplex": 1808,
      "ission": 1809,
      "30": 1810,
      "Ġcontent": 1811,
      "Ġneeds": 1812,
      "Ġsay": 1813,
      "Ġhere": 1814,
      "Ġavailable": 1815,
      "ledge": 1816,
      "verage": 1817,
      "ule": 1818,
      "Ġprovided": 1819,
      "Ġmeans": 1820,
      "Ġlaw": 1821,
      "nment": 1822,
      "Ġequation": 1823,
      "Ġprevent": 1824,
      "ĠCol": 1825,
      "Ġpossible": 1826,
      "ids": 1827,
      "Ġbas": 1828,
      "You": 1829,
      "Ġprim": 1830,
      "25": 1831,
      "ggest": 1832,
      "Ġfree": 1833,
      "Ġmonth": 1834,
      "Ġexcept": 1835,
      "Ġes": 1836,
      "ctions": 1837,
      "Ġapproach": 1838,
      "Ġlocal": 1839,
      "Ġleg": 1840,
      "ream": 1841,
      "not": 1842,
      "Ġspace": 1843,
      "Ġsever": 1844,
      "Ġagainst": 1845,
      "arget": 1846,
      "ysis": 1847,
      "oor": 1848,
      "ĠApp": 1849,
      "bo": 1850,
      "uture": 1851,
      "ek": 1852,
      "Ġcell": 1853,
      "ogn": 1854,
      "Ġpay": 1855,
      "onse": 1856,
      "Ġmar": 1857,
      "face": 1858,
      "Ġhapp": 1859,
      "Ġcrucial": 1860,
      "ĠWhen": 1861,
      "Ġscript": 1862,
      "rodu": 1863,
      "Ġcalled": 1864,
      "clus": 1865,
      "Ġdescrib": 1866,
      "Ġcode": 1867,
      "Ġcharacter": 1868,
      "ification": 1869,
      "It": 1870,
      "ours": 1871,
      "16": 1872,
      "math": 1873,
      "Ġnext": 1874,
      "ury": 1875,
      "Ġaddress": 1876,
      "ula": 1877,
      "Ġsystems": 1878,
      "pecial": 1879,
      "oms": 1880,
      "Ġsuggest": 1881,
      "Ġpersonal": 1882,
      "Ġ30": 1883,
      "Ġcorrect": 1884,
      "Ġsqu": 1885,
      "Ġperiod": 1886,
      "Ġtimes": 1887,
      "asing": 1888,
      "ething": 1889,
      "âĶĢâĶĢâĶĢâĶĢ": 1890,
      "}\\": 1891,
      "Ġterm": 1892,
      "Ġtre": 1893,
      "Ġcho": 1894,
      "Ġbook": 1895,
      "18": 1896,
      "omething": 1897,
      "iate": 1898,
      "Ġindust": 1899,
      "ember": 1900,
      "Ġcirc": 1901,
      "Ġclear": 1902,
      "ĠNone": 1903,
      "Ġimprove": 1904,
      "ole": 1905,
      "by": 1906,
      "CT": 1907,
      "Ġside": 1908,
      "stit": 1909,
      "Ġnet": 1910,
      "amet": 1911,
      "Ġstat": 1912,
      "Ġnecess": 1913,
      "SE": 1914,
      "ĠSp": 1915,
      "ivity": 1916,
      "Ġexam": 1917,
      "Ġview": 1918,
      "Ġfamily": 1919,
      "Ġlow": 1920,
      "ĠPh": 1921,
      "utes": 1922,
      "gin": 1923,
      "Ġeffic": 1924,
      "We": 1925,
      "Ġindic": 1926,
      "Ġseveral": 1927,
      "Ġmess": 1928,
      "Ġrecord": 1929,
      "outh": 1930,
      "Ġrelationship": 1931,
      "ĠShe": 1932,
      "ĠEn": 1933,
      "ised": 1934,
      "left": 1935,
      "rand": 1936,
      "Ġ14": 1937,
      "aster": 1938,
      "ĠQ": 1939,
      "If": 1940,
      "ane": 1941,
      "Ġexist": 1942,
      "ctor": 1943,
      "fer": 1944,
      "Ex": 1945,
      "Ġgen": 1946,
      "Ġpain": 1947,
      "14": 1948,
      "anguage": 1949,
      "Ġdetail": 1950,
      "hemat": 1951,
      "EN": 1952,
      "ured": 1953,
      "RO": 1954,
      "oh": 1955,
      "imum": 1956,
      "Ġworks": 1957,
      "rop": 1958,
      "ges": 1959,
      "Ġpoints": 1960,
      "Ġfund": 1961,
      "}\")": 1962,
      "ooking": 1963,
      "ope": 1964,
      "Ġbehav": 1965,
      "Ġalways": 1966,
      "idence": 1967,
      "Ġ100": 1968,
      "Ġtask": 1969,
      "Ġsw": 1970,
      "ption": 1971,
      "Ġfield": 1972,
      "Ġsomething": 1973,
      "----------------": 1974,
      "=\"": 1975,
      "Ġang": 1976,
      "QL": 1977,
      "Ġdiscuss": 1978,
      "aut": 1979,
      "place": 1980,
      "time": 1981,
      "Ġintern": 1982,
      "Ġcr": 1983,
      "Ġprovides": 1984,
      "Ġcompany": 1985,
      "ey": 1986,
      "ler": 1987,
      "Ġspecial": 1988,
      "Ġfew": 1989,
      "anced": 1990,
      "Ġconcept": 1991,
      "Ġsize": 1992,
      "Ġchalleng": 1993,
      "Ġfour": 1994,
      "Ġconditions": 1995,
      "af": 1996,
      "Ġold": 1997,
      "Ġpress": 1998,
      "istic": 1999,
      "Ġproblems": 2000,
      "Ġissues": 2001,
      "Ġmax": 2002,
      "Ġwhy": 2003,
      "iting": 2004,
      "aces": 2005,
      "Ġpath": 2006,
      "Ġcolum": 2007,
      "pi": 2008,
      "Ġbecome": 2009,
      "Ġoccur": 2010,
      "Ġcaus": 2011,
      "ĠOr": 2012,
      "Ġamount": 2013,
      "ĠĠĠĠĠ": 2014,
      "Ġthings": 2015,
      "Ġsince": 2016,
      "Ġcontrib": 2017,
      "angle": 2018,
      "ooks": 2019,
      "Ġrequired": 2020,
      "Ġach": 2021,
      "oney": 2022,
      "Ġmil": 2023,
      "ibr": 2024,
      "ipp": 2025,
      "Ġinitial": 2026,
      "Ġrisk": 2027,
      "ird": 2028,
      "Ġvers": 2029,
      "{\\": 2030,
      "Ġ\\(\\": 2031,
      "13": 2032,
      "Ġaccount": 2033,
      "Ġcourse": 2034,
      "',": 2035,
      "Ġlab": 2036,
      "Ġacross": 2037,
      "Ġ\\,": 2038,
      "Ġleft": 2039,
      "Ġareas": 2040,
      "ajor": 2041,
      "Ġskills": 2042,
      "========": 2043,
      "vious": 2044,
      "Ġrespons": 2045,
      "Ġgrowth": 2046,
      "ators": 2047,
      "Ġalong": 2048,
      "Ġquestion": 2049,
      "cle": 2050,
      "Ġmot": 2051,
      "ĠRet": 2052,
      "Ġreason": 2053,
      "Ġrad": 2054,
      "Ġothers": 2055,
      "ush": 2056,
      "Ġrate": 2057,
      "ference": 2058,
      "OR": 2059,
      "Ġperformance": 2060,
      "lection": 2061,
      "action": 2062,
      "ĠAI": 2063,
      "set": 2064,
      "ST": 2065,
      "illion": 2066,
      "Ġevent": 2067,
      "Ġworking": 2068,
      "Ġhard": 2069,
      "ises": 2070,
      "Ġbro": 2071,
      "osed": 2072,
      "mat": 2073,
      "Ġ17": 2074,
      "Ġsal": 2075,
      "ĠPr": 2076,
      "Ġfuture": 2077,
      "........": 2078,
      "Ġterms": 2079,
      "Ġnatural": 2080,
      "estions": 2081,
      "ser": 2082,
      "))": 2083,
      "ograph": 2084,
      "Ġ11": 2085,
      "ney": 2086,
      "lying": 2087,
      "}}": 2088,
      "],": 2089,
      "Ġfore": 2090,
      "AN": 2091,
      "Ġ13": 2092,
      "Ġstrong": 2093,
      "Ġ\\),": 2094,
      "Ġindividuals": 2095,
      "For": 2096,
      "Ġquery": 2097,
      "Ġappear": 2098,
      "Ġauthor": 2099,
      "alk": 2100,
      "Ġ>": 2101,
      "Ġanswer": 2102,
      "Ġsingle": 2103,
      "Ġ199": 2104,
      "Ġant": 2105,
      "Ġcomplete": 2106,
      "Ġusers": 2107,
      "`,": 2108,
      "ĠLe": 2109,
      "Ġassoci": 2110,
      "ires": 2111,
      "cing": 2112,
      "ring": 2113,
      "date": 2114,
      "ĠCan": 2115,
      "Ġcertain": 2116,
      "Ġcommunity": 2117,
      "ancial": 2118,
      "Ġâ": 2119,
      "let": 2120,
      "ĠSu": 2121,
      "til": 2122,
      "à¥": 2123,
      "ina": 2124,
      "orts": 2125,
      "idd": 2126,
      "Ġexperi": 2127,
      "aring": 2128,
      "ological": 2129,
      "Ġquality": 2130,
      "Ġimplement": 2131,
      "Ġreally": 2132,
      "ma": 2133,
      "pportun": 2134,
      "Ġcy": 2135,
      "Ġdistrib": 2136,
      "Ġ25": 2137,
      "Ġposition": 2138,
      "Ġexerc": 2139,
      "Ġlength": 2140,
      "rad": 2141,
      "Ġabove": 2142,
      "ĠVal": 2143,
      "ĠBl": 2144,
      "cos": 2145,
      "Ġdays": 2146,
      "Ġarg": 2147,
      "Ġpred": 2148,
      "Ch": 2149,
      "Ġpa": 2150,
      "'ve": 2151,
      "Ġeconom": 2152,
      "atter": 2153,
      "'m": 2154,
      "Ġgoing": 2155,
      "tep": 2156,
      "ĠWith": 2157,
      "plic": 2158,
      "Ġchanges": 2159,
      "etic": 2160,
      "Ġtemper": 2161,
      "Ġoutput": 2162,
      "Ġflow": 2163,
      "obal": 2164,
      "wards": 2165,
      "thing": 2166,
      "pose": 2167,
      "Ġservice": 2168,
      "Ġcome": 2169,
      "Ġparent": 2170,
      "yle": 2171,
      "Ġ$,": 2172,
      "rict": 2173,
      "ĠIndia": 2174,
      "Ġcheck": 2175,
      "Ġà¤": 2176,
      "orth": 2177,
      "ditional": 2178,
      "data": 2179,
      "Ġet": 2180,
      "Ġfurther": 2181,
      "Ġmakes": 2182,
      "Ġsure": 2183,
      "ID": 2184,
      "ores": 2185,
      "Ġservices": 2186,
      "Ġleast": 2187,
      "'ll": 2188,
      "Ġtarget": 2189,
      "Ġfull": 2190,
      "Ġdiff": 2191,
      "udent": 2192,
      "ĠOn": 2193,
      "ym": 2194,
      "ither": 2195,
      "ĊĠĠĠĠĠĠĠĠĠĠĠĠĠĠĠĠ": 2196,
      "Ġrespect": 2197,
      "uro": 2198,
      "As": 2199,
      "Ġtraining": 2200,
      "Ġimage": 2201,
      "ĠMan": 2202,
      "ĠThat": 2203,
      "Ġage": 2204,
      "icip": 2205,
      "Ġclean": 2206,
      "Ġdise": 2207,
      "Ġapplication": 2208,
      "part": 2209,
      "Ġnorm": 2210,
      "oura": 2211,
      "Ġtechnology": 2212,
      "abase": 2213,
      "ones": 2214,
      "An": 2215,
      "ival": 2216,
      "orld": 2217,
      "iation": 2218,
      "roll": 2219,
      "Ġhigher": 2220,
      "Ġhistory": 2221,
      "Ġdiv": 2222,
      "Ġoffer": 2223,
      "Ġshort": 2224,
      "Ġwhether": 2225,
      "Ġonline": 2226,
      "Ġallows": 2227,
      "ging": 2228,
      "mit": 2229,
      "Ġproducts": 2230,
      "Ġinflu": 2231,
      "ĠUS": 2232,
      "oose": 2233,
      "Ġcause": 2234,
      "Ġwar": 2235,
      "atform": 2236,
      "une": 2237,
      "Ġcommand": 2238,
      "Ġable": 2239,
      "Ġincrease": 2240,
      "Ġopportun": 2241,
      "from": 2242,
      "lab": 2243,
      "Ġamong": 2244,
      "Ġmanagement": 2245,
      "Ġsimilar": 2246,
      "sing": 2247,
      "Ġsimple": 2248,
      "ĠAss": 2249,
      "Ġanaly": 2250,
      "ming": 2251,
      "ising": 2252,
      "AL": 2253,
      "iver": 2254,
      "Ġgive": 2255,
      "lished": 2256,
      "ches": 2257,
      "ably": 2258,
      "Ġmeet": 2259,
      "Ġfri": 2260,
      "Ġdam": 2261,
      "Ġsoft": 2262,
      "fort": 2263,
      "thon": 2264,
      "ties": 2265,
      "fl": 2266,
      "Ġgovernment": 2267,
      "17": 2268,
      "Ġearly": 2269,
      "ero": 2270,
      "Ġselect": 2271,
      "equ": 2272,
      "Ġput": 2273,
      ")^": 2274,
      "iment": 2275,
      "raft": 2276,
      "Ġwomen": 2277,
      "ĠUniversity": 2278,
      "osp": 2279,
      "ĠBe": 2280,
      "alse": 2281,
      "Ġavoid": 2282,
      "uation": 2283,
      "Ġder": 2284,
      "ĠAll": 2285,
      "rel": 2286,
      "Ġlevels": 2287,
      "ĠInt": 2288,
      "Ġformula": 2289,
      "Ġloss": 2290,
      "Ġtrac": 2291,
      "Ġmultiple": 2292,
      "Ġerror": 2293,
      "ĠYour": 2294,
      "ips": 2295,
      "Ġmajor": 2296,
      "oat": 2297,
      "rist": 2298,
      "Ġaccording": 2299,
      "pecially": 2300,
      "Ġfeatures": 2301,
      "ystem": 2302,
      "inary": 2303,
      "Ġfrequ": 2304,
      "Ġvide": 2305,
      "Ġsat": 2306,
      "Ġconnect": 2307,
      "ok": 2308,
      "Ġnear": 2309,
      "Ġhelps": 2310,
      ");": 2311,
      "serv": 2312,
      "Ġ$\\": 2313,
      "Ġactivities": 2314,
      "ians": 2315,
      "ĠSQL": 2316,
      "Ġlot": 2317,
      "Ġtypes": 2318,
      "Ġeducation": 2319,
      "use": 2320,
      "Ġengine": 2321,
      "Ġoffers": 2322,
      "Ġuntil": 2323,
      "Ġseries": 2324,
      "omes": 2325,
      "Ġlanguage": 2326,
      "Ġ50": 2327,
      "Ġcompon": 2328,
      "Ġfail": 2329,
      "ready": 2330,
      "tr": 2331,
      "Ġmethods": 2332,
      "Ġfunctions": 2333,
      "Ġver": 2334,
      "Ġcontext": 2335,
      "ruction": 2336,
      "Ġweight": 2337,
      "(\\": 2338,
      "Ġresponse": 2339,
      "Ġelse": 2340,
      "Ġnecessary": 2341,
      "ĠCent": 2342,
      "gether": 2343,
      "Ġtogether": 2344,
      "Ġsens": 2345,
      "Ġanalysis": 2346,
      "Ġfactors": 2347,
      "Ġbal": 2348,
      "Ġhaving": 2349,
      "40": 2350,
      "icult": 2351,
      "Ġaud": 2352,
      "ĠList": 2353,
      "Ġmind": 2354,
      "ĠAmerican": 2355,
      "Ġpercent": 2356,
      "iction": 2357,
      "bra": 2358,
      "ged": 2359,
      "Ġphysical": 2360,
      "epend": 2361,
      "Ġbi": 2362,
      "ression": 2363,
      "mathb": 2364,
      "Ġdeg": 2365,
      "Ġport": 2366,
      "Ġlay": 2367,
      "ze": 2368,
      "\\).": 2369,
      "ene": 2370,
      "ĠDes": 2371,
      "ĠCont": 2372,
      "Ġstructure": 2373,
      "Ġ}": 2374,
      "aching": 2375,
      "ĠOne": 2376,
      "Ġconsum": 2377,
      "Ġjob": 2378,
      "aps": 2379,
      "Ġknowledge": 2380,
      "ĠReg": 2381,
      "RE": 2382,
      "Ġwrite": 2383,
      "Ġblood": 2384,
      "igns": 2385,
      "file": 2386,
      "Ġfinancial": 2387,
      "OT": 2388,
      "Ġgeneral": 2389,
      "aim": 2390,
      "Ġmen": 2391,
      "Ġrecomm": 2392,
      "60": 2393,
      "ĠUnited": 2394,
      "When": 2395,
      "Ġquestions": 2396,
      "Ġcompet": 2397,
      "Ġwords": 2398,
      "Ġdoc": 2399,
      "Ġdetermine": 2400,
      "Ġsym": 2401,
      "Ġill": 2402,
      "Ġestab": 2403,
      "Ġstandard": 2404,
      "itud": 2405,
      "ief": 2406,
      "Ġeffective": 2407,
      "resp": 2408,
      "ift": 2409,
      "Ġlower": 2410,
      "log": 2411,
      "Ġvalid": 2412,
      "ules": 2413,
      "elling": 2414,
      "inter": 2415,
      "Ġwon": 2416,
      "acy": 2417,
      "Ġplant": 2418,
      "Ġbreak": 2419,
      "nces": 2420,
      "Ġalready": 2421,
      "Ġstudent": 2422,
      "Ġey": 2423,
      "Ġcountry": 2424,
      "Ġmoney": 2425,
      "ription": 2426,
      "Ġprimary": 2427,
      "Ġspeed": 2428,
      "ĠAt": 2429,
      "Ġdog": 2430,
      "omin": 2431,
      "Ġdatabase": 2432,
      "Ġparticip": 2433,
      "Ġstory": 2434,
      "Ġespecially": 2435,
      "`.": 2436,
      "Ġplatform": 2437,
      "ĠPre": 2438,
      "ai": 2439,
      "itle": 2440,
      "ĠLet": 2441,
      "rior": 2442,
      "Ġyoung": 2443,
      "reng": 2444,
      "Ġoriginal": 2445,
      "Ġlittle": 2446,
      "Ġlikely": 2447,
      "ception": 2448,
      "alf": 2449,
      "Ġoffic": 2450,
      "igure": 2451,
      "my": 2452,
      "Ġcontinu": 2453,
      "ĠâĢĶ": 2454,
      "word": 2455,
      "</": 2456,
      "Ġabs": 2457,
      "sin": 2458,
      "ĠWhile": 2459,
      "ĠDis": 2460,
      "ĠFe": 2461,
      "Ġelements": 2462,
      "Ġjour": 2463,
      "Ġbegin": 2464,
      "aling": 2465,
      "Ġresources": 2466,
      "Ġcreating": 2467,
      "Ġcolor": 2468,
      "ump": 2469,
      "rams": 2470,
      "Ġtools": 2471,
      "Ġann": 2472,
      "Ġbenefits": 2473,
      "Ġaverage": 2474,
      "istance": 2475,
      "aken": 2476,
      "Ġincludes": 2477,
      "fact": 2478,
      "Ġask": 2479,
      "Ġmass": 2480,
      "Ġdesigned": 2481,
      "Ġcases": 2482,
      "like": 2483,
      "light": 2484,
      "Ġwind": 2485,
      "aff": 2486,
      "Ġnever": 2487,
      "Ġbig": 2488,
      "Ġsteps": 2489,
      "izes": 2490,
      "side": 2491,
      "Ġreduce": 2492,
      "ĠDo": 2493,
      "Ġbase": 2494,
      "Ġtrue": 2495,
      "Ġge": 2496,
      "Ġwebs": 2497,
      "Ġparticularly": 2498,
      "amed": 2499,
      "back": 2500,
      "Ġ$.": 2501,
      "fess": 2502,
      "Ġleading": 2503,
      "ault": 2504,
      "Ġdoesn": 2505,
      "icro": 2506,
      "load": 2507,
      "24": 2508,
      "onstr": 2509,
      "just": 2510,
      "based": 2511,
      "Ġaway": 2512,
      "Ġrecogn": 2513,
      "Ġ24": 2514,
      "Ġrequest": 2515,
      "ĠEm": 2516,
      "Ġregular": 2517,
      "Ġsequ": 2518,
      "Ġhours": 2519,
      "Ġheart": 2520,
      "Ġexec": 2521,
      "Ġpopular": 2522,
      "mber": 2523,
      "Ġpast": 2524,
      "resh": 2525,
      "ĠĠĠĠĠĠ": 2526,
      "âĢ¦": 2527,
      "chan": 2528,
      "Ġconsist": 2529,
      "ĠMin": 2530,
      "uration": 2531,
      "amb": 2532,
      "Ġuses": 2533,
      "joy": 2534,
      "Ġsubject": 2535,
      "Ġoverall": 2536,
      "aries": 2537,
      "Ġsense": 2538,
      "Ġweek": 2539,
      "Ġturn": 2540,
      "Ġproviding": 2541,
      "Ġprotect": 2542,
      "Ġsuccessful": 2543,
      "Ġwide": 2544,
      "Ġmusic": 2545,
      "Ġword": 2546,
      "Ġquick": 2547,
      "Ġdifference": 2548,
      "lex": 2549,
      "Ġtreatment": 2550,
      "Ġpack": 2551,
      "\"\"\"": 2552,
      "Ġproduction": 2553,
      "lease": 2554,
      "Ġaction": 2555,
      "Ġequal": 2556,
      "Ġmathemat": 2557,
      "Ġidentify": 2558,
      "Ġclose": 2559,
      "ĠHere": 2560,
      "Ġimm": 2561,
      "Ġpolic": 2562,
      "Ġemot": 2563,
      "Ġsound": 2564,
      "Ġspecies": 2565,
      "Ġcondition": 2566,
      "Ġeval": 2567,
      "Student": 2568,
      "Ġteacher": 2569,
      "Ġ==": 2570,
      "IT": 2571,
      "Ġdifficult": 2572,
      "Ġgraph": 2573,
      "Ġtypically": 2574,
      "mod": 2575,
      "Ġways": 2576,
      "curity": 2577,
      "fect": 2578,
      "Ġbehavior": 2579,
      "Ġpopulation": 2580,
      "ipl": 2581,
      "atives": 2582,
      "Ġdone": 2583,
      "Ġindustry": 2584,
      "Ġhol": 2585,
      "Ġexplain": 2586,
      "Ġintrodu": 2587,
      "Ġpractice": 2588,
      "ĠMe": 2589,
      "ott": 2590,
      "Ġability": 2591,
      "Ad": 2592,
      "Ġnumer": 2593,
      "ison": 2594,
      "Ġ\\[": 2595,
      "80": 2596,
      "ĠCons": 2597,
      "nov": 2598,
      "ister": 2599,
      "ithm": 2600,
      "imately": 2601,
      "inking": 2602,
      "Ġfar": 2603,
      "raction": 2604,
      "Ġraise": 2605,
      "Ġmeasure": 2606,
      "Ġphot": 2607,
      "ĠMar": 2608,
      "Ġkind": 2609,
      "$.": 2610,
      "Ġenough": 2611,
      "ĠMed": 2612,
      "There": 2613,
      "Ġsolve": 2614,
      "Ġinstall": 2615,
      "aves": 2616,
      "cher": 2617,
      "Ġdate": 2618,
      "Ġgain": 2619,
      "Ġsimpl": 2620,
      "uck": 2621,
      "Ġlo": 2622,
      "Ġexercise": 2623,
      "leep": 2624,
      "Ġlater": 2625,
      "ĠFr": 2626,
      "ites": 2627,
      "Ġeither": 2628,
      "ĠQu": 2629,
      "Ġtoday": 2630,
      "ĠSome": 2631,
      "Ġred": 2632,
      "ields": 2633,
      "ox": 2634,
      "ately": 2635,
      "ension": 2636,
      "Ġtravel": 2637,
      "hy": 2638,
      "umber": 2639,
      "ĠGod": 2640,
      "istics": 2641,
      "Ġhouse": 2642,
      "Ġsquare": 2643,
      "Ġmaterials": 2644,
      "Ġut": 2645,
      "Ġcannot": 2646,
      "Ġsafety": 2647,
      "Ġassociated": 2648,
      "Ġpolit": 2649,
      "Ġsentence": 2650,
      "ĠReturns": 2651,
      "Ġcut": 2652,
      "Ġsource": 2653,
      "ilt": 2654,
      "Ġregard": 2655,
      "Ġinstance": 2656,
      "Ġaffect": 2657,
      "ground": 2658,
      "Ġ,": 2659,
      "Ġintegr": 2660,
      "ĠGu": 2661,
      "Ġproperty": 2662,
      "ership": 2663,
      "hens": 2664,
      "avor": 2665,
      "Ġinvolves": 2666,
      "ĠPar": 2667,
      "Ġstreng": 2668,
      "gor": 2669,
      "osing": 2670,
      "Ġstring": 2671,
      "\".": 2672,
      "ĠÂ": 2673,
      "empt": 2674,
      "Ġmessage": 2675,
      "acks": 2676,
      "Ġprevious": 2677,
      "Ġpressure": 2678,
      "Ġsearch": 2679,
      "iency": 2680,
      "Ġcity": 2681,
      "Ġrelated": 2682,
      "Ġlove": 2683,
      "Ġsurface": 2684,
      "td": 2685,
      "ĠNe": 2686,
      "Part": 2687,
      "uments": 2688,
      "ned": 2689,
      "Ġtas": 2690,
      "AM": 2691,
      "Ġdemonstr": 2692,
      "Ġprofessional": 2693,
      "Ġfinal": 2694,
      "ding": 2695,
      "Ġbuilding": 2696,
      "Ġenhance": 2697,
      "sequ": 2698,
      "Ġden": 2699,
      "Ġglobal": 2700,
      "Ġconstant": 2701,
      "ĠâĢ¢": 2702,
      "aches": 2703,
      "augh": 2704,
      "Ġmach": 2705,
      "aily": 2706,
      "Ġsecurity": 2707,
      "AS": 2708,
      "idered": 2709,
      "Ġdraw": 2710,
      "Ġenjoy": 2711,
      "eral": 2712,
      "Ġchallenges": 2713,
      "Ġevents": 2714,
      "Ġnut": 2715,
      "22": 2716,
      "ĠCar": 2717,
      "Ġmembers": 2718,
      "Ġsafe": 2719,
      "iques": 2720,
      "Ġfram": 2721,
      "Ġnp": 2722,
      "Ġnature": 2723,
      "ĠGo": 2724,
      "Ġensuring": 2725,
      "ĠRep": 2726,
      "Ġneeded": 2727,
      "Ġprice": 2728,
      "ĠSchool": 2729,
      "Ġprinc": 2730,
      "ditionally": 2731,
      "Ġdisplay": 2732,
      "Ġcal": 2733,
      "Ġcommit": 2734,
      "pri": 2735,
      "Ġdigital": 2736,
      "Ġquant": 2737,
      "ĠStates": 2738,
      "Ġoptions": 2739,
      "ensive": 2740,
      "Ġsuper": 2741,
      "atory": 2742,
      "Ġrow": 2743,
      "vant": 2744,
      "erson": 2745,
      "Ġground": 2746,
      "Ġmedia": 2747,
      "ĠTra": 2748,
      "ĠOpt": 2749,
      "Ġforce": 2750,
      "Ġparamet": 2751,
      "reg": 2752,
      "Ġfeed": 2753,
      "Ġdistance": 2754,
      "Ġstates": 2755,
      "Ġeasy": 2756,
      "ĠMay": 2757,
      "Ġconsidered": 2758,
      "Ġaim": 2759,
      "Ġmention": 2760,
      "Ġgroups": 2761,
      "Ġencoura": 2762,
      "illed": 2763,
      "Ġeffects": 2764,
      "ĠPart": 2765,
      "alls": 2766,
      "Ġcapt": 2767,
      "Ġobserv": 2768,
      "Ġonce": 2769,
      "Ġpurpose": 2770,
      "Ġapprox": 2771,
      "Ġsepar": 2772,
      "theta": 2773,
      "Ġarr": 2774,
      "Ġinteract": 2775,
      "Al": 2776,
      "Ġur": 2777,
      "Ġstress": 2778,
      "Ġfactor": 2779,
      "Ġtemperature": 2780,
      "Ġrather": 2781,
      "\\),": 2782,
      "sy": 2783,
      "ils": 2784,
      "go": 2785,
      "arr": 2786,
      "itor": 2787,
      "ĠNational": 2788,
      "standing": 2789,
      "Ġscient": 2790,
      "ĠAct": 2791,
      "ĠUse": 2792,
      "Te": 2793,
      "Ġpriv": 2794,
      "aving": 2795,
      "Ġdefin": 2796,
      "Ġtax": 2797,
      "uted": 2798,
      "Ġreview": 2799,
      "ening": 2800,
      "Ġdeep": 2801,
      "ĠStud": 2802,
      "ĠCO": 2803,
      "sp": 2804,
      "oll": 2805,
      "________": 2806,
      "ront": 2807,
      "Ġ40": 2808,
      "ĠPer": 2809,
      "Ġsomeone": 2810,
      "Ġsolutions": 2811,
      "ĠCo": 2812,
      "Ġmom": 2813,
      "Ġlive": 2814,
      "isf": 2815,
      "Ġautom": 2816,
      "Ġparts": 2817,
      "clusion": 2818,
      "Ġaspect": 2819,
      "ION": 2820,
      "ees": 2821,
      "Ġload": 2822,
      "elves": 2823,
      "aced": 2824,
      "Ġvir": 2825,
      "cell": 2826,
      "where": 2827,
      "200": 2828,
      "ordin": 2829,
      "23": 2830,
      "Ġcomes": 2831,
      "ĠArgs": 2832,
      "Ġseen": 2833,
      "Ġcollect": 2834,
      "Ġachieve": 2835,
      "ĠSim": 2836,
      "artment": 2837,
      "ĠChrist": 2838,
      "CH": 2839,
      "array": 2840,
      "ceed": 2841,
      "ĠPy": 2842,
      "cy": 2843,
      "Ġoperations": 2844,
      "Ġcreated": 2845,
      "Ġentire": 2846,
      "Ġmillion": 2847,
      "orks": 2848,
      "att": 2849,
      "emic": 2850,
      "Ġunit": 2851,
      "Ġbar": 2852,
      "ender": 2853,
      "ley": 2854,
      "Ġassess": 2855,
      "isions": 2856,
      "Ġbelow": 2857,
      "itude": 2858,
      "Ġpaper": 2859,
      "gen": 2860,
      "ĠIN": 2861,
      "Ġface": 2862,
      "ows": 2863,
      "stain": 2864,
      "mbol": 2865,
      "Ġissue": 2866,
      "ĠEar": 2867,
      "otal": 2868,
      "ĠAf": 2869,
      "fficient": 2870,
      "iverse": 2871,
      "li": 2872,
      "Ġmedical": 2873,
      "ĠChe": 2874,
      "Ġapplications": 2875,
      "Ġdisease": 2876,
      "pite": 2877,
      "ĠAm": 2878,
      "Ġfilm": 2879,
      "Ġcompan": 2880,
      "Ġla": 2881,
      "Ġfive": 2882,
      "ands": 2883,
      "ynam": 2884,
      "wh": 2885,
      "Ġreflect": 2886,
      "aged": 2887,
      "urope": 2888,
      "Ġactually": 2889,
      "Ġprior": 2890,
      "point": 2891,
      "$,": 2892,
      "Ġcritical": 2893,
      "Ġmodels": 2894,
      "Ġ)": 2895,
      "Ġseason": 2896,
      "ĠState": 2897,
      "oration": 2898,
      "ops": 2899,
      "Ġpie": 2900,
      "mediate": 2901,
      "Ġmatrix": 2902,
      "ĠAfter": 2903,
      "Ġvideo": 2904,
      "Ġshare": 2905,
      "het": 2906,
      "Ġwriting": 2907,
      "come": 2908,
      "ĠMod": 2909,
      "though": 2910,
      "ales": 2911,
      "earch": 2912,
      "Ġsustain": 2913,
      "ĠĠĊ": 2914,
      "duc": 2915,
      "Ġlooking": 2916,
      "Ġblock": 2917,
      "know": 2918,
      "Ġdeb": 2919,
      "ched": 2920,
      "Ġadditional": 2921,
      "ĠJoh": 2922,
      "Ġproperties": 2923,
      "ype": 2924,
      "mon": 2925,
      "Ġnormal": 2926,
      "Ġsoftware": 2927,
      "Ġactivity": 2928,
      "class": 2929,
      "Ġarticle": 2930,
      "rec": 2931,
      "Ġcred": 2932,
      "Ġelement": 2933,
      "Ġappropri": 2934,
      "most": 2935,
      "itch": 2936,
      "lege": 2937,
      "ĠFl": 2938,
      "pper": 2939,
      "Ġtakes": 2940,
      "minist": 2941,
      "Re": 2942,
      "Ġlimit": 2943,
      "Ġstatement": 2944,
      "Ġwhole": 2945,
      "ĠComp": 2946,
      "ED": 2947,
      "Ġthing": 2948,
      "Ġmeaning": 2949,
      "ĠWorld": 2950,
      "Ġincreasing": 2951,
      "Ġ\\\\": 2952,
      "Ġclaim": 2953,
      "Ġfit": 2954,
      "ĠDr": 2955,
      "Ġemb": 2956,
      "Ġaccept": 2957,
      "Ġusually": 2958,
      "Ġliving": 2959,
      "Ġformat": 2960,
      "Ġexpression": 2961,
      "ĠNot": 2962,
      "ĠWhich": 2963,
      "IC": 2964,
      "eful": 2965,
      "Ġcolumn": 2966,
      "su": 2967,
      "Ġtaking": 2968,
      "Ġtransform": 2969,
      "Ġdefined": 2970,
      "Ġhold": 2971,
      "Ġbir": 2972,
      "order": 2973,
      "encies": 2974,
      "Ġmodern": 2975,
      "Ã©": 2976,
      "new": 2977,
      "Ġexact": 2978,
      "Ġflu": 2979,
      "Ġcontains": 2980,
      "ĠEnglish": 2981,
      "gebra": 2982,
      "Ġpage": 2983,
      "Ġanim": 2984,
      "Ġappl": 2985,
      "Ġcat": 2986,
      "ĠPol": 2987,
      "Ġnamed": 2988,
      "orem": 2989,
      "Ġdeath": 2990,
      "Ġheat": 2991,
      "ilit": 2992,
      "ober": 2993,
      "Ġconduct": 2994,
      "Ġstrategies": 2995,
      "Ġwebsite": 2996,
      "Ġmonths": 2997,
      "Ġcorresp": 2998,
      "Ġplants": 2999,
      "Ġidea": 3000,
      "Ġcateg": 3001,
      "70": 3002,
      "col": 3003,
      "ele": 3004,
      "Ġguid": 3005,
      "Ġcou": 3006,
      "hol": 3007,
      "Ġprobability": 3008,
      "Ġnetwork": 3009,
      "Ġsoci": 3010,
      "Ġveh": 3011,
      "matrix": 3012,
      "Ġminutes": 3013,
      "Ġtraditional": 3014,
      "Ġexpected": 3015,
      "opy": 3016,
      "Ġskin": 3017,
      "Ġcommunication": 3018,
      "Ġlines": 3019,
      "ufact": 3020,
      "Ġcustomer": 3021,
      "Ġvariable": 3022,
      "ĠGener": 3023,
      "rap": 3024,
      "Ġgot": 3025,
      "Ġscience": 3026,
      "astic": 3027,
      "100": 3028,
      "ĠEurope": 3029,
      "ĠAcc": 3030,
      "irection": 3031,
      "ls": 3032,
      "Ġefficient": 3033,
      "urs": 3034,
      "oon": 3035,
      "ixed": 3036,
      "Com": 3037,
      "anks": 3038,
      "na": 3039,
      "Ġprec": 3040,
      "iring": 3041,
      "Ġbound": 3042,
      "ball": 3043,
      "ĠSub": 3044,
      "ĊĠĠĠĠĠĠĠĠĠĠĠĠĠĠĠĠĠĠĠ": 3045,
      "ounter": 3046,
      "Ġfoot": 3047,
      "met": 3048,
      "add": 3049,
      "Ġdistribution": 3050,
      "uel": 3051,
      "Ġbit": 3052,
      "Ġcamp": 3053,
      "Ġfamil": 3054,
      "Ġmechan": 3055,
      "Ġequations": 3056,
      "Ġpub": 3057,
      "Ġconvers": 3058,
      "Ġopp": 3059,
      "Ġgoal": 3060,
      "Ġlif": 3061,
      "Ġdirectly": 3062,
      "oman": 3063,
      "icles": 3064,
      "Ġmiss": 3065,
      "//": 3066,
      "wise": 3067,
      "99": 3068,
      "Ġcells": 3069,
      "}{\\": 3070,
      "ĠHealth": 3071,
      "Ġstay": 3072,
      "ply": 3073,
      "Â°": 3074,
      "head": 3075,
      "Ġconc": 3076,
      "ulations": 3077,
      "room": 3078,
      "unction": 3079,
      "hing": 3080,
      "ĠDef": 3081,
      "Ġconfig": 3082,
      "ĠTherefore": 3083,
      "Ġmatch": 3084,
      "hib": 3085,
      "Ġexplore": 3086,
      "overed": 3087,
      "Ġshows": 3088,
      "ĠĠĊĠĠ": 3089,
      "Ġtechniques": 3090,
      "Ġbuy": 3091,
      "Ġreading": 3092,
      "orpor": 3093,
      "Ġincreased": 3094,
      "Ġsn": 3095,
      "ĠMon": 3096,
      "Ġdest": 3097,
      "Ġdaily": 3098,
      "Ġregion": 3099,
      "olving": 3100,
      "Ġtaken": 3101,
      "itable": 3102,
      "fessor": 3103,
      "Ġrequires": 3104,
      "Ġfeature": 3105,
      "Ġshape": 3106,
      "45": 3107,
      "cont": 3108,
      "import": 3109,
      "arily": 3110,
      "LL": 3111,
      "Ġcomputer": 3112,
      "Ġgames": 3113,
      "Ġsignificantly": 3114,
      "acc": 3115,
      "Ġste": 3116,
      "Ġsun": 3117,
      "Ġdamage": 3118,
      "Ġchem": 3119,
      "Ġgoals": 3120,
      "Ġremov": 3121,
      "75": 3122,
      "Ġroot": 3123,
      "Ġcontact": 3124,
      "lim": 3125,
      "Ġobtain": 3126,
      "airs": 3127,
      "care": 3128,
      "Ġhealthy": 3129,
      "iles": 3130,
      "Here": 3131,
      "umb": 3132,
      "Ġlink": 3133,
      "ĠEach": 3134,
      "Ġgives": 3135,
      "Tr": 3136,
      "::": 3137,
      "Ġdoing": 3138,
      "ius": 3139,
      "ters": 3140,
      "AC": 3141,
      "Ġhalf": 3142,
      "Ġcontinue": 3143,
      "Ġindepend": 3144,
      "cho": 3145,
      "Ġcard": 3146,
      "mathbf": 3147,
      "ET": 3148,
      "Ġsays": 3149,
      "Ġsection": 3150,
      "Ġ...": 3151,
      "Ġsec": 3152,
      "ĠMy": 3153,
      "ptoms": 3154,
      "ĠGe": 3155,
      "].": 3156,
      "])": 3157,
      "ibrary": 3158,
      "Ġcompre": 3159,
      "Ġdou": 3160,
      "ares": 3161,
      "Ġcountries": 3162,
      "opt": 3163,
      "rast": 3164,
      "enced": 3165,
      "Ġalgor": 3166,
      "Ġsatisf": 3167,
      "Ġoil": 3168,
      "Ġful": 3169,
      "Ġfiles": 3170,
      "Ġpo": 3171,
      "Ġweb": 3172,
      "abilities": 3173,
      "Ġthought": 3174,
      "ried": 3175,
      "Ġroom": 3176,
      "ĠAS": 3177,
      "Ġparents": 3178,
      "Ġrand": 3179,
      "Ġchoice": 3180,
      "hensive": 3181,
      "Ġtell": 3182,
      "Ġsmo": 3183,
      "Ġrev": 3184,
      "On": 3185,
      "ĠAg": 3186,
      "Ġemail": 3187,
      "Ġjo": 3188,
      "Ġsides": 3189,
      "ĠDep": 3190,
      "Ġwin": 3191,
      "33": 3192,
      "Ġexperiences": 3193,
      "odes": 3194,
      "Ġinnov": 3195,
      "Particip": 3196,
      "Ġexpect": 3197,
      "AD": 3198,
      "hood": 3199,
      "Ġlack": 3200,
      "ĠWar": 3201,
      "Ġimportance": 3202,
      "Ġbring": 3203,
      "Ġitems": 3204,
      "iol": 3205,
      "Ġlinear": 3206,
      "Ġinform": 3207,
      "Ġdecision": 3208,
      "iddle": 3209,
      "Ġperfect": 3210,
      "pec": 3211,
      "Ġpromot": 3212,
      "ĠID": 3213,
      "ament": 3214,
      "Ġvisual": 3215,
      "term": 3216,
      "ĠIntern": 3217,
      "Ġplayers": 3218,
      "key": 3219,
      "Ġsite": 3220,
      "Ġetc": 3221,
      "amental": 3222,
      "Your": 3223,
      "ancing": 3224,
      "Ġcosts": 3225,
      "Ġstatus": 3226,
      "Ġchoose": 3227,
      "Ġlocation": 3228,
      "stitute": 3229,
      "Ġcover": 3230,
      "Im": 3231,
      "bon": 3232,
      "Ġstore": 3233,
      "sum": 3234,
      "Ġoptim": 3235,
      "ĠAfric": 3236,
      "reed": 3237,
      "Ġyet": 3238,
      "Ġ$$": 3239,
      "Ġdiet": 3240,
      "ĠWest": 3241,
      "Ġallowing": 3242,
      "Ġrandom": 3243,
      "Ġsect": 3244,
      "Ġrequirements": 3245,
      "ipment": 3246,
      "Ġappropriate": 3247,
      "Ġaltern": 3248,
      "ometimes": 3249,
      "Âł": 3250,
      "ifying": 3251,
      "Ġ60": 3252,
      "pot": 3253,
      "Ġtheory": 3254,
      "ĠThen": 3255,
      "Ġadjust": 3256,
      "Ġcalculate": 3257,
      "avig": 3258,
      "Ġblack": 3259,
      "ĠInst": 3260,
      "Ġharm": 3261,
      "tings": 3262,
      "Ġrob": 3263,
      "ĠCalcul": 3264,
      "phas": 3265,
      "ĠIndian": 3266,
      "nderstanding": 3267,
      "Ġunits": 3268,
      "Ġpurch": 3269,
      "Ġprograms": 3270,
      "ĠSouth": 3271,
      "list": 3272,
      "roup": 3273,
      "Ġhor": 3274,
      "21": 3275,
      "Ġvector": 3276,
      "che": 3277,
      "ĠYes": 3278,
      "Ġmor": 3279,
      "Ġhistor": 3280,
      "Ġrat": 3281,
      "Ġadapt": 3282,
      "ung": 3283,
      "[\"": 3284,
      "^{-": 3285,
      "Ġever": 3286,
      "ĠServ": 3287,
      "Ġcompanies": 3288,
      "rs": 3289,
      "IM": 3290,
      "inct": 3291,
      "ĠMat": 3292,
      "Ġdom": 3293,
      "Ġfollows": 3294,
      "Ġwhite": 3295,
      "Ġattention": 3296,
      "ager": 3297,
      "ĠValue": 3298,
      "Ġsleep": 3299,
      "Ġgetting": 3300,
      "Ġupd": 3301,
      "ĠAb": 3302,
      "AB": 3303,
      "Ġfall": 3304,
      "Ġangle": 3305,
      "Ġemerg": 3306,
      "Ġitself": 3307,
      "Ġtowards": 3308,
      "Ġevalu": 3309,
      "Step": 3310,
      "Ġzero": 3311,
      "Ġbasic": 3312,
      "Ġuseful": 3313,
      "Ġpractices": 3314,
      "Participant": 3315,
      "asc": 3316,
      "####": 3317,
      "Ġlonger": 3318,
      "Ġthird": 3319,
      "ams": 3320,
      "ĠFin": 3321,
      "uff": 3322,
      "Ġinstead": 3323,
      "Ġdocument": 3324,
      "Ġ198": 3325,
      "Ġbrain": 3326,
      "ana": 3327,
      "Ġinsp": 3328,
      "Ġwritten": 3329,
      "Ġversion": 3330,
      "fig": 3331,
      "Ġlegal": 3332,
      "Ġprep": 3333,
      "Ġsymbol": 3334,
      "Ġsample": 3335,
      "uild": 3336,
      "ĊĠĠĠĠ": 3337,
      "ults": 3338,
      "Ġeffectively": 3339,
      "IS": 3340,
      "Ġvisit": 3341,
      "Ġmentioned": 3342,
      "Ġgreater": 3343,
      "ulate": 3344,
      "river": 3345,
      "urance": 3346,
      "comm": 3347,
      "ĠJan": 3348,
      "Ġmagn": 3349,
      "ĠNOT": 3350,
      ".\")": 3351,
      "Ġdirectory": 3352,
      "aker": 3353,
      "},": 3354,
      "ĠAust": 3355,
      "Ġcross": 3356,
      "Ġdevice": 3357,
      "CO": 3358,
      "rid": 3359,
      "mselves": 3360,
      "rie": 3361,
      "Ġ21": 3362,
      "reme": 3363,
      "ession": 3364,
      "Ġmaximum": 3365,
      "Ġmatter": 3366,
      "26": 3367,
      "ĠNow": 3368,
      "gest": 3369,
      "Ġcomponents": 3370,
      "ha": 3371,
      "Ġapply": 3372,
      "Ġbelieve": 3373,
      "test": 3374,
      "ĠHis": 3375,
      "Ġdetails": 3376,
      "Ġ--": 3377,
      "Ġfire": 3378,
      "onding": 3379,
      "imens": 3380,
      "Ġshown": 3381,
      "yl": 3382,
      "ĠFirst": 3383,
      "iti": 3384,
      "Ġadded": 3385,
      "Ġbrand": 3386,
      "Ġoption": 3387,
      "Ġthemselves": 3388,
      "ĠTest": 3389,
      "ĠEduc": 3390,
      "So": 3391,
      "eds": 3392,
      "ĠHigh": 3393,
      "imin": 3394,
      "Ġwa": 3395,
      "circ": 3396,
      "Ġhost": 3397,
      "Ġprogress": 3398,
      "ĠSince": 3399,
      "Ġsix": 3400,
      "nal": 3401,
      "Ġconnection": 3402,
      "Ġbecomes": 3403,
      "ND": 3404,
      "Ġnational": 3405,
      "ster": 3406,
      "ĠII": 3407,
      "28": 3408,
      "Ġarray": 3409,
      "Ġsex": 3410,
      "Ġmanufact": 3411,
      "Ġassum": 3412,
      "rag": 3413,
      "Ġdynam": 3414,
      "AP": 3415,
      "Ġdepend": 3416,
      "aly": 3417,
      "ĠTrans": 3418,
      "book": 3419,
      "Ġplayer": 3420,
      "Ġthroughout": 3421,
      "Ġarch": 3422,
      "pping": 3423,
      "]:": 3424,
      "Ġtasks": 3425,
      "ogle": 3426,
      "iet": 3427,
      "Ġled": 3428,
      "vey": 3429,
      "Ġreach": 3430,
      "Ġmental": 3431,
      "Ġbox": 3432,
      "35": 3433,
      "Ġjourney": 3434,
      "ened": 3435,
      "ken": 3436,
      "egin": 3437,
      "bl": 3438,
      "ferences": 3439,
      "Ġbusinesses": 3440,
      "Ġopportunities": 3441,
      "Ġop": 3442,
      "Ġinvolved": 3443,
      "Ġsequence": 3444,
      "ĠTw": 3445,
      "Ġnames": 3446,
      "son": 3447,
      "Ġeconomic": 3448,
      "Ġadvant": 3449,
      "Which": 3450,
      "enn": 3451,
      "Ġupon": 3452,
      "Ġemphas": 3453,
      "Ġax": 3454,
      "rew": 3455,
      "unch": 3456,
      "Ġgard": 3457,
      "ustr": 3458,
      "hern": 3459,
      "Ġvariety": 3460,
      "Ġprocesses": 3461,
      "Ġenvironmental": 3462,
      "ING": 3463,
      "90": 3464,
      "Ġaware": 3465,
      "sych": 3466,
      "Ġstrength": 3467,
      "mar": 3468,
      "ĠTrue": 3469,
      "ĠAdditionally": 3470,
      "enge": 3471,
      "resents": 3472,
      "irm": 3473,
      "irit": 3474,
      "Ġgreen": 3475,
      "Ġfish": 3476,
      "uting": 3477,
      "oph": 3478,
      "Ġheight": 3479,
      "ĠAut": 3480,
      "quad": 3481,
      "ĠBrit": 3482,
      "iable": 3483,
      "Ġevidence": 3484,
      "racy": 3485,
      "dd": 3486,
      "Ġinteger": 3487,
      "Ġdirection": 3488,
      "rapy": 3489,
      "Ġheav": 3490,
      "Ġrecent": 3491,
      "Ġpredict": 3492,
      "bit": 3493,
      "Ġisn": 3494,
      "Ġbalance": 3495,
      "Ġsimply": 3496,
      "Ġpatients": 3497,
      "Ġstudies": 3498,
      "rig": 3499,
      "ĠArt": 3500,
      "Ġslow": 3501,
      "ĠDet": 3502,
      "eed": 3503,
      "Ġlarger": 3504,
      "Ġdu": 3505,
      "Ġcompared": 3506,
      "Ġstra": 3507,
      "Ġmanage": 3508,
      "Ġculture": 3509,
      "Ġvalu": 3510,
      "27": 3511,
      "Ġexc": 3512,
      "Ġbeaut": 3513,
      "Ġtrack": 3514,
      "ĠCal": 3515,
      "Ġpolitical": 3516,
      "Ġimmediate": 3517,
      "Ġcomfort": 3518,
      "ese": 3519,
      "Ġensures": 3520,
      "Ġinj": 3521,
      "Ġlives": 3522,
      "Ġep": 3523,
      "Ġgas": 3524,
      "amples": 3525,
      "Ġaccur": 3526,
      "illing": 3527,
      "ners": 3528,
      "Ġconver": 3529,
      "Ġdemand": 3530,
      "Ġones": 3531,
      "Ġ23": 3532,
      "Ġdeveloped": 3533,
      "Ġseem": 3534,
      "izations": 3535,
      "Ġelectric": 3536,
      "ensity": 3537,
      "ran": 3538,
      "Ġsymptoms": 3539,
      "inf": 3540,
      "omial": 3541,
      "One": 3542,
      "user": 3543,
      "Ġcenter": 3544,
      "Ġproced": 3545,
      "Ġfat": 3546,
      "Ġtal": 3547,
      "Ġdivid": 3548,
      "Ġvariables": 3549,
      "Ġtim": 3550,
      "^\\": 3551,
      "ĠCount": 3552,
      "asons": 3553,
      "Ġbroad": 3554,
      "ivil": 3555,
      "urch": 3556,
      "cles": 3557,
      "mission": 3558,
      "Ġbur": 3559,
      "Ġrefer": 3560,
      ")}": 3561,
      "Ġfriends": 3562,
      "Ġcollab": 3563,
      "uary": 3564,
      "type": 3565,
      "Ġbooks": 3566,
      "ĠFrom": 3567,
      "ĠSystem": 3568,
      "ĠJohn": 3569,
      "ptions": 3570,
      "inks": 3571,
      "Ġguide": 3572,
      "By": 3573,
      "ffect": 3574,
      "Ġderiv": 3575,
      "Ġpowerful": 3576,
      "Ġprojects": 3577,
      "Ġrot": 3578,
      "acters": 3579,
      "rip": 3580,
      "size": 3581,
      "ĠPe": 3582,
      "rown": 3583,
      "Ġdescribed": 3584,
      "âĶĤ": 3585,
      "âĶĢâĶĢâĶĢâĶĢâĶĢâĶĢâĶĢâĶĢ": 3586,
      "Ġyourself": 3587,
      "ellig": 3588,
      "Ġrelative": 3589,
      "Ġmoment": 3590,
      "board": 3591,
      "Ġrunning": 3592,
      "Ġdevices": 3593,
      "Ġmicro": 3594,
      "reate": 3595,
      ".)": 3596,
      "oud": 3597,
      "count": 3598,
      "Ġcapac": 3599,
      "ĠNorth": 3600,
      "Ġded": 3601,
      "ocks": 3602,
      "Ġhowever": 3603,
      "ĠTechn": 3604,
      "Res": 3605,
      "Ġvolume": 3606,
      "istry": 3607,
      "Ġsubst": 3608,
      "Cl": 3609,
      "Ġhab": 3610,
      "ĠGerm": 3611,
      "Ġliter": 3612,
      "ret": 3613,
      "off": 3614,
      "idth": 3615,
      "Sub": 3616,
      "Ġorigin": 3617,
      "iff": 3618,
      "Ġrates": 3619,
      "itary": 3620,
      "ĠSm": 3621,
      "IG": 3622,
      "Ġclimate": 3623,
      "Ġbehind": 3624,
      "Ġattempt": 3625,
      "Ġcam": 3626,
      "ĠAc": 3627,
      "36": 3628,
      "Ġrule": 3629,
      "Ġstarting": 3630,
      "year": 3631,
      "alle": 3632,
      "Ġinside": 3633,
      "LECT": 3634,
      "ĠMore": 3635,
      "lear": 3636,
      "Ġnote": 3637,
      "Ġvia": 3638,
      "Sh": 3639,
      "oes": 3640,
      "Ġfields": 3641,
      "Ġrules": 3642,
      "Ġfloat": 3643,
      "ĠSet": 3644,
      "cret": 3645,
      "Ġnight": 3646,
      "rox": 3647,
      "Ġ22": 3648,
      "Ġestim": 3649,
      "---|": 3650,
      "ĠRem": 3651,
      "Ġund": 3652,
      "eter": 3653,
      "Ġfast": 3654,
      "Ġfost": 3655,
      "ĠAre": 3656,
      "Ġir": 3657,
      "Ġindex": 3658,
      "Ġefficiency": 3659,
      "Ġtree": 3660,
      "ains": 3661,
      "Ġimages": 3662,
      "Un": 3663,
      "ĠOct": 3664,
      "dom": 3665,
      "Ġadminist": 3666,
      "Ġeasily": 3667,
      "Ġfeet": 3668,
      "ifies": 3669,
      "gram": 3670,
      "Ġmis": 3671,
      "tenance": 3672,
      "Sc": 3673,
      "Ġ28": 3674,
      "chers": 3675,
      "igned": 3676,
      "erve": 3677,
      "DE": 3678,
      "zz": 3679,
      "ino": 3680,
      "ROM": 3681,
      "Ġoutside": 3682,
      "ĠOver": 3683,
      "32": 3684,
      "esc": 3685,
      "gar": 3686,
      "ĠAny": 3687,
      "ĠData": 3688,
      "Ġid": 3689,
      "Ġproduce": 3690,
      "vest": 3691,
      "ĠRed": 3692,
      "rong": 3693,
      "fully": 3694,
      "Ġtesting": 3695,
      "Ġwent": 3696,
      "Ġcentury": 3697,
      "Ġresid": 3698,
      "Ġdecl": 3699,
      "Ġquickly": 3700,
      "Ġsort": 3701,
      "Ġrout": 3702,
      "Ġrepresents": 3703,
      "Ġeveryone": 3704,
      "ached": 3705,
      "Ġtrust": 3706,
      "Ġheld": 3707,
      "Ġtur": 3708,
      "ĠAug": 3709,
      "Ġstarted": 3710,
      "Ġcultural": 3711,
      "iples": 3712,
      "Ġcoordin": 3713,
      "Ġtrying": 3714,
      "Ġbad": 3715,
      "Ġcomprehensive": 3716,
      "Ġbuilt": 3717,
      "ĠPython": 3718,
      "Ġdecre": 3719,
      "ii": 3720,
      "dr": 3721,
      "orage": 3722,
      "ography": 3723,
      "Ġsoil": 3724,
      "UR": 3725,
      "Ġcontaining": 3726,
      "Ġappe": 3727,
      "Ġpropos": 3728,
      "Ġdru": 3729,
      "Ġconcer": 3730,
      "ously": 3731,
      "Ġforms": 3732,
      "Ġincluded": 3733,
      "Ġequipment": 3734,
      "Ġstrategy": 3735,
      "ada": 3736,
      "Ġmovement": 3737,
      "Ġcustomers": 3738,
      "Ġcand": 3739,
      "Ġgenerally": 3740,
      "Ġideas": 3741,
      "Ġactive": 3742,
      "ounds": 3743,
      "Ġtook": 3744,
      "Ġcolumns": 3745,
      "value": 3746,
      "ĠApr": 3747,
      "Ġremains": 3748,
      "Ġstyle": 3749,
      "ades": 3750,
      "olve": 3751,
      "da": 3752,
      "Ġoperation": 3753,
      "Ġreturns": 3754,
      "Ġanimals": 3755,
      "ĠJu": 3756,
      "64": 3757,
      "ĠInter": 3758,
      "Ġcharacters": 3759,
      "Ġsources": 3760,
      "Ġinfluence": 3761,
      "ders": 3762,
      "ĠAP": 3763,
      "Ġfundamental": 3764,
      "ervation": 3765,
      "Ġhot": 3766,
      "eration": 3767,
      "Ġmath": 3768,
      "Ġroad": 3769,
      "UT": 3770,
      "ĠGl": 3771,
      "pped": 3772,
      "Ġschools": 3773,
      "Ġthreat": 3774,
      "apan": 3775,
      "hi": 3776,
      "Ġprote": 3777,
      "vere": 3778,
      "ae": 3779,
      "Ġsave": 3780,
      "Ġpolicy": 3781,
      "ĠCor": 3782,
      "Ġscreen": 3783,
      "ĠFalse": 3784,
      "Ġexisting": 3785,
      "Ġ27": 3786,
      "Ġsetting": 3787,
      "Ġobjects": 3788,
      "Ġdry": 3789,
      "Ġagree": 3790,
      "Ġlimited": 3791,
      ")(": 3792,
      "rees": 3793,
      "Ġbecame": 3794,
      "Ġinternational": 3795,
      "Ġtrend": 3796,
      "ronic": 3797,
      "Ġscen": 3798,
      "Ġsuggests": 3799,
      "cast": 3800,
      "itation": 3801,
      "He": 3802,
      "Ġofficial": 3803,
      "................": 3804,
      "Ġrelationships": 3805,
      "amm": 3806,
      "Ġnavig": 3807,
      "Ġcame": 3808,
      "used": 3809,
      "arrow": 3810,
      "terns": 3811,
      "Ġcancer": 3812,
      "iance": 3813,
      "rab": 3814,
      "uth": 3815,
      "Ġrelevant": 3816,
      "Ġ26": 3817,
      "Ġrelig": 3818,
      "yond": 3819,
      "ĠStep": 3820,
      "Ġhandle": 3821,
      "Ġstream": 3822,
      "Ġshall": 3823,
      "ses": 3824,
      "ĠInformation": 3825,
      "Ġdidn": 3826,
      "Ġtransport": 3827,
      "amin": 3828,
      "ĠĠĠĠĠĠĠĠĠĠĠĠĠĠĠĠĠĠĠĠĠĠĠĠĠĠĠĠĠĠĠĠĠĠĠĠĠĠĠĠĠĠĠĠĠĠĠĠĠĠĠĠĠĠĠĠĠĠĠĠĠĠĠĠ": 3829,
      "Ġadvanced": 3830,
      "Ġ_": 3831,
      "ĠOptional": 3832,
      "EM": 3833,
      "Ġcool": 3834,
      "bin": 3835,
      "ãģ": 3836,
      "Ġsituation": 3837,
      "Ġreceive": 3838,
      "Ġmachine": 3839,
      "Ġball": 3840,
      "verse": 3841,
      "hel": 3842,
      "Ġstop": 3843,
      "ube": 3844,
      "ancy": 3845,
      "Ġreve": 3846,
      "Ġwarm": 3847,
      "pha": 3848,
      "ĠOut": 3849,
      "Ġanything": 3850,
      "ĠLear": 3851,
      "osis": 3852,
      "Ġstru": 3853,
      "Ġcontract": 3854,
      "ĠChar": 3855,
      "cks": 3856,
      "Ġreplace": 3857,
      "Ġqual": 3858,
      "pert": 3859,
      "Ġconstruct": 3860,
      "bor": 3861,
      "Ġbeyond": 3862,
      "ĠPres": 3863,
      "Ġcareer": 3864,
      "Ġtou": 3865,
      "uple": 3866,
      "ille": 3867,
      "Ġspread": 3868,
      "Ġpict": 3869,
      "Ġsmaller": 3870,
      "Ġfront": 3871,
      "Ġpan": 3872,
      "Ġinterpre": 3873,
      "Ġeverything": 3874,
      "Ġ__": 3875,
      "Ġpatterns": 3876,
      "ratic": 3877,
      "Ġviol": 3878,
      "with": 3879,
      "Ġlat": 3880,
      "================": 3881,
      "endly": 3882,
      "ĠÎ": 3883,
      "Ġdecisions": 3884,
      "Ġactual": 3885,
      "Ġmob": 3886,
      "Ġactions": 3887,
      "Ġsets": 3888,
      "ban": 3889,
      "ĠCour": 3890,
      "29": 3891,
      "Ġeye": 3892,
      "Ġresear": 3893,
      "Now": 3894,
      "ĠMain": 3895,
      "ont": 3896,
      "ctors": 3897,
      "Ġextra": 3898,
      "Ġreceived": 3899,
      "ĠSte": 3900,
      "force": 3901,
      "ĠKnow": 3902,
      "Ġgrowing": 3903,
      "Ġapproximately": 3904,
      "Ġmedic": 3905,
      "dis": 3906,
      "Inter": 3907,
      "Ġfavor": 3908,
      "Ġtitle": 3909,
      "ĠAir": 3910,
      "Ġattract": 3911,
      "ieved": 3912,
      "ifier": 3913,
      "oice": 3914,
      "Ġ@": 3915,
      "ptember": 3916,
      "ologies": 3917,
      "Ġsil": 3918,
      "ĠMark": 3919,
      "ags": 3920,
      "Ġlocated": 3921,
      "ĠUsing": 3922,
      "Ġinstruct": 3923,
      "://": 3924,
      "Ġestablish": 3925,
      "ĠSw": 3926,
      "rors": 3927,
      "Ġinsights": 3928,
      "yp": 3929,
      "Ġrights": 3930,
      "Ġidentity": 3931,
      "Ġbatter": 3932,
      "Ġgenerate": 3933,
      "era": 3934,
      "Ġpractical": 3935,
      "Ġcompl": 3936,
      "Ġcry": 3937,
      "})": 3938,
      "PS": 3939,
      "Ġcele": 3940,
      "ĠEarth": 3941,
      "num": 3942,
      "ĠAustral": 3943,
      "Ġmemory": 3944,
      "ĠDevelop": 3945,
      "Ġpatient": 3946,
      "ĠWhy": 3947,
      "Ġintegral": 3948,
      "osition": 3949,
      "ĠUp": 3950,
      "Ġoffering": 3951,
      "Ġteaching": 3952,
      "Ġreducing": 3953,
      "Ġmeasures": 3954,
      "ĠException": 3955,
      "Ġchemical": 3956,
      "Ġsus": 3957,
      "Ġconcepts": 3958,
      "ĠExample": 3959,
      "ĠMarch": 3960,
      "Ġfarm": 3961,
      "Ġtrig": 3962,
      "Ġexamples": 3963,
      "Ġalmost": 3964,
      "rm": 3965,
      "ĠChina": 3966,
      "ided": 3967,
      "Ġdistinct": 3968,
      "rial": 3969,
      "Ġmember": 3970,
      "._": 3971,
      "pty": 3972,
      "Ġmoving": 3973,
      "ĠYork": 3974,
      "ĠEd": 3975,
      "Ġsignal": 3976,
      "Ġforward": 3977,
      "Ġsong": 3978,
      "Ġemployees": 3979,
      "Ġratio": 3980,
      "Ġinvestig": 3981,
      "ĠGoogle": 3982,
      "Ġmarketing": 3983,
      "Ġcarry": 3984,
      "Let": 3985,
      "01": 3986,
      "xy": 3987,
      "Professor": 3988,
      "ony": 3989,
      "Ġcentral": 3990,
      "Ġfru": 3991,
      "'.": 3992,
      "ifically": 3993,
      "ĠDel": 3994,
      "rench": 3995,
      "Is": 3996,
      "Ġseems": 3997,
      "Ġalgebra": 3998,
      "Ġapplied": 3999,
      "Ġdeal": 4000,
      "Ġhighly": 4001,
      "Ġbenefit": 4002,
      "udget": 4003,
      ",âĢĿ": 4004,
      "onal": 4005,
      "Ġprivate": 4006,
      "ww": 4007,
      "ĠIns": 4008,
      "rical": 4009,
      "apter": 4010,
      "ĠHist": 4011,
      "Ġnews": 4012,
      "issions": 4013,
      "Thus": 4014,
      "osure": 4015,
      "Ġ//": 4016,
      "Ġgeomet": 4017,
      "Ġplanning": 4018,
      "Ġteachers": 4019,
      "celer": 4020,
      "Ġaspects": 4021,
      "eks": 4022,
      "actions": 4023,
      "à¤¾": 4024,
      "ellow": 4025,
      "Ġsometimes": 4026,
      "Ġserver": 4027,
      "ocal": 4028,
      "ĠEqu": 4029,
      "Ġmilitary": 4030,
      "ĠTheir": 4031,
      "Ġanc": 4032,
      "Ġdiverse": 4033,
      "anger": 4034,
      "Ġing": 4035,
      "No": 4036,
      "ĠBo": 4037,
      "Ġstaff": 4038,
      "Ġlandsc": 4039,
      "While": 4040,
      "reet": 4041,
      "Ġemotional": 4042,
      "Ġresponsible": 4043,
      "ued": 4044,
      "Ġopportunity": 4045,
      "blem": 4046,
      "Ġorganization": 4047,
      "ĠAv": 4048,
      "Ġsurv": 4049,
      "Ġexists": 4050,
      "ĠThus": 4051,
      "Ġwild": 4052,
      "ĠRead": 4053,
      "ĠAdd": 4054,
      "Ġpublished": 4055,
      "}(": 4056,
      "Ġhealthcare": 4057,
      "comes": 4058,
      "\"]": 4059,
      "ĠSE": 4060,
      "Ġphr": 4061,
      "Ġimpl": 4062,
      "Ġwood": 4063,
      "ternal": 4064,
      "ĠSk": 4065,
      "Ġattack": 4066,
      "Ġschem": 4067,
      "hest": 4068,
      "Ġvert": 4069,
      "65": 4070,
      "ĠCity": 4071,
      "ĠAmerica": 4072,
      "Ġcorresponding": 4073,
      "Ġmathematical": 4074,
      "Ġtail": 4075,
      "olute": 4076,
      "ĊĊĠĠ": 4077,
      "Ġfem": 4078,
      "Ġvaluable": 4079,
      "Ġlibrary": 4080,
      "Ġutil": 4081,
      "Ġexpand": 4082,
      "Ġtour": 4083,
      "Ġthinking": 4084,
      "Ġtriangle": 4085,
      "Ġcurrently": 4086,
      "ĠJapan": 4087,
      "Ġprocessing": 4088,
      "exp": 4089,
      "Ġspecified": 4090,
      "Ġhands": 4091,
      "ĠMus": 4092,
      "Ġdegree": 4093,
      "clude": 4094,
      "Ġfrequency": 4095,
      "Ġfinding": 4096,
      "Ġsociety": 4097,
      "comp": 4098,
      "Ġinstit": 4099,
      "But": 4100,
      "Ġstraight": 4101,
      "48": 4102,
      "char": 4103,
      "Ġexpert": 4104,
      "ATE": 4105,
      "Ġrich": 4106,
      "Ġquite": 4107,
      "Ġacad": 4108,
      ".âĢĿ": 4109,
      "hold": 4110,
      "ĠValueError": 4111,
      "iber": 4112,
      "itect": 4113,
      "}\\)": 4114,
      "Ġvary": 4115,
      "Ġrepl": 4116,
      "rack": 4117,
      "Ġexactly": 4118,
      "Ġscale": 4119,
      "Ġsupply": 4120,
      "Ġprofession": 4121,
      "Ġtransfer": 4122,
      "Ġadding": 4123,
      "Ġwaste": 4124,
      "more": 4125,
      "}$": 4126,
      "ructure": 4127,
      "Ġeducational": 4128,
      "ĠTH": 4129,
      "veloc": 4130,
      "Ġkids": 4131,
      "org": 4132,
      "Ġserve": 4133,
      "78": 4134,
      "ĠOther": 4135,
      "lier": 4136,
      "ecause": 4137,
      "Ġremove": 4138,
      "ĠApril": 4139,
      "Ġconcern": 4140,
      "ENT": 4141,
      "iveness": 4142,
      "Ġrecommended": 4143,
      "ĠCommun": 4144,
      "ĠForm": 4145,
      "ĠScience": 4146,
      "`:": 4147,
      "ĠFeb": 4148,
      "begin": 4149,
      "'d": 4150,
      "ĠĠĠĠĠĠĠĠĠĠĠĠĠĠĠĠĠĠĠĠĠĠĠĠ": 4151,
      "Ġprobably": 4152,
      "ĊĊĠĠĠĠĠĠĠĠĠĠĠ": 4153,
      "ĠJune": 4154,
      "Ġworth": 4155,
      "Ġextreme": 4156,
      "Ġspirit": 4157,
      "Ġconcent": 4158,
      "overy": 4159,
      "Ġmaintaining": 4160,
      "gn": 4161,
      "Ġassist": 4162,
      "change": 4163,
      "Ġscore": 4164,
      "ĠKing": 4165,
      "Ġtalk": 4166,
      "Ġleave": 4167,
      "ĠWill": 4168,
      "NA": 4169,
      "Ġrecommend": 4170,
      "Ġpattern": 4171,
      "ĠResearch": 4172,
      "iding": 4173,
      "ĠBar": 4174,
      "ĠIts": 4175,
      "aur": 4176,
      "ĠST": 4177,
      "Ġsuff": 4178,
      "ĠSer": 4179,
      "Ġgradu": 4180,
      "Ġdrive": 4181,
      "Ġparameters": 4182,
      "Ġmother": 4183,
      "Ġattrib": 4184,
      "ovember": 4185,
      "Ġeasier": 4186,
      "Ġhypot": 4187,
      "Ġ---": 4188,
      "que": 4189,
      "Ġtru": 4190,
      "ĠEducation": 4191,
      "Ġbott": 4192,
      "iter": 4193,
      "Ġconstruction": 4194,
      "Ġcaused": 4195,
      "Ġpet": 4196,
      "uk": 4197,
      "Ġstage": 4198,
      "aming": 4199,
      "elt": 4200,
      "hether": 4201,
      "ĠCheck": 4202,
      "sub": 4203,
      "Ġ90": 4204,
      "Ġprefer": 4205,
      "uit": 4206,
      "ĠClass": 4207,
      "Ġbackground": 4208,
      "Ġsecure": 4209,
      "Ġeth": 4210,
      "Ġinvestment": 4211,
      "Ġstrugg": 4212,
      "Ġestablished": 4213,
      "Ġult": 4214,
      "Ġefforts": 4215,
      "Ġpoor": 4216,
      "ĠJanuary": 4217,
      "conds": 4218,
      "ricult": 4219,
      "ux": 4220,
      "Ġbirth": 4221,
      "Ġprotection": 4222,
      "Ġtrain": 4223,
      "Ġserious": 4224,
      "Ġaudience": 4225,
      "Ph": 4226,
      "Ġago": 4227,
      "34": 4228,
      "ĠAugust": 4229,
      "Ġcoll": 4230,
      "ulated": 4231,
      "UN": 4232,
      "Ġminim": 4233,
      "ĠKe": 4234,
      "chol": 4235,
      "Ġregarding": 4236,
      "Ġresulting": 4237,
      "ĠGover": 4238,
      "ords": 4239,
      "Ġeat": 4240,
      "Ġcredit": 4241,
      "ĠDay": 4242,
      "acing": 4243,
      "ĠMany": 4244,
      "Ġiniti": 4245,
      "erse": 4246,
      "vention": 4247,
      "Ġcommunities": 4248,
      "iar": 4249,
      "Ġrepe": 4250,
      "atus": 4251,
      "cember": 4252,
      "Ġremember": 4253,
      "pective": 4254,
      "Ġlate": 4255,
      "Ġrecords": 4256,
      "Ġillustr": 4257,
      "}}{": 4258,
      "Ġfamilies": 4259,
      "print": 4260,
      "ĠDist": 4261,
      "ĠSeptember": 4262,
      "Ġpsych": 4263,
      "Ġaccom": 4264,
      "Ġboard": 4265,
      "Ġcontroll": 4266,
      "pid": 4267,
      "rade": 4268,
      "Ġtests": 4269,
      "Ġsold": 4270,
      "38": 4271,
      "Ġincorpor": 4272,
      "lev": 4273,
      "''": 4274,
      "SS": 4275,
      "ague": 4276,
      "Ġshap": 4277,
      "ĠKey": 4278,
      "otes": 4279,
      "urity": 4280,
      "ĠEl": 4281,
      "Ġbab": 4282,
      "igen": 4283,
      "cal": 4284,
      "Ġexcell": 4285,
      "55": 4286,
      "Ġcircle": 4287,
      "Ġcauses": 4288,
      "Ġpick": 4289,
      "Ġwatch": 4290,
      "Ġsales": 4291,
      "At": 4292,
      "Ġpresence": 4293,
      "Ġcontribute": 4294,
      "Ġround": 4295,
      "App": 4296,
      "And": 4297,
      "Ġfully": 4298,
      "dent": 4299,
      "Pl": 4300,
      "Ġhon": 4301,
      "Ġpen": 4302,
      "Ġcollection": 4303,
      "rupt": 4304,
      "Ġdeveloping": 4305,
      "ĠRec": 4306,
      "Ġlayer": 4307,
      "Ġdiagn": 4308,
      "ĠExp": 4309,
      "being": 4310,
      "ĠComput": 4311,
      "ĠRuss": 4312,
      "Ġveloc": 4313,
      "ĠFind": 4314,
      "ĠâĢĺ": 4315,
      "Ġminimum": 4316,
      "Ġempty": 4317,
      "Ġweeks": 4318,
      "Ġveget": 4319,
      "ĠOctober": 4320,
      "ĠJuly": 4321,
      "Ġthr": 4322,
      "ĠHer": 4323,
      "Ġshared": 4324,
      "Ġflex": 4325,
      "ĠCreate": 4326,
      "oe": 4327,
      "known": 4328,
      "Ġincome": 4329,
      "Ġchann": 4330,
      "Ġmid": 4331,
      "ĠLaw": 4332,
      "Ġsav": 4333,
      "Ġbegan": 4334,
      "pan": 4335,
      "Ġconnected": 4336,
      "icated": 4337,
      "Se": 4338,
      "Ġfresh": 4339,
      "Ġclasses": 4340,
      "Ġrisks": 4341,
      "inst": 4342,
      "Ġweather": 4343,
      "Ġtransl": 4344,
      "hand": 4345,
      "Ġkit": 4346,
      "xi": 4347,
      "Ġhair": 4348,
      "Ġimag": 4349,
      "Ġlost": 4350,
      "En": 4351,
      "ests": 4352,
      "Ġhighlight": 4353,
      "Ġchallenge": 4354,
      "Ġcoe": 4355,
      "Ġcarbon": 4356,
      "ĠCur": 4357,
      "05": 4358,
      "down": 4359,
      "rim": 4360,
      "nect": 4361,
      "ios": 4362,
      "Ġalgorithm": 4363,
      "Ġseg": 4364,
      "Ġfigure": 4365,
      "Ġ2010": 4366,
      "ava": 4367,
      "Ġsuitable": 4368,
      "Ġcompute": 4369,
      "elligence": 4370,
      "ĠOff": 4371,
      "Ġasked": 4372,
      "anging": 4373,
      "Ġvehicle": 4374,
      "life": 4375,
      "pm": 4376,
      "Ġstorage": 4377,
      "Int": 4378,
      "ĠBritish": 4379,
      "ruary": 4380,
      "oming": 4381,
      "Ġdark": 4382,
      "Ġcapacity": 4383,
      "Ġreasons": 4384,
      "Ġjud": 4385,
      "HER": 4386,
      "usion": 4387,
      "ĠNet": 4388,
      "These": 4389,
      "Ġgir": 4390,
      "Ġwrong": 4391,
      "Ġgarden": 4392,
      "Ġsettings": 4393,
      "Ġenter": 4394,
      "Ġfair": 4395,
      "Ġitem": 4396,
      "37": 4397,
      "Ġpow": 4398,
      "Ġreported": 4399,
      "Ġfuel": 4400,
      "Ġhyd": 4401,
      "main": 4402,
      "Ġargument": 4403,
      "ĠPa": 4404,
      "Ġforces": 4405,
      "Ġdepending": 4406,
      "ndarray": 4407,
      "Ġinvolving": 4408,
      "wers": 4409,
      "Ġextract": 4410,
      "Ġsolving": 4411,
      "ml": 4412,
      "atur": 4413,
      "Ġhar": 4414,
      "Ġplans": 4415,
      "Lay": 4416,
      "Ġideal": 4417,
      "Ġ80": 4418,
      "Ġphone": 4419,
      "ĠRel": 4420,
      "Ġ29": 4421,
      "Ġgoes": 4422,
      "Ġengaging": 4423,
      "ocol": 4424,
      "Ġconsult": 4425,
      "rition": 4426,
      "icate": 4427,
      "Ġpoll": 4428,
      "Ġ2012": 4429,
      "Ġsurround": 4430,
      "44": 4431,
      "dir": 4432,
      "Ġtables": 4433,
      "Ġstd": 4434,
      "Ġstandards": 4435,
      "abet": 4436,
      "iam": 4437,
      "fri": 4438,
      "idate": 4439,
      "max": 4440,
      "attle": 4441,
      "Ġmaintenance": 4442,
      "Ġfight": 4443,
      "Ġdescription": 4444,
      "ĠMost": 4445,
      "Ġcomponent": 4446,
      "ĠOur": 4447,
      "AG": 4448,
      "Ġindependent": 4449,
      "approx": 4450,
      "39": 4451,
      "Ġcombination": 4452,
      "Ġdetailed": 4453,
      "Ġrelease": 4454,
      "Ġinvolve": 4455,
      "uations": 4456,
      "Ġfoods": 4457,
      "raint": 4458,
      "float": 4459,
      "porary": 4460,
      "Ġ2013": 4461,
      "ying": 4462,
      "Ġquad": 4463,
      "Ġblue": 4464,
      "Ġapprec": 4465,
      "Ġeyes": 4466,
      "Ġswe": 4467,
      "Ġroll": 4468,
      "ĠChild": 4469,
      "onds": 4470,
      "ĠJust": 4471,
      "emy": 4472,
      "Ġ2024": 4473,
      "Ġpotentially": 4474,
      "Cons": 4475,
      "Ġtend": 4476,
      "Ġeffort": 4477,
      "Ġbasis": 4478,
      "plit": 4479,
      "Ġreference": 4480,
      "Ġparty": 4481,
      "Ġcalculated": 4482,
      "Ġwalk": 4483,
      "Ġlabel": 4484,
      "Ġvirt": 4485,
      "Ġbeginning": 4486,
      "Ġadvance": 4487,
      "_{\\": 4488,
      "ama": 4489,
      "Ġemp": 4490,
      "vis": 4491,
      "enses": 4492,
      "Ind": 4493,
      "Ġnothing": 4494,
      "Ġbul": 4495,
      "ĠInternational": 4496,
      "Ġten": 4497,
      "With": 4498,
      "Ġincreases": 4499,
      "Ġbreat": 4500,
      "Ġcm": 4501,
      "rate": 4502,
      "Ġ]": 4503,
      "Ġplaces": 4504,
      "rame": 4505,
      "ĠAND": 4506,
      "ercial": 4507,
      "omb": 4508,
      "Ġcapital": 4509,
      "Ġ197": 4510,
      "Ġconcerns": 4511,
      "Why": 4512,
      "Ġplatforms": 4513,
      "US": 4514,
      "ara": 4515,
      "Ġpiece": 4516,
      "ĠSol": 4517,
      "ĠâĶĤ": 4518,
      "Ġcert": 4519,
      "zing": 4520,
      "Ġ<<": 4521,
      "iers": 4522,
      "IP": 4523,
      "Ġcelebr": 4524,
      "Ġintegration": 4525,
      "Ġtrade": 4526,
      "uries": 4527,
      "Ġanimal": 4528,
      "Ġcharge": 4529,
      "isms": 4530,
      "II": 4531,
      "Ġcourt": 4532,
      "Ġdesired": 4533,
      "Ġvelocity": 4534,
      "Ġ45": 4535,
      "66": 4536,
      "sql": 4537,
      "iful": 4538,
      "efore": 4539,
      "uge": 4540,
      "ML": 4541,
      "no": 4542,
      "Ġacceler": 4543,
      "Ġscientific": 4544,
      "Ġcompar": 4545,
      "Ġ2018": 4546,
      "ambda": 4547,
      "Ġmiddle": 4548,
      "Ġmill": 4549,
      "ĠNovember": 4550,
      "eta": 4551,
      "semb": 4552,
      "Ġreleased": 4553,
      "áĢ": 4554,
      "Ġequival": 4555,
      "ĠHar": 4556,
      "aled": 4557,
      "cel": 4558,
      "Ġallowed": 4559,
      "RL": 4560,
      "inder": 4561,
      "Ġupdate": 4562,
      "ext": 4563,
      "Ġ2023": 4564,
      "SELECT": 4565,
      "related": 4566,
      "Ġpercentage": 4567,
      "flow": 4568,
      "uracy": 4569,
      "mary": 4570,
      "Ġmag": 4571,
      "Ġorganizations": 4572,
      "Ġfilter": 4573,
      "Ġ35": 4574,
      "Ġanyone": 4575,
      "Ġlargest": 4576,
      "ttp": 4577,
      "ĠTime": 4578,
      "Ġhistorical": 4579,
      "Ġplayed": 4580,
      "ĠDecember": 4581,
      "ĠSing": 4582,
      "Ġproduced": 4583,
      "level": 4584,
      "Ġalternative": 4585,
      "ĠMult": 4586,
      "ario": 4587,
      "works": 4588,
      "input": 4589,
      "rought": 4590,
      "gy": 4591,
      "Ġexpressed": 4592,
      "Ġ2011": 4593,
      "ocation": 4594,
      "ĠOf": 4595,
      "ango": 4596,
      "wide": 4597,
      "Ġnode": 4598,
      "Ġconflic": 4599,
      "Ġvital": 4600,
      "De": 4601,
      "}^{": 4602,
      "Ġhandling": 4603,
      "onic": 4604,
      "Ġcounter": 4605,
      "Ġ:---": 4606,
      "Ġresource": 4607,
      "Ġconsistent": 4608,
      "ynomial": 4609,
      "Ġclearly": 4610,
      "Ġchallenging": 4611,
      "overs": 4612,
      "AI": 4613,
      "ails": 4614,
      "ĠUs": 4615,
      "Ġconfidence": 4616,
      "ĠAccording": 4617,
      "Ġcold": 4618,
      "Ġoffice": 4619,
      "Ġleaves": 4620,
      "icial": 4621,
      "Ġengage": 4622,
      "itiz": 4623,
      "Ġmotion": 4624,
      "Ġhighest": 4625,
      "olic": 4626,
      "hent": 4627,
      "Ġreduced": 4628,
      "Ġsubt": 4629,
      "Ġfacilit": 4630,
      "Ġcontinuous": 4631,
      "After": 4632,
      "Ġneigh": 4633,
      "Ġresearchers": 4634,
      "Ġinteresting": 4635,
      "Ġdiag": 4636,
      "Ġcampa": 4637,
      "Ġdouble": 4638,
      "Ġmathematics": 4639,
      "Ġpret": 4640,
      "state": 4641,
      "ederal": 4642,
      "Ġtouch": 4643,
      "df": 4644,
      "Ġinterval": 4645,
      "Ġplaying": 4646,
      "Ġmultipl": 4647,
      "eline": 4648,
      "OS": 4649,
      "Ġcore": 4650,
      "Ġhelping": 4651,
      "Ġanalyze": 4652,
      "Ġderivative": 4653,
      "Ġmonit": 4654,
      "active": 4655,
      "Ġmap": 4656,
      "ĠDirect": 4657,
      "Ġtopic": 4658,
      "Ġfollowed": 4659,
      "ĠFrench": 4660,
      "Ġsmooth": 4661,
      "Ġgold": 4662,
      "ĠGreat": 4663,
      "Ġtrees": 4664,
      "ĠDepartment": 4665,
      "Ġoutcomes": 4666,
      "rant": 4667,
      "ester": 4668,
      "Ġbed": 4669,
      "lean": 4670,
      "ĠDec": 4671,
      "ĠHol": 4672,
      "Ġresistance": 4673,
      "ĠAng": 4674,
      "hesis": 4675,
      "Ġclient": 4676,
      "Not": 4677,
      "ĠMc": 4678,
      "ractions": 4679,
      "sec": 4680,
      "Ġimplementation": 4681,
      "water": 4682,
      "Ġ2019": 4683,
      "Ġcompletely": 4684,
      "ĠSur": 4685,
      "plications": 4686,
      "ĠManagement": 4687,
      "Ġdescribe": 4688,
      "Ġcopy": 4689,
      "ĠPat": 4690,
      "Ġsem": 4691,
      "ĠNumber": 4692,
      "True": 4693,
      "mitted": 4694,
      "ris": 4695,
      "Ġfraction": 4696,
      "do": 4697,
      "ĠGeneral": 4698,
      "Ġsustainable": 4699,
      "ĠÃ": 4700,
      "Ġbudget": 4701,
      "cil": 4702,
      "Ġ2020": 4703,
      "Ġpair": 4704,
      "Ġrapid": 4705,
      "Ġacqu": 4706,
      "Ġdefinition": 4707,
      "mark": 4708,
      "Ġinfl": 4709,
      "Ġregist": 4710,
      "Ġdefault": 4711,
      "Ġstored": 4712,
      "ĠMath": 4713,
      "ĠCenter": 4714,
      "error": 4715,
      "elines": 4716,
      "Ġgiving": 4717,
      "ĠView": 4718,
      "osite": 4719,
      "Ġsevere": 4720,
      "Ġmultip": 4721,
      "Ġcivil": 4722,
      "Ġletter": 4723,
      "rics": 4724,
      "Ġdepth": 4725,
      "Ġmeters": 4726,
      "fty": 4727,
      "lands": 4728,
      "Ġdifferences": 4729,
      "Ġexhib": 4730,
      "Ġseeking": 4731,
      "Ġmount": 4732,
      "ĠPark": 4733,
      "Ġfear": 4734,
      "Ġbacter": 4735,
      "Ġready": 4736,
      "Ġmodule": 4737,
      "Ġchance": 4738,
      "Ġbehavi": 4739,
      "Ġprepar": 4740,
      "fil": 4741,
      "Ġstri": 4742,
      "Ġsolid": 4743,
      "ĠStudents": 4744,
      "Ġcro": 4745,
      "ĠPlan": 4746,
      "ĠAtt": 4747,
      "Ġstories": 4748,
      "esus": 4749,
      "Ġdead": 4750,
      "Ġdetect": 4751,
      "ĠFebruary": 4752,
      "ework": 4753,
      "Ġconsequ": 4754,
      "Data": 4755,
      "Ġvict": 4756,
      "Ġgar": 4757,
      "Options": 4758,
      "Ġfig": 4759,
      "Ġhour": 4760,
      "Ġaccurate": 4761,
      "Ġintegers": 4762,
      "tes": 4763,
      "Ġhumans": 4764,
      "49": 4765,
      "Ġearth": 4766,
      "aset": 4767,
      "Ar": 4768,
      "Ġjoint": 4769,
      "Ġnumerous": 4770,
      "Ġinsurance": 4771,
      "Ġacademic": 4772,
      "67": 4773,
      "Ġprinciples": 4774,
      "31": 4775,
      "Ġstock": 4776,
      "Ġborn": 4777,
      "Ġprime": 4778,
      "Ġroots": 4779,
      "mp": 4780,
      "Ġsoon": 4781,
      "Ġ\"$": 4782,
      "Ġhous": 4783,
      "ĠOb": 4784,
      "Ġwhose": 4785,
      "Ġstructures": 4786,
      "Ġpromote": 4787,
      "Ġseparate": 4788,
      "Ġlaws": 4789,
      "ought": 4790,
      "Ġplays": 4791,
      "ĠType": 4792,
      "BC": 4793,
      "Ġsigns": 4794,
      "ashing": 4795,
      "Ġspeak": 4796,
      "ĠÐ": 4797,
      "Ġarchitect": 4798,
      "crete": 4799,
      "Ġcook": 4800,
      "apping": 4801,
      "')": 4802,
      "alysis": 4803,
      "string": 4804,
      "Ġexpon": 4805,
      "irt": 4806,
      "Ġ(-": 4807,
      "ignment": 4808,
      "aught": 4809,
      "ĠPost": 4810,
      "Ġ%": 4811,
      "iences": 4812,
      "Ġdegrees": 4813,
      "ĠBro": 4814,
      "ups": 4815,
      "Ġsummer": 4816,
      "Ġforeign": 4817,
      "ĠINT": 4818,
      "ĠDem": 4819,
      "MS": 4820,
      "Ġexcess": 4821,
      "ibly": 4822,
      "Ġ2017": 4823,
      "Ġseconds": 4824,
      "ULL": 4825,
      "Ġdriving": 4826,
      "och": 4827,
      "Ġedge": 4828,
      "Ġreasonable": 4829,
      "Ġsolar": 4830,
      "ĠHT": 4831,
      "Ġerrors": 4832,
      "inese": 4833,
      "Ġmix": 4834,
      "Ġhope": 4835,
      "Ġplaced": 4836,
      "(-": 4837,
      "Ġegg": 4838,
      "Ġthus": 4839,
      "Ġmode": 4840,
      "Ġenab": 4841,
      "iewer": 4842,
      "Ġengineering": 4843,
      "Ġtips": 4844,
      "ĠUK": 4845,
      "mosp": 4846,
      ".\"\"\"": 4847,
      "ipe": 4848,
      "CC": 4849,
      "Teacher": 4850,
      "Ġdogs": 4851,
      "IV": 4852,
      "ĠInitial": 4853,
      "Ġmaster": 4854,
      "Ġq": 4855,
      "arian": 4856,
      "ollow": 4857,
      "HERE": 4858,
      "ĠExt": 4859,
      "ums": 4860,
      "lines": 4861,
      "ĠAnt": 4862,
      "Ġproperly": 4863,
      "ht": 4864,
      "Ġadopt": 4865,
      "Ġcollege": 4866,
      "ky": 4867,
      "68": 4868,
      "Ġslight": 4869,
      "Ġphase": 4870,
      "uman": 4871,
      "Ġwindow": 4872,
      "Ġclar": 4873,
      "Ġ2014": 4874,
      "Ġingred": 4875,
      "ĠConsider": 4876,
      "utive": 4877,
      "Ġ\\):": 4878,
      "ĠArmy": 4879,
      "odies": 4880,
      "Ġinformed": 4881,
      "uzz": 4882,
      "onom": 4883,
      "Ġplot": 4884,
      "Ġoccurs": 4885,
      "cohol": 4886,
      "oding": 4887,
      "âĢľ": 4888,
      "ĠSy": 4889,
      "}^": 4890,
      "Ġmist": 4891,
      "idge": 4892,
      "Ġinternal": 4893,
      "Ġformer": 4894,
      "Ġcreation": 4895,
      "47": 4896,
      "Ġexperienced": 4897,
      "Layman": 4898,
      "Ġfixed": 4899,
      "ĠProgram": 4900,
      "Ġsports": 4901,
      "ham": 4902,
      "atically": 4903,
      "tage": 4904,
      "Ġteams": 4905,
      "Ġpeace": 4906,
      "Ġsmart": 4907,
      "infty": 4908,
      "Ġtechnique": 4909,
      "rier": 4910,
      "Ġretrie": 4911,
      "Ġunc": 4912,
      "ĊĠĠĠĠĠ": 4913,
      "Ġ2016": 4914,
      "Ġgets": 4915,
      "chen": 4916,
      "Ġ2015": 4917,
      "Ġcategory": 4918,
      "ĠIS": 4919,
      "++": 4920,
      "Ġblog": 4921,
      "Ġsugar": 4922,
      "box": 4923,
      "Ġotherwise": 4924,
      "otic": 4925,
      "Ġmeeting": 4926,
      "ĠEuropean": 4927,
      "Ġselected": 4928,
      "utor": 4929,
      "ename": 4930,
      "Ġusage": 4931,
      "Ġwal": 4932,
      "urt": 4933,
      "ecurity": 4934,
      "Ġbank": 4935,
      "Ġprofessionals": 4936,
      "Ġprotein": 4937,
      "Ġhit": 4938,
      "âĢ¢": 4939,
      "Ġdespite": 4940,
      "osen": 4941,
      "IR": 4942,
      "Ġcycle": 4943,
      "ĠWater": 4944,
      "usiness": 4945,
      "isher": 4946,
      "net": 4947,
      "Ġtechnologies": 4948,
      "icks": 4949,
      "Ġacid": 4950,
      "Ġleads": 4951,
      "><": 4952,
      "iforn": 4953,
      "Ġsession": 4954,
      "ech": 4955,
      "xiety": 4956,
      "Ġpages": 4957,
      "ĠOnce": 4958,
      "ĠWhether": 4959,
      "Ġshift": 4960,
      "Ġboost": 4961,
      "Ġtherapy": 4962,
      "Ġmulti": 4963,
      "Ġmo": 4964,
      "Ġlandscape": 4965,
      "Ġcolors": 4966,
      "Ġcompleted": 4967,
      "Ġmole": 4968,
      "Ġ?": 4969,
      "ifications": 4970,
      "Ġ70": 4971,
      "Ġ2022": 4972,
      "Ġsaw": 4973,
      "anges": 4974,
      "Ġimmediately": 4975,
      "ĠBlack": 4976,
      "venue": 4977,
      "Ġcomment": 4978,
      "ĠCounty": 4979,
      "Ġ2009": 4980,
      "Ġdro": 4981,
      "Ġsentiment": 4982,
      "Ġangles": 4983,
      "Ġos": 4984,
      "coming": 4985,
      "Ġhosp": 4986,
      "Ġspaces": 4987,
      "elta": 4988,
      "EL": 4989,
      "bar": 4990,
      "izer": 4991,
      "ĠCollege": 4992,
      "oyal": 4993,
      "bal": 4994,
      "Ġfather": 4995,
      "Ġvit": 4996,
      "Ġthous": 4997,
      "Ġple": 4998,
      "Ġelimin": 4999,
      "Ġprop": 5000,
      "Ġdescribes": 5001,
      "np": 5002,
      "Ġconfiguration": 5003,
      "ĠDav": 5004,
      "Ġrepresenting": 5005,
      "Ġalone": 5006,
      "Ġdetermined": 5007,
      "ormal": 5008,
      "Ġsell": 5009,
      "iling": 5010,
      "Ġserves": 5011,
      "jango": 5012,
      "nel": 5013,
      "iny": 5014,
      "anation": 5015,
      "ĠLab": 5016,
      "Ġforest": 5017,
      "Ġdenomin": 5018,
      "step": 5019,
      "rief": 5020,
      "95": 5021,
      "Ġvision": 5022,
      "Ġproport": 5023,
      "CD": 5024,
      "Ġemployee": 5025,
      "Ġtopics": 5026,
      "ĠExpl": 5027,
      "ferent": 5028,
      "ĠPower": 5029,
      "ĠInf": 5030,
      "Ġdepends": 5031,
      "Ġinterpret": 5032,
      "lor": 5033,
      "ĠEven": 5034,
      "Ġmovie": 5035,
      "Ðµ": 5036,
      "hetic": 5037,
      "ĠUnion": 5038,
      "ĠAlso": 5039,
      "ifornia": 5040,
      "ĠDiv": 5041,
      "Ġancient": 5042,
      "Cont": 5043,
      "allel": 5044,
      "ĠRa": 5045,
      "Ġign": 5046,
      "ya": 5047,
      "All": 5048,
      "ĠOF": 5049,
      "idden": 5050,
      "arter": 5051,
      "?\"": 5052,
      "free": 5053,
      "ĠCalculate": 5054,
      "500": 5055,
      "ishing": 5056,
      "Ġwoman": 5057,
      "Ġdomain": 5058,
      "Ġ(\"": 5059,
      "war": 5060,
      "des": 5061,
      "Ġfeedback": 5062,
      "ailed": 5063,
      "struct": 5064,
      "ĠEngine": 5065,
      "encing": 5066,
      "ĠPlay": 5067,
      "Ġcraft": 5068,
      "Ġgrade": 5069,
      "Ġadvantage": 5070,
      "ĠSum": 5071,
      "Ġdownload": 5072,
      "Ġbra": 5073,
      "alpha": 5074,
      "plate": 5075,
      "Ġexcellent": 5076,
      "undred": 5077,
      "Ġwel": 5078,
      "Ġcoming": 5079,
      "Ġmotiv": 5080,
      "neg": 5081,
      "ĠSan": 5082,
      "Ġdx": 5083,
      "Ġwonder": 5084,
      "Ġprimarily": 5085,
      "Ġrac": 5086,
      "Ġrect": 5087,
      "Ġdra": 5088,
      "ĠGet": 5089,
      "Ġinterested": 5090,
      "Ġtherefore": 5091,
      "ĠMathemat": 5092,
      "roduction": 5093,
      "ĠURL": 5094,
      "ĠDevelopment": 5095,
      "ĠPM": 5096,
      "Ġlabor": 5097,
      "Ġcreative": 5098,
      "going": 5099,
      "Ġmissing": 5100,
      "Ġfine": 5101,
      "ĠOpen": 5102,
      "Ġ31": 5103,
      "ĠTheorem": 5104,
      "Ġvs": 5105,
      "bur": 5106,
      "ĠTwo": 5107,
      "Ġstation": 5108,
      "Ġbelief": 5109,
      "Context": 5110,
      "ĠStart": 5111,
      "Ġconsumption": 5112,
      "ĠTom": 5113,
      "Ġconvert": 5114,
      "ĠCare": 5115,
      "Ġpy": 5116,
      "unt": 5117,
      "Ġtheorem": 5118,
      "igma": 5119,
      "eper": 5120,
      "orders": 5121,
      "oses": 5122,
      "Ġregions": 5123,
      "Ġrise": 5124,
      "Ġclin": 5125,
      "Key": 5126,
      "ĠPresident": 5127,
      "Ġrecently": 5128,
      "Ġimproved": 5129,
      "Ġolder": 5130,
      "Ġfa": 5131,
      "Ġcircum": 5132,
      "Ġhabit": 5133,
      "Ġecho": 5134,
      "First": 5135,
      "poses": 5136,
      "Ġpolynomial": 5137,
      "Ġchanging": 5138,
      "Ġ2021": 5139,
      "tra": 5140,
      "Ġlic": 5141,
      "izon": 5142,
      "inite": 5143,
      "eria": 5144,
      "Ġlatest": 5145,
      "Ġsea": 5146,
      "ictionary": 5147,
      "Ġtraffic": 5148,
      "Ġgeneration": 5149,
      "la": 5150,
      "ĠJesus": 5151,
      "ĠEns": 5152,
      "Ġ2008": 5153,
      "Ġice": 5154,
      "cean": 5155,
      "Ġmut": 5156,
      "ĠAssoci": 5157,
      "Ġtechnical": 5158,
      "Ġconsidering": 5159,
      "ĠUnderstanding": 5160,
      "Ġcorrectly": 5161,
      "stitution": 5162,
      "Ġrespond": 5163,
      "ĠLa": 5164,
      "Comm": 5165,
      "Ġbottom": 5166,
      "rum": 5167,
      "Ġcommercial": 5168,
      "ij": 5169,
      "ibilities": 5170,
      "Ġproof": 5171,
      "Ġmiles": 5172,
      "Ġtold": 5173,
      "Ġsuccessfully": 5174,
      "FA": 5175,
      "ĠHy": 5176,
      "Ġcards": 5177,
      "info": 5178,
      "Ġannual": 5179,
      "Ġplease": 5180,
      "ĠGroup": 5181,
      "ica": 5182,
      "Ġteeth": 5183,
      "Ġspecifically": 5184,
      "Ġprompt": 5185,
      "ĠAfrica": 5186,
      "Ġdiseases": 5187,
      "Ġ36": 5188,
      "Ġrock": 5189,
      "Ġ32": 5190,
      "ias": 5191,
      "Ġnutri": 5192,
      "Ġentry": 5193,
      "Ġmanaging": 5194,
      "Ġencourage": 5195,
      "clusive": 5196,
      "Ġcausing": 5197,
      "erate": 5198,
      "Ġbattery": 5199,
      "Ġglass": 5200,
      "Ġidentified": 5201,
      "url": 5202,
      "Ġprices": 5203,
      "42": 5204,
      "CE": 5205,
      "rastructure": 5206,
      "ĠWork": 5207,
      "rable": 5208,
      "ĠProv": 5209,
      "Ġfeeling": 5210,
      "Ġband": 5211,
      "lete": 5212,
      "Ġeating": 5213,
      "leg": 5214,
      "Ġdynamic": 5215,
      "Ġcommitment": 5216,
      "ĠStand": 5217,
      "0000": 5218,
      "isation": 5219,
      "New": 5220,
      "Ġmobile": 5221,
      "mathbb": 5222,
      "ulum": 5223,
      "Ġnation": 5224,
      "asure": 5225,
      "Ġcommonly": 5226,
      "Ġshell": 5227,
      "ensor": 5228,
      "Ġatmosp": 5229,
      "ouncil": 5230,
      "can": 5231,
      "Ġbeg": 5232,
      "Ġpoly": 5233,
      "Ġskill": 5234,
      "ressive": 5235,
      "ĠâĪ": 5236,
      "Ġsites": 5237,
      "Ġremaining": 5238,
      "Ġworked": 5239,
      "ĠDict": 5240,
      "ithms": 5241,
      "Ġabsolute": 5242,
      "Ġworkers": 5243,
      "Ġadults": 5244,
      "Ġprem": 5245,
      "icing": 5246,
      "Ġphrase": 5247,
      "Ġspect": 5248,
      "arant": 5249,
      "Ġstores": 5250,
      "orrect": 5251,
      "Ġfocused": 5252,
      "oin": 5253,
      "oday": 5254,
      "Ġcontinues": 5255,
      "nes": 5256,
      "Name": 5257,
      "vity": 5258,
      "Ġindicates": 5259,
      "ĠChinese": 5260,
      "dule": 5261,
      "Ġlik": 5262,
      "position": 5263,
      "partial": 5264,
      "However": 5265,
      "ingu": 5266,
      "Ġagg": 5267,
      "UM": 5268,
      "Su": 5269,
      "Ġlen": 5270,
      "ĠDon": 5271,
      "ĠDuring": 5272,
      "rick": 5273,
      "Ġperformed": 5274,
      "ĠLearning": 5275,
      "Ġdream": 5276,
      "Ġliqu": 5277,
      "image": 5278,
      "Ġindicating": 5279,
      "Ġplane": 5280,
      "Ġwall": 5281,
      "Ġobserved": 5282,
      "Ġengagement": 5283,
      "Ġrein": 5284,
      "Ġoptimal": 5285,
      "ĠHouse": 5286,
      "Ġtoward": 5287,
      "anch": 5288,
      "ĠRE": 5289,
      "List": 5290,
      "Ġhappens": 5291,
      "ĠYear": 5292,
      "lambda": 5293,
      "ga": 5294,
      "Ġanti": 5295,
      "Ġconven": 5296,
      "ĠAM": 5297,
      "process": 5298,
      "Ġreality": 5299,
      "Ġmetal": 5300,
      "Ġhappen": 5301,
      "ĠStr": 5302,
      "Ġparameter": 5303,
      "Ġhom": 5304,
      "ĠElect": 5305,
      "ĠCalifornia": 5306,
      "RA": 5307,
      "Ġeconomy": 5308,
      "Ġinternet": 5309,
      "Ġrare": 5310,
      "rogen": 5311,
      "ĠService": 5312,
      "rence": 5313,
      "Ġteach": 5314,
      "ĠAD": 5315,
      "Ġequivalent": 5316,
      "house": 5317,
      "ĠKnowledge": 5318,
      "Ġpretty": 5319,
      "ĠProcess": 5320,
      "Ġformed": 5321,
      "ros": 5322,
      "iant": 5323,
      "Ġsituations": 5324,
      "Ġfalse": 5325,
      "Ġframe": 5326,
      "Ġpolicies": 5327,
      "Ġheavy": 5328,
      "Ġwidely": 5329,
      "Ġseek": 5330,
      "Ġdeliver": 5331,
      "ĠVis": 5332,
      "Ġintroduced": 5333,
      "Ġopin": 5334,
      "Ġparticipants": 5335,
      "len": 5336,
      "Ġnotice": 5337,
      "ĠName": 5338,
      "div": 5339,
      "ĠEv": 5340,
      "'(": 5341,
      "Ġsaying": 5342,
      "ĠSocial": 5343,
      "unk": 5344,
      "inations": 5345,
      "ĠJew": 5346,
      "ĠĊ": 5347,
      "field": 5348,
      "tered": 5349,
      "Ġabsor": 5350,
      "Ġapproaches": 5351,
      "Ġfaster": 5352,
      "88": 5353,
      "Ġexperiment": 5354,
      "start": 5355,
      "Ġaccuracy": 5356,
      "Mod": 5357,
      "---|---|": 5358,
      "Ġexternal": 5359,
      "Ġaffected": 5360,
      "product": 5361,
      "Ġcreates": 5362,
      "reedom": 5363,
      "Ġcollabor": 5364,
      "Ġfriend": 5365,
      "bmatrix": 5366,
      "Ġearlier": 5367,
      "ĠHel": 5368,
      "Ġmotor": 5369,
      "Ġswitch": 5370,
      "config": 5371,
      "othing": 5372,
      "OL": 5373,
      "estic": 5374,
      "Ġawareness": 5375,
      "Ġindicate": 5376,
      "Ġagricult": 5377,
      "46": 5378,
      "ĠSaf": 5379,
      "Ġchoices": 5380,
      "Ġpurposes": 5381,
      "ĠCanada": 5382,
      "Ġcitiz": 5383,
      "pact": 5384,
      "Ġleaders": 5385,
      "Ġnarr": 5386,
      "index": 5387,
      "Ã¡": 5388,
      "Ġadvice": 5389,
      "Ġclosed": 5390,
      "olved": 5391,
      "Ġrespectively": 5392,
      "Ġrepresentation": 5393,
      "oke": 5394,
      "Ġnovel": 5395,
      "ilos": 5396,
      "hips": 5397,
      "ipping": 5398,
      "Ġradius": 5399,
      "Ġconstraint": 5400,
      "Ġchain": 5401,
      "oted": 5402,
      "Ġsynt": 5403,
      "reason": 5404,
      "Ġserved": 5405,
      "haps": 5406,
      "Ġkn": 5407,
      "Ġdefine": 5408,
      "Ġkeeping": 5409,
      "Ġsupports": 5410,
      "Acc": 5411,
      "Ġimproving": 5412,
      "Ġdanger": 5413,
      "wa": 5414,
      "Ġ!": 5415,
      "ipped": 5416,
      "Ġwinter": 5417,
      "Ġvoice": 5418,
      "ificial": 5419,
      "Ġprocedure": 5420,
      "Ġbaby": 5421,
      "iform": 5422,
      "Ġnuc": 5423,
      "Ġmessages": 5424,
      "oul": 5425,
      "Ġbillion": 5426,
      "Ġnearly": 5427,
      "ĠProject": 5428,
      "men": 5429,
      "bed": 5430,
      "Ġcos": 5431,
      "Ġgovern": 5432,
      "ĠWeb": 5433,
      "wood": 5434,
      "quality": 5435,
      "vironments": 5436,
      "fit": 5437,
      "Ġexposure": 5438,
      "Ġreligious": 5439,
      "Ġcourses": 5440,
      "etch": 5441,
      "top": 5442,
      "Ġcontrast": 5443,
      "Ġkm": 5444,
      "Ġson": 5445,
      "Ġsignificance": 5446,
      "EST": 5447,
      "Ġholds": 5448,
      "Ġmig": 5449,
      "Ġarguments": 5450,
      "Ġ195": 5451,
      "ĠPhys": 5452,
      "ĠRun": 5453,
      "rael": 5454,
      "fe": 5455,
      "ĠMinister": 5456,
      "Col": 5457,
      "Ġcircuit": 5458,
      "Ġbeautiful": 5459,
      "Ġbelong": 5460,
      "Ġwave": 5461,
      "uilding": 5462,
      "Ġassume": 5463,
      "Ġevaluate": 5464,
      "ĠCourt": 5465,
      "Ġdoctor": 5466,
      "Ġprogramming": 5467,
      "Ġmanufacture": 5468,
      "which": 5469,
      "Interv": 5470,
      "hedule": 5471,
      "Ġrepresented": 5472,
      "ermine": 5473,
      "Ġappears": 5474,
      "ĠMake": 5475,
      "Sim": 5476,
      "python": 5477,
      "Ġmuscle": 5478,
      "Ġbecoming": 5479,
      "Ġpolice": 5480,
      "Ġsend": 5481,
      "Ġselection": 5482,
      "Ġgrid": 5483,
      "Ġperm": 5484,
      "run": 5485,
      "friendly": 5486,
      "Ġpush": 5487,
      "ĠPath": 5488,
      "Ġhundred": 5489,
      "rote": 5490,
      "à¥į": 5491,
      "ĠBecause": 5492,
      "ivery": 5493,
      "Ġpieces": 5494,
      "ĠGovernment": 5495,
      "à¤°": 5496,
      "Ġpurchase": 5497,
      "ĠNULL": 5498,
      "Ġlies": 5499,
      "ĠWind": 5500,
      "Ġdivision": 5501,
      "Ġsurpr": 5502,
      "essions": 5503,
      "body": 5504,
      "ifferent": 5505,
      "alt": 5506,
      "Ġwear": 5507,
      "ĠAfrican": 5508,
      "Ġgenerated": 5509,
      "Ġ-\\": 5510,
      "ishes": 5511,
      "Ġdiscussion": 5512,
      "Ġpackage": 5513,
      "Ġappoint": 5514,
      "Ġwidth": 5515,
      "PT": 5516,
      "ycl": 5517,
      "Ġadministr": 5518,
      "________________": 5519,
      "code": 5520,
      "aint": 5521,
      "istan": 5522,
      "model": 5523,
      "ĠResp": 5524,
      "ĠEast": 5525,
      "Ġwanted": 5526,
      "Since": 5527,
      "esh": 5528,
      "Ġinstructions": 5529,
      "Ġevolution": 5530,
      "Ġspot": 5531,
      "essage": 5532,
      "}.": 5533,
      "Ġperspective": 5534,
      "Ġappearance": 5535,
      "Ġtransition": 5536,
      "Ġmale": 5537,
      "------------": 5538,
      "ffee": 5539,
      "Ġminor": 5540,
      "Ġinequ": 5541,
      "Ġanxiety": 5542,
      "Ġsector": 5543,
      "iability": 5544,
      "ded": 5545,
      "Ġexpressions": 5546,
      "ico": 5547,
      "Ġcir": 5548,
      "Ġdedicated": 5549,
      "ĠHistory": 5550,
      "Ġmorning": 5551,
      "Ġspring": 5552,
      "Ġweak": 5553,
      "Ġstarts": 5554,
      "Em": 5555,
      "ĠAustralia": 5556,
      "ny": 5557,
      "Ġstar": 5558,
      "--------------------------------": 5559,
      "ev": 5560,
      "Ġpresented": 5561,
      "ï¼": 5562,
      "ĠDi": 5563,
      "Ġlov": 5564,
      "My": 5565,
      "98": 5566,
      "ln": 5567,
      "Ġloop": 5568,
      "reak": 5569,
      "ĠDesign": 5570,
      "Ġcas": 5571,
      "Ġaccessible": 5572,
      ")$": 5573,
      "Ġdensity": 5574,
      "Ġobtained": 5575,
      "Ġbrought": 5576,
      "Ġtiss": 5577,
      "}_": 5578,
      "ĠEvery": 5579,
      "Ġinters": 5580,
      "TP": 5581,
      "iday": 5582,
      "Ġauthent": 5583,
      "Ġpositions": 5584,
      "Ġconnections": 5585,
      "Ġvill": 5586,
      "abetes": 5587,
      "Ġviews": 5588,
      "Ġvacc": 5589,
      "uses": 5590,
      "estyle": 5591,
      "Ġpicture": 5592,
      "mm": 5593,
      "ondon": 5594,
      "Ġunivers": 5595,
      "ĠĠĠĠĠĠĠĠĠ": 5596,
      "ĠVol": 5597,
      "Ġalthough": 5598,
      "see": 5599,
      "Ġconclusion": 5600,
      "Ġoperating": 5601,
      "words": 5602,
      "Ġupper": 5603,
      "leq": 5604,
      "ĠTuple": 5605,
      "ĠGood": 5606,
      "Ġcovered": 5607,
      "orough": 5608,
      "ĠInstitute": 5609,
      "Ġintelligence": 5610,
      "Ġfoundation": 5611,
      "hab": 5612,
      "Ġchanged": 5613,
      "Ġstim": 5614,
      "02": 5615,
      "Ġclos": 5616,
      "From": 5617,
      "ĠRiver": 5618,
      "Ġleadership": 5619,
      "Ġinches": 5620,
      "Ġroles": 5621,
      "ĠIdent": 5622,
      "Ġmonitoring": 5623,
      "ache": 5624,
      "ĠBoth": 5625,
      "43": 5626,
      "Ġlooks": 5627,
      "Ġdivis": 5628,
      "Ð¾": 5629,
      "OC": 5630,
      "Ġcurve": 5631,
      "Ġment": 5632,
      "Ġfailure": 5633,
      "Ġscientists": 5634,
      "Ġbutton": 5635,
      "ĠJour": 5636,
      "Ġconv": 5637,
      "03": 5638,
      "Ġcombined": 5639,
      "Ġenvironments": 5640,
      "asts": 5641,
      "trans": 5642,
      "uality": 5643,
      "Ġreliable": 5644,
      "Ġattend": 5645,
      "ansion": 5646,
      "Or": 5647,
      "umn": 5648,
      "Ġphen": 5649,
      "iced": 5650,
      "!!": 5651,
      "Ġderived": 5652,
      "Ġtruth": 5653,
      "ãĤ": 5654,
      "Ġdimens": 5655,
      "SON": 5656,
      "Ġaims": 5657,
      "Ġchart": 5658,
      "ulner": 5659,
      "Ġdrug": 5660,
      "ĠPublic": 5661,
      "ĠMet": 5662,
      "Ġmoved": 5663,
      "ĠExper": 5664,
      "lin": 5665,
      "}\\).": 5666,
      "Ġtrou": 5667,
      "Ġreports": 5668,
      "iration": 5669,
      "icit": 5670,
      "][": 5671,
      "ĠTV": 5672,
      "ĠBY": 5673,
      "orthern": 5674,
      "Ġguidance": 5675,
      "Ġinterface": 5676,
      "ĠCong": 5677,
      "Ġ500": 5678,
      "Ġrelax": 5679,
      "Ġconducted": 5680,
      "Pre": 5681,
      "Ġcharacteristics": 5682,
      "dy": 5683,
      "amil": 5684,
      "Ġcritic": 5685,
      "Ġ2000": 5686,
      "ffective": 5687,
      "Ġupdated": 5688,
      "ĠMal": 5689,
      "iments": 5690,
      "Ass": 5691,
      "outhern": 5692,
      "ĠPort": 5693,
      "tical": 5694,
      "ĠDespite": 5695,
      "Ġpaid": 5696,
      "reasonable": 5697,
      "hop": 5698,
      "Ġ\\((": 5699,
      "rome": 5700,
      "ĠMethod": 5701,
      "ĠGreen": 5702,
      "itness": 5703,
      "ĠFound": 5704,
      "Ġgun": 5705,
      "ĠLeg": 5706,
      "oom": 5707,
      "ĠIP": 5708,
      "Ġdoll": 5709,
      "Ġapart": 5710,
      "fol": 5711,
      "CA": 5712,
      "Ġanswers": 5713,
      "ersonal": 5714,
      "ĠCommon": 5715,
      "Ġhimself": 5716,
      "icy": 5717,
      "Ġvibr": 5718,
      "inding": 5719,
      "tee": 5720,
      "Ġmission": 5721,
      "ĠProblem": 5722,
      "85": 5723,
      "Ġalcohol": 5724,
      "Ġdepartment": 5725,
      "Ġpassed": 5726,
      "Ġvoltage": 5727,
      "Ġpark": 5728,
      "ford": 5729,
      "Ġclick": 5730,
      "Ġ2025": 5731,
      "valid": 5732,
      "Ġtrends": 5733,
      "enior": 5734,
      "Ġvehicles": 5735,
      "Ð°": 5736,
      "ĠPeople": 5737,
      "ĠCentral": 5738,
      "ĠApplic": 5739,
      "('": 5740,
      "Ġremote": 5741,
      "77": 5742,
      "Ġwest": 5743,
      "Ġstrategic": 5744,
      "etime": 5745,
      "Ġrobust": 5746,
      "ĠPract": 5747,
      "ashion": 5748,
      "ĠGerman": 5749,
      "enty": 5750,
      "ĠFact": 5751,
      "Ġlimits": 5752,
      "UP": 5753,
      "Ġmoist": 5754,
      "init": 5755,
      "Ġpregn": 5756,
      "Ġimplies": 5757,
      "Ġcoordinates": 5758,
      "Ġpayment": 5759,
      ".**": 5760,
      "Aut": 5761,
      "Ġleaving": 5762,
      "Ġinvent": 5763,
      "ixt": 5764,
      "but": 5765,
      "ername": 5766,
      "Ġsand": 5767,
      "Consider": 5768,
      "oper": 5769,
      "ĠOper": 5770,
      "CHAR": 5771,
      "Ġdomin": 5772,
      "using": 5773,
      "faces": 5774,
      "Ġfemale": 5775,
      "osit": 5776,
      "Ġrecip": 5777,
      "Contextual": 5778,
      "Ġcleaning": 5779,
      "Ġthick": 5780,
      "Ġrecovery": 5781,
      "Ġfocusing": 5782,
      "ĠOrgan": 5783,
      "ĠWell": 5784,
      "isc": 5785,
      "Can": 5786,
      "ĠBel": 5787,
      "Ġtemperatures": 5788,
      "ĠSecond": 5789,
      "Ġessay": 5790,
      "Ġinnovative": 5791,
      "Ġfrequently": 5792,
      "Ġaren": 5793,
      "Ġelev": 5794,
      "41": 5795,
      "Ġassessment": 5796,
      "Ġmaxim": 5797,
      "ida": 5798,
      "Ġdivided": 5799,
      "Ġcamera": 5800,
      "Ġlearned": 5801,
      "Rec": 5802,
      "96": 5803,
      "Ġmit": 5804,
      "gl": 5805,
      "ĠHand": 5806,
      "Ġdrop": 5807,
      "ĠMich": 5808,
      "Ġtown": 5809,
      "Ġsyn": 5810,
      "Ġnutrition": 5811,
      "Ġban": 5812,
      "Ġkitchen": 5813,
      "Ġafford": 5814,
      "Ġnotes": 5815,
      "Ġvirtual": 5816,
      "Ġsty": 5817,
      "Ġcities": 5818,
      "Ġdenominator": 5819,
      "Ġframework": 5820,
      "Ġarm": 5821,
      "arg": 5822,
      "Ġbeneficial": 5823,
      "zy": 5824,
      "ĠOffic": 5825,
      "aper": 5826,
      "cosystem": 5827,
      "()`": 5828,
      "za": 5829,
      "Ġ2007": 5830,
      "Understanding": 5831,
      "DF": 5832,
      "inte": 5833,
      "Ġcalls": 5834,
      "ĠRs": 5835,
      "Ġelectrical": 5836,
      "Ġinfrastructure": 5837,
      "Ġplastic": 5838,
      "ĠSupport": 5839,
      "ĠIsrael": 5840,
      "ĠBas": 5841,
      "world": 5842,
      "Ġinterview": 5843,
      "ĠMor": 5844,
      "Ġnorth": 5845,
      "Ġphysics": 5846,
      "Ġrou": 5847,
      "orking": 5848,
      "Ġchecks": 5849,
      "nam": 5850,
      "RI": 5851,
      "Ġconsists": 5852,
      "Ġgrant": 5853,
      "Ġclients": 5854,
      "rency": 5855,
      "spec": 5856,
      "ĠInc": 5857,
      "Ġroutine": 5858,
      "Ġconstit": 5859,
      "âĪ": 5860,
      "asion": 5861,
      "Ġprepared": 5862,
      "reek": 5863,
      "Ġclassroom": 5864,
      "Ġinstr": 5865,
      "Ġdiscover": 5866,
      "riculum": 5867,
      "Ġslightly": 5868,
      "roy": 5869,
      "lights": 5870,
      "Ġlogic": 5871,
      "mu": 5872,
      "values": 5873,
      "Ġwat": 5874,
      "DA": 5875,
      "anish": 5876,
      "Ġ(`": 5877,
      "Ġdial": 5878,
      "Ġrace": 5879,
      "ĠEngland": 5880,
      "hus": 5881,
      "Ġmilk": 5882,
      "Ġdoub": 5883,
      "anguages": 5884,
      "Ġchosen": 5885,
      "Note": 5886,
      "weight": 5887,
      "Ġproposed": 5888,
      "umin": 5889,
      "Ġisol": 5890,
      "ĠSl": 5891,
      "Ġpriorit": 5892,
      "zer": 5893,
      "Ġhelpful": 5894,
      "Ġwants": 5895,
      "making": 5896,
      "04": 5897,
      "Ġexchange": 5898,
      "Ġthread": 5899,
      "ĠLife": 5900,
      "ĠAPI": 5901,
      "Ġinteractions": 5902,
      "ĠÂ·": 5903,
      "ĠChristian": 5904,
      "Ġshowing": 5905,
      "ĠSpec": 5906,
      "Ġsufficient": 5907,
      "Ġtor": 5908,
      "ĠFore": 5909,
      "ĠUnder": 5910,
      "Ġcop": 5911,
      "ocket": 5912,
      "Ġsupported": 5913,
      "ĠBra": 5914,
      "roid": 5915,
      "Ġparallel": 5916,
      "ĠLine": 5917,
      "Ġpul": 5918,
      "Ġoccup": 5919,
      "Ġapplying": 5920,
      ")\\)": 5921,
      "FROM": 5922,
      "08": 5923,
      "Ġspend": 5924,
      "Ġremoved": 5925,
      "ĠInstead": 5926,
      "tters": 5927,
      "Ġhomes": 5928,
      "lig": 5929,
      "ĠSpe": 5930,
      "ĠLondon": 5931,
      "ameter": 5932,
      "Ġcompare": 5933,
      "Ġdocuments": 5934,
      "TH": 5935,
      "pass": 5936,
      "pat": 5937,
      "Ġsupporting": 5938,
      "Ġaccounts": 5939,
      "ado": 5940,
      "Ġproceed": 5941,
      ">>": 5942,
      "Ġdrawing": 5943,
      "ĠBi": 5944,
      "Ġdoor": 5945,
      "Ġsched": 5946,
      "ĠDE": 5947,
      "ĠEst": 5948,
      "Ġcomfortable": 5949,
      "ä¸": 5950,
      "Ġlinked": 5951,
      "ĠRight": 5952,
      "Ġresponsibility": 5953,
      "Ġ[]": 5954,
      "isl": 5955,
      "ĠPal": 5956,
      "dx": 5957,
      "Ġnoise": 5958,
      "Ġtyping": 5959,
      "idents": 5960,
      "Ġsharing": 5961,
      "ĠLim": 5962,
      "Ġingredients": 5963,
      "ĠHome": 5964,
      "Ġclub": 5965,
      "Some": 5966,
      "Ġdiss": 5967,
      "à¥ĩ": 5968,
      "append": 5969,
      "sembly": 5970,
      "rat": 5971,
      "Ġruns": 5972,
      "opping": 5973,
      "ĠAlthough": 5974,
      "orge": 5975,
      "Ġyouth": 5976,
      "Ġcast": 5977,
      "OW": 5978,
      "Ġemotions": 5979,
      "Ġinfect": 5980,
      "Ġtransformation": 5981,
      "Ġbacteria": 5982,
      "Ab": 5983,
      "Ġconfir": 5984,
      "writ": 5985,
      "den": 5986,
      ")}{": 5987,
      "lements": 5988,
      "inger": 5989,
      "Ġinterests": 5990,
      "title": 5991,
      "aughter": 5992,
      "Ġintended": 5993,
      "ĠBusiness": 5994,
      "train": 5995,
      "ĠProt": 5996,
      "Ġcapabilities": 5997,
      "Ġalb": 5998,
      "Ġslope": 5999,
      "Ġwrote": 6000,
      "cription": 6001,
      "Interviewer": 6002,
      "Ġbeauty": 6003,
      "Ġtit": 6004,
      "Ġoffered": 6005,
      "Ġurban": 6006,
      "cap": 6007,
      "Ġassistance": 6008,
      "Ġpromoting": 6009,
      "ttps": 6010,
      "ĠServices": 6011,
      "Using": 6012,
      "ressed": 6013,
      "Ġprinciple": 6014,
      "Ġinnovation": 6015,
      "Ġonto": 6016,
      "ĠFund": 6017,
      "Ġpartial": 6018,
      "gener": 6019,
      "Ġfailed": 6020,
      "ĠControl": 6021,
      "Ġclosely": 6022,
      "Ġfruit": 6023,
      "Ġrefers": 6024,
      "Ġrows": 6025,
      "Ġlogger": 6026,
      "Ġ75": 6027,
      "Ġfeelings": 6028,
      "ĠImport": 6029,
      "Ġbool": 6030,
      "cm": 6031,
      "':": 6032,
      "Ġstability": 6033,
      "amily": 6034,
      "tan": 6035,
      "?**": 6036,
      ".[": 6037,
      "():": 6038,
      "Ġdifferential": 6039,
      "Ġprepare": 6040,
      "Ġenhancing": 6041,
      "last": 6042,
      "Ġidentifier": 6043,
      "ĠUN": 6044,
      "Ġaid": 6045,
      "Ġprecise": 6046,
      "Ġguess": 6047,
      "Ġdie": 6048,
      "Ġplanet": 6049,
      "long": 6050,
      "cs": 6051,
      "Ġbinary": 6052,
      "Ġinteraction": 6053,
      "Ġregulations": 6054,
      "UL": 6055,
      "Ġbirds": 6056,
      "Ġhear": 6057,
      "Ġgender": 6058,
      "Ġsubstant": 6059,
      "case": 6060,
      "Ġfill": 6061,
      "Ġpreferences": 6062,
      "Ġmanip": 6063,
      "Ġpool": 6064,
      "sect": 6065,
      "ĠEnsure": 6066,
      "cluding": 6067,
      "cking": 6068,
      "Ġreferred": 6069,
      "Ġcontinued": 6070,
      "Ġoccurred": 6071,
      "ĠLog": 6072,
      "Ġweap": 6073,
      "Ġvulner": 6074,
      "Ġseven": 6075,
      "Ġupdates": 6076,
      "Ġnavigate": 6077,
      "ĠAnalysis": 6078,
      "ĠMarket": 6079,
      "rich": 6080,
      "Ġleader": 6081,
      "gery": 6082,
      "Ġpreviously": 6083,
      "Ġgave": 6084,
      "bi": 6085,
      "User": 6086,
      "Ġhorizon": 6087,
      "Ġjoin": 6088,
      "istant": 6089,
      "Ġwire": 6090,
      "Ġheard": 6091,
      "door": 6092,
      "nership": 6093,
      "Ġdataset": 6094,
      "Ġkil": 6095,
      "Ġtang": 6096,
      "Ġreaction": 6097,
      "Ġsusp": 6098,
      "Ġspent": 6099,
      "Ġsouth": 6100,
      "ĠTem": 6101,
      "hors": 6102,
      "Ġpal": 6103,
      "06": 6104,
      "Ġcouple": 6105,
      "ĠVer": 6106,
      "Ġmm": 6107,
      "oma": 6108,
      "Bl": 6109,
      "Do": 6110,
      "Ġsounds": 6111,
      "ieving": 6112,
      "Ġdecimal": 6113,
      "Ġquantity": 6114,
      "Ġdefinite": 6115,
      "ĠSam": 6116,
      "Ġgenetic": 6117,
      "crib": 6118,
      "Ġmatches": 6119,
      "ĠPlease": 6120,
      "antic": 6121,
      "output": 6122,
      "Ġsexual": 6123,
      "Ġcompetition": 6124,
      "Ġsecret": 6125,
      "Reg": 6126,
      "Ġadvent": 6127,
      "Ġsamples": 6128,
      "ĠPhil": 6129,
      "Ġguarant": 6130,
      "Ġextended": 6131,
      "ĠTechnology": 6132,
      "Ġhop": 6133,
      "Ġvertical": 6134,
      "post": 6135,
      "Ġmonitor": 6136,
      "stract": 6137,
      "Ġtone": 6138,
      "They": 6139,
      "Ġmouth": 6140,
      "ographic": 6141,
      "ĠThrough": 6142,
      "that": 6143,
      "Ġwealth": 6144,
      "MA": 6145,
      "Ġsurvey": 6146,
      "Ġadvoc": 6147,
      "Ġexceed": 6148,
      "Ġdeeper": 6149,
      "Ġorders": 6150,
      "Ġorganic": 6151,
      "ivate": 6152,
      "PA": 6153,
      "Ġinjury": 6154,
      "Ġcollaboration": 6155,
      "Ġdiscovered": 6156,
      "FT": 6157,
      "Ġecosystem": 6158,
      "Ġenabling": 6159,
      "Ġadvantages": 6160,
      "Ġentertain": 6161,
      "Pr": 6162,
      "Given": 6163,
      "Ġfaith": 6164,
      "Ġnetworks": 6165,
      "Ġdistrict": 6166,
      "ĠFurther": 6167,
      "Ġrelatively": 6168,
      "Ġenable": 6169,
      "Ġfirm": 6170,
      "Ġstated": 6171,
      "Ġcrypt": 6172,
      "Ġjobs": 6173,
      "Ġliquid": 6174,
      "Ġcash": 6175,
      "istical": 6176,
      "Ġbow": 6177,
      "Ġbrow": 6178,
      "eries": 6179,
      "ATION": 6180,
      "ĠLevel": 6181,
      "Ġfootball": 6182,
      "ulating": 6183,
      "97": 6184,
      "\"),": 6185,
      "ĠEnvironment": 6186,
      "duction": 6187,
      "Ġraised": 6188,
      "Ġopposite": 6189,
      "Ġindustrial": 6190,
      "Ġcoffee": 6191,
      "Ġsegment": 6192,
      "Ġmedium": 6193,
      "ognitive": 6194,
      "Ġfunctional": 6195,
      "Ġdied": 6196,
      "ĠRegular": 6197,
      "Ġpros": 6198,
      "apers": 6199,
      "ĠMr": 6200,
      "Ġhuge": 6201,
      "Ġfluid": 6202,
      "ka": 6203,
      "EY": 6204,
      "ĠAC": 6205,
      "ĠChildren": 6206,
      "Ġquadratic": 6207,
      "ãĥ": 6208,
      "band": 6209,
      "Ġguidelines": 6210,
      "Ġoverl": 6211,
      "ads": 6212,
      "Ġpip": 6213,
      "Ġfloor": 6214,
      "ĠBet": 6215,
      "Ġfab": 6216,
      "Ġacknow": 6217,
      "Ġcoast": 6218,
      "Ġ(\\": 6219,
      "Ġthoughts": 6220,
      "Ġcompetitive": 6221,
      "Ġscal": 6222,
      "ĠNote": 6223,
      "Ġenthus": 6224,
      "Ġinitially": 6225,
      "pace": 6226,
      "lick": 6227,
      "anged": 6228,
      "eless": 6229,
      "ĠInteg": 6230,
      "Man": 6231,
      "ARCHAR": 6232,
      "Ġeight": 6233,
      "Ġexperts": 6234,
      "Ġatmosphere": 6235,
      "Ġbegins": 6236,
      "SA": 6237,
      "Ġdecided": 6238,
      "Ġrecorded": 6239,
      "Ġstatements": 6240,
      "ĠMax": 6241,
      "iated": 6242,
      "Ġfreedom": 6243,
      "07": 6244,
      "Ġinstalled": 6245,
      "ossible": 6246,
      "Ġshif": 6247,
      "Me": 6248,
      "ĠDisc": 6249,
      "Ġreturned": 6250,
      "ĠMicro": 6251,
      "Ġlose": 6252,
      "SP": 6253,
      "Ġfilled": 6254,
      "Ġfamiliar": 6255,
      "Ġexpensive": 6256,
      "Ġinfection": 6257,
      "Ġreduction": 6258,
      "Ġlocations": 6259,
      "Ġ$:": 6260,
      "ĠCap": 6261,
      "Ġdelay": 6262,
      "CRE": 6263,
      "Ġdelivery": 6264,
      "Ġstatistics": 6265,
      "ĠAcad": 6266,
      "Ġprofit": 6267,
      "Ġaccompl": 6268,
      "Ġpairs": 6269,
      "Ġfractions": 6270,
      "Ġfunctionality": 6271,
      "riage": 6272,
      "Ġfix": 6273,
      "IL": 6274,
      "ĠĠĠĠĠĠĠĠĠĠ": 6275,
      "han": 6276,
      "Ġinval": 6277,
      "tex": 6278,
      "Ġgaming": 6279,
      "Ġmeat": 6280,
      "Ġtalking": 6281,
      "Ġ2006": 6282,
      "Ġmoves": 6283,
      "ĠRepublic": 6284,
      "ĠâĢ¦": 6285,
      "Ġestimated": 6286,
      "Ġprove": 6287,
      "Ġrelation": 6288,
      "ĠSun": 6289,
      "Ġaward": 6290,
      "plement": 6291,
      "Ġvideos": 6292,
      "pling": 6293,
      "ĠCouncil": 6294,
      "Ġsymmet": 6295,
      "angles": 6296,
      "Ġmajority": 6297,
      "atin": 6298,
      "vec": 6299,
      "Ġbodies": 6300,
      "Ġperiods": 6301,
      "function": 6302,
      "Ġflat": 6303,
      "ĠFood": 6304,
      "ME": 6305,
      "Ġdram": 6306,
      "dered": 6307,
      "Ġthorough": 6308,
      "Ġpull": 6309,
      "Ġextensive": 6310,
      "ĠRequ": 6311,
      "nings": 6312,
      "Ġ48": 6313,
      "xygen": 6314,
      "olf": 6315,
      "Ġfunds": 6316,
      "Ġmultiplication": 6317,
      "length": 6318,
      "Ġserving": 6319,
      "Ġgather": 6320,
      "Ġspeech": 6321,
      "ĠTraining": 6322,
      "Ġstuff": 6323,
      "gu": 6324,
      "Ġlessons": 6325,
      "Ġrestrict": 6326,
      "Ġalgorithms": 6327,
      "pare": 6328,
      "Ġvectors": 6329,
      "Ġlesson": 6330,
      "69": 6331,
      "ĠSoci": 6332,
      "Ġaxis": 6333,
      "Ġmanner": 6334,
      "__(": 6335,
      "ĠGen": 6336,
      "Ġtruly": 6337,
      "orrow": 6338,
      "Ġfert": 6339,
      "Ġrepair": 6340,
      "ypes": 6341,
      "That": 6342,
      "Ġunless": 6343,
      "enefits": 6344,
      "ĠWorks": 6345,
      "dict": 6346,
      "ÂŃ": 6347,
      "Ġamb": 6348,
      "include": 6349,
      "stream": 6350,
      "Ġsubsequ": 6351,
      "Ġdiscussed": 6352,
      "ircraft": 6353,
      "ĠCustom": 6354,
      "Ġregularly": 6355,
      "Ġcars": 6356,
      "Ġspeaker": 6357,
      "Ġjournal": 6358,
      "ander": 6359,
      "Ġcampaign": 6360,
      "Ġtasked": 6361,
      "Ġfavorite": 6362,
      "ĠMex": 6363,
      "akers": 6364,
      "ĠRev": 6365,
      "ãĢ": 6366,
      "ĠMac": 6367,
      "icious": 6368,
      "Ġimmune": 6369,
      "Ġdut": 6370,
      "unte": 6371,
      "Ġfelt": 6372,
      "Ġiron": 6373,
      "bing": 6374,
      "Ġcooking": 6375,
      "negative": 6376,
      "Ġneut": 6377,
      "Ġadvert": 6378,
      "**.": 6379,
      "ashington": 6380,
      "Our": 6381,
      "ien": 6382,
      "lo": 6383,
      "Ġhun": 6384,
      "Ġexercises": 6385,
      "Ġconservation": 6386,
      "Ġconversion": 6387,
      "Ġnative": 6388,
      "har": 6389,
      "Be": 6390,
      "Ġlinks": 6391,
      "ĠAssociation": 6392,
      "ael": 6393,
      "Ġcomments": 6394,
      "ĠArch": 6395,
      "Ġsignals": 6396,
      "ĠPerform": 6397,
      "Ġraw": 6398,
      "Ġcitizens": 6399,
      "ĠWestern": 6400,
      "gers": 6401,
      "Ġverify": 6402,
      "lam": 6403,
      "ĠON": 6404,
      "Ġchannel": 6405,
      "Ġexpertise": 6406,
      "ĠJames": 6407,
      "Ġexploring": 6408,
      "Ġgoods": 6409,
      "ĠModel": 6410,
      "Ġfederal": 6411,
      "Ġpun": 6412,
      "Ġdimensions": 6413,
      "ĠShell": 6414,
      "phone": 6415,
      "icking": 6416,
      "ommod": 6417,
      "ategory": 6418,
      "ĠDavid": 6419,
      "Ġconflict": 6420,
      "During": 6421,
      "Ġahead": 6422,
      "current": 6423,
      "Ġrank": 6424,
      "Ġprocedures": 6425,
      "ĠFinally": 6426,
      "Ġhappy": 6427,
      "Ġarrange": 6428,
      "Ġseed": 6429,
      "Ġexecution": 6430,
      "ĠFrance": 6431,
      "ĠProper": 6432,
      "oles": 6433,
      "Ġtheore": 6434,
      "ĠAdv": 6435,
      "Ġphenomen": 6436,
      "Ġimprovement": 6437,
      "Ġlifestyle": 6438,
      "Ġdisapp": 6439,
      "Ġkill": 6440,
      "well": 6441,
      "Ġclust": 6442,
      "Ġbreed": 6443,
      "Ġgeometry": 6444,
      "Ġcomplexity": 6445,
      "Date": 6446,
      "PL": 6447,
      "tem": 6448,
      "points": 6449,
      "Ġeventually": 6450,
      "ounced": 6451,
      "Ġshar": 6452,
      "itors": 6453,
      "Ġmer": 6454,
      "Ġextremely": 6455,
      "Ġdriver": 6456,
      "gal": 6457,
      "63": 6458,
      "Ġju": 6459,
      "Ġ300": 6460,
      "Ġvent": 6461,
      "ĠSuper": 6462,
      "ĠPress": 6463,
      "Ġphilos": 6464,
      "Ġath": 6465,
      "Ġparties": 6466,
      "asp": 6467,
      "map": 6468,
      "Ġmel": 6469,
      "62": 6470,
      "ĠStrateg": 6471,
      "Ġvast": 6472,
      "Ġunreasonable": 6473,
      "pred": 6474,
      "Ġexit": 6475,
      "Post": 6476,
      "ĠGra": 6477,
      "ĊĊĠ": 6478,
      "utation": 6479,
      "Ġevaluation": 6480,
      "Ġresil": 6481,
      "Ġlanguages": 6482,
      "Ġfacilities": 6483,
      "09": 6484,
      "Ġtherm": 6485,
      "ĊĠĠĠĠĠĠĠĠĠĠĠĠĠĠĠĠĠĠĠĠĠĠĠ": 6486,
      "Ġchoosing": 6487,
      "Ġrational": 6488,
      "Ġeffectiveness": 6489,
      "Ġdemonstrate": 6490,
      "then": 6491,
      "Ġreduces": 6492,
      "Ġbrief": 6493,
      "Ġopening": 6494,
      "Ġaudio": 6495,
      "Ġcarefully": 6496,
      "ĠSch": 6497,
      "ĠCS": 6498,
      "she": 6499,
      "Ġcorpor": 6500,
      "Ġadult": 6501,
      "Ġ1000": 6502,
      "Ġuns": 6503,
      "ĠDig": 6504,
      "ĠTotal": 6505,
      "Ġepis": 6506,
      "Ġsubstantial": 6507,
      "Ġongoing": 6508,
      "Ġturned": 6509,
      "Ġcreativity": 6510,
      "ĠSimilar": 6511,
      "ola": 6512,
      "Des": 6513,
      "agers": 6514,
      "number": 6515,
      "Ġmanufacturing": 6516,
      "Ġconsequences": 6517,
      "Ġreb": 6518,
      "Ġbright": 6519,
      "Ġachieved": 6520,
      "Id": 6521,
      "Ġbot": 6522,
      "page": 6523,
      "ĠMem": 6524,
      "Ġinstitutions": 6525,
      "ampions": 6526,
      "ĠSpecial": 6527,
      "ĠMag": 6528,
      "Ġkid": 6529,
      "const": 6530,
      "parent": 6531,
      "CL": 6532,
      "]]": 6533,
      "Ġmal": 6534,
      "ĠConf": 6535,
      "ĠFROM": 6536,
      "Ġsessions": 6537,
      "ĠPaul": 6538,
      "Ġvote": 6539,
      "Ġwait": 6540,
      "ports": 6541,
      "Ġradio": 6542,
      "Ġinner": 6543,
      "ĠSupp": 6544,
      "Ġexpansion": 6545,
      "Ġassets": 6546,
      "Ġalign": 6547,
      "Ġsensitive": 6548,
      "Ġimplemented": 6549,
      "Ġrevenue": 6550,
      "ployment": 6551,
      "Ġshowed": 6552,
      "Over": 6553,
      "Ġvac": 6554,
      "ĠKeep": 6555,
      "Another": 6556,
      "57": 6557,
      "ĠAvoid": 6558,
      "ĠPoint": 6559,
      "Ġyellow": 6560,
      "Are": 6561,
      "Ġyield": 6562,
      "ĠSal": 6563,
      "rd": 6564,
      "Ġobvious": 6565,
      "ometric": 6566,
      "Ġpartner": 6567,
      "Ġrain": 6568,
      "Ġdrugs": 6569,
      "ĠNum": 6570,
      "Ġnull": 6571,
      "bash": 6572,
      "ĠTop": 6573,
      "Ġdiabetes": 6574,
      "Ġcalculation": 6575,
      "Ġcarried": 6576,
      "pring": 6577,
      "ocking": 6578,
      "Ġscene": 6579,
      "Ġinstruction": 6580,
      "ĠComple": 6581,
      "under": 6582,
      "Ġfinally": 6583,
      "OD": 6584,
      "ĠĠĠĠĠĠĠĠĠĠĠ": 6585,
      "ĠRef": 6586,
      "ĠDNA": 6587,
      "atever": 6588,
      "Ġduration": 6589,
      "outs": 6590,
      "axis": 6591,
      "Ġschedule": 6592,
      "Ġgrand": 6593,
      "dep": 6594,
      "ĠBay": 6595,
      "Ġmere": 6596,
      "ĠTur": 6597,
      "Ġdivide": 6598,
      "ĠProduct": 6599,
      "Ġdigit": 6600,
      "Ġversat": 6601,
      "ĠBest": 6602,
      "ĠPC": 6603,
      "aste": 6604,
      "Ġenables": 6605,
      "ĠBal": 6606,
      "Ġcloud": 6607,
      "ĠRoman": 6608,
      "ĠWho": 6609,
      "ĠGermany": 6610,
      "idates": 6611,
      "Ð¸": 6612,
      "Ġhelped": 6613,
      "arsh": 6614,
      "Ġbalanced": 6615,
      "lies": 6616,
      "Ġfigures": 6617,
      "Ġfocuses": 6618,
      "Ġ2005": 6619,
      "ĠCost": 6620,
      "kin": 6621,
      "dat": 6622,
      "html": 6623,
      "ĠÏ": 6624,
      "Ġhearing": 6625,
      "Ġmeasured": 6626,
      "grad": 6627,
      "Ġmanager": 6628,
      "Ġauthority": 6629,
      "Ġtaste": 6630,
      "Ġletters": 6631,
      "Ġfindings": 6632,
      "car": 6633,
      "ĠSecurity": 6634,
      "Ġcolon": 6635,
      "Ġstands": 6636,
      "Ġamounts": 6637,
      "bles": 6638,
      "icular": 6639,
      "Ġstick": 6640,
      "Ġimpacts": 6641,
      "ĠGold": 6642,
      "ĠChurch": 6643,
      "Ġreaders": 6644,
      "Ġattacks": 6645,
      "Ġtick": 6646,
      "Ġpeak": 6647,
      "Ġtank": 6648,
      "ĠUser": 6649,
      "Ġestimate": 6650,
      "Ġdental": 6651,
      "itage": 6652,
      "ĠWhite": 6653,
      "ĠDev": 6654,
      "ĠMo": 6655,
      "Ġrenew": 6656,
      "Ġemergency": 6657,
      "conn": 6658,
      "Ġlisted": 6659,
      "ĠIT": 6660,
      "tion": 6661,
      "Ġcutting": 6662,
      "IF": 6663,
      "Ġtooth": 6664,
      "ĠOR": 6665,
      "Ġillness": 6666,
      "soft": 6667,
      "det": 6668,
      "Ġimplementing": 6669,
      "Ġ'''": 6670,
      "Present": 6671,
      "table": 6672,
      "Ġshel": 6673,
      "%.": 6674,
      "ĠIC": 6675,
      "ABLE": 6676,
      "ipal": 6677,
      "iture": 6678,
      "SQL": 6679,
      "Ġcapture": 6680,
      "Ġreached": 6681,
      "ĠBook": 6682,
      "Ġbelieved": 6683,
      "Ġcatch": 6684,
      "Ġworldwide": 6685,
      "Ġtypical": 6686,
      "Ġclaims": 6687,
      "Ġloan": 6688,
      "inent": 6689,
      "ĠCreat": 6690,
      "imensional": 6691,
      "Ġsetup": 6692,
      "Ġregardless": 6693,
      "Ġinteractive": 6694,
      ")\\": 6695,
      "positive": 6696,
      "ĠEnergy": 6697,
      "Ġsurrounding": 6698,
      "Ġspiritual": 6699,
      "ĠJapanese": 6700,
      "rypt": 6701,
      "istent": 6702,
      "Ġnoted": 6703,
      "Ġce": 6704,
      "Ġformal": 6705,
      "Ġrevolution": 6706,
      "Set": 6707,
      "Ġmort": 6708,
      "Ġsan": 6709,
      "BA": 6710,
      "db": 6711,
      "ĠCommission": 6712,
      "Ġportion": 6713,
      "Ġcong": 6714,
      "ĠWashington": 6715,
      "Ġfr": 6716,
      "OP": 6717,
      "ĠFunction": 6718,
      "Ġcalculus": 6719,
      "rem": 6720,
      "Val": 6721,
      "ðŁ": 6722,
      "uled": 6723,
      "Ġì": 6724,
      "Ġtried": 6725,
      "ĠCD": 6726,
      "Ġrecognize": 6727,
      "Ġautomatically": 6728,
      "ĠPR": 6729,
      "Ġemissions": 6730,
      "txt": 6731,
      "Ġking": 6732,
      "EX": 6733,
      "Ġresponses": 6734,
      "Ġfostering": 6735,
      "unately": 6736,
      "Ġseeds": 6737,
      "Ġship": 6738,
      "Ġincreasingly": 6739,
      "Ġuniform": 6740,
      "ĠParty": 6741,
      "Ġflavor": 6742,
      "Ġarticles": 6743,
      "expected": 6744,
      "Ġcircumst": 6745,
      "Ġic": 6746,
      "MP": 6747,
      "Ġran": 6748,
      "Ġdesigns": 6749,
      "Time": 6750,
      "Ġexistence": 6751,
      "VID": 6752,
      "inity": 6753,
      "Ġsett": 6754,
      "ĠJava": 6755,
      "phi": 6756,
      "Ġrecognized": 6757,
      "label": 6758,
      "Ġliterature": 6759,
      "Ġ120": 6760,
      "ogen": 6761,
      "ĠAmericans": 6762,
      "Ġrecognition": 6763,
      "ĠFile": 6764,
      "Ġthousands": 6765,
      "ĠTex": 6766,
      "Ġoutcome": 6767,
      "Ġfashion": 6768,
      "ĠDelhi": 6769,
      "result": 6770,
      "Ġmixed": 6771,
      "ĠCongress": 6772,
      "wo": 6773,
      "ste": 6774,
      "win": 6775,
      "Ġclim": 6776,
      "Ġcovers": 6777,
      "Ġsimplify": 6778,
      "Ġmarked": 6779,
      "gi": 6780,
      "Ġowners": 6781,
      "Ġvegetables": 6782,
      "ĠJSON": 6783,
      "Ġrespective": 6784,
      "Ġdim": 6785,
      "ĠFil": 6786,
      "erce": 6787,
      "Le": 6788,
      "ĠCam": 6789,
      "ATH": 6790,
      "Ġtwice": 6791,
      "58": 6792,
      "pack": 6793,
      "ĠVari": 6794,
      "erest": 6795,
      "{(": 6796,
      "ĠMuse": 6797,
      "Ġbattle": 6798,
      "estamp": 6799,
      "itter": 6800,
      "Ġdecrease": 6801,
      "à°": 6802,
      "Ġhospital": 6803,
      "ĠRad": 6804,
      "Ġscores": 6805,
      "ourse": 6806,
      "Ġoxygen": 6807,
      "fficients": 6808,
      "Ġconcentration": 6809,
      "Ġfasc": 6810,
      "Ġflight": 6811,
      "Ġadj": 6812,
      "strip": 6813,
      "Ġindustries": 6814,
      "herent": 6815,
      "Ġcart": 6816,
      "According": 6817,
      "Ġstable": 6818,
      "Ġtreatments": 6819,
      "gent": 6820,
      "Ġcontem": 6821,
      "ĠHead": 6822,
      "Fin": 6823,
      "eal": 6824,
      "Ġinverse": 6825,
      "Ġformation": 6826,
      "west": 6827,
      "ĠImpact": 6828,
      "Ġodd": 6829,
      "Ġpreventing": 6830,
      "aud": 6831,
      "Ġhighlights": 6832,
      "Ġcategories": 6833,
      "Ġcris": 6834,
      "ceived": 6835,
      "Ġ\"__": 6836,
      "56": 6837,
      "iox": 6838,
      "Ġcomparison": 6839,
      "ugg": 6840,
      "More": 6841,
      "Ġsin": 6842,
      "levision": 6843,
      "hav": 6844,
      "valu": 6845,
      "Ġsplit": 6846,
      "Ġ<=": 6847,
      "Ġdiscipl": 6848,
      "iat": 6849,
      "EC": 6850,
      "Ġperman": 6851,
      "Ġgre": 6852,
      "Ġconsumers": 6853,
      "edia": 6854,
      "while": 6855,
      "Ġadds": 6856,
      "Ġtox": 6857,
      "Ġschol": 6858,
      "ĠLead": 6859,
      "ĠTHE": 6860,
      "Ġhidden": 6861,
      "Ġelectricity": 6862,
      "Ġrepeated": 6863,
      "iled": 6864,
      "Ġexpectations": 6865,
      "Ġkept": 6866,
      "Ġsnow": 6867,
      "ĠGuide": 6868,
      "Ġdigits": 6869,
      "Ġpreserv": 6870,
      "Ġsweet": 6871,
      "cript": 6872,
      "Ġresidents": 6873,
      "Ġidentifying": 6874,
      "ĠLeague": 6875,
      "Ġefficiently": 6876,
      "Ġdebt": 6877,
      "Ġhappened": 6878,
      "ota": 6879,
      "Ġkeys": 6880,
      "ho": 6881,
      "host": 6882,
      "ville": 6883,
      "Ġseam": 6884,
      "Ġ+=": 6885,
      "ĠRob": 6886,
      "ĠSpanish": 6887,
      "Ġaccommod": 6888,
      "ĠMad": 6889,
      "Ġrent": 6890,
      "Ġtreated": 6891,
      "Ġtrib": 6892,
      "Ġrating": 6893,
      "Ġmachines": 6894,
      "Ġdetection": 6895,
      "Ġque": 6896,
      "aturally": 6897,
      "Ġsubjects": 6898,
      "Ġminimal": 6899,
      "Ġbird": 6900,
      "Ġaw": 6901,
      "Ġposts": 6902,
      "Ġofficer": 6903,
      "Ġsac": 6904,
      "ogue": 6905,
      "ĠCP": 6906,
      "Ġcub": 6907,
      "Ġartists": 6908,
      "ĠLong": 6909,
      "ÃŃ": 6910,
      "ications": 6911,
      "Ġmitig": 6912,
      "roph": 6913,
      "IST": 6914,
      "Ġunderlying": 6915,
      "ki": 6916,
      "Ġsizes": 6917,
      "Ġmovements": 6918,
      "ĠTake": 6919,
      "Ġaircraft": 6920,
      "Ġtrip": 6921,
      "first": 6922,
      "Ġflexibility": 6923,
      "Ġelection": 6924,
      "ago": 6925,
      "cular": 6926,
      "ref": 6927,
      "à¤¿": 6928,
      "Ġeggs": 6929,
      "what": 6930,
      "Ġdictionary": 6931,
      "ĠConst": 6932,
      "Ġcoverage": 6933,
      "ĠPay": 6934,
      "aser": 6935,
      "Ġuniversity": 6936,
      "Ġbuildings": 6937,
      "__\":": 6938,
      "uing": 6939,
      "Per": 6940,
      "agine": 6941,
      "Up": 6942,
      "Ġcurriculum": 6943,
      "uous": 6944,
      "Ġdiversity": 6945,
      "ĠVir": 6946,
      "TS": 6947,
      "Ġrequests": 6948,
      "Ġacceleration": 6949,
      "eli": 6950,
      "Ġcorner": 6951,
      "itivity": 6952,
      "Ġparticipate": 6953,
      "range": 6954,
      "Ġlogging": 6955,
      "ĠJournal": 6956,
      "Ġroof": 6957,
      "Delta": 6958,
      "Ġcoefficient": 6959,
      "itis": 6960,
      "iders": 6961,
      "Ġbrother": 6962,
      "imation": 6963,
      "Ġartist": 6964,
      "Ġpump": 6965,
      "Ġmaybe": 6966,
      "Ġblocks": 6967,
      "Ġuncertain": 6968,
      "ĠRich": 6969,
      "Ġcalculations": 6970,
      "jects": 6971,
      "istor": 6972,
      "OIN": 6973,
      "Ġpassion": 6974,
      "pmatrix": 6975,
      "reshold": 6976,
      "ĠLord": 6977,
      "Ã³": 6978,
      "Ġgrass": 6979,
      "Ġstret": 6980,
      "Ġperp": 6981,
      "Ġwitness": 6982,
      "Ġbill": 6983,
      "ĠMount": 6984,
      "WHERE": 6985,
      "Ġappeal": 6986,
      "ĠReview": 6987,
      "Ġgirls": 6988,
      "Ġparticles": 6989,
      "Ġcontainer": 6990,
      "ĠAsia": 6991,
      "ĠSociety": 6992,
      "ĠHuman": 6993,
      "inating": 6994,
      "Ġartificial": 6995,
      "Ġultimately": 6996,
      "ĠTer": 6997,
      "EE": 6998,
      "Ġaccident": 6999,
      "Ġwife": 7000,
      "Ġprofile": 7001,
      "omas": 7002,
      "Ġsteel": 7003,
      "oto": 7004,
      "ĠNon": 7005,
      "ĠMiss": 7006,
      "Ġquantum": 7007,
      "solving": 7008,
      "eties": 7009,
      "plot": 7010,
      "rices": 7011,
      "Ġrestaur": 7012,
      "Ġvictim": 7013,
      "ĠNews": 7014,
      "ĠFree": 7015,
      "how": 7016,
      "ĠAR": 7017,
      "sor": 7018,
      "status": 7019,
      "Ġdecide": 7020,
      "Ġexploration": 7021,
      "Gener": 7022,
      "Dr": 7023,
      "ye": 7024,
      "Ġhorizontal": 7025,
      "ĠSign": 7026,
      "ĠĠĠĠĠĠĠĠĠĠĠĠ": 7027,
      "Ġdirector": 7028,
      "Ġreserv": 7029,
      "Ġmultiply": 7030,
      "uce": 7031,
      "Ġworkshe": 7032,
      "Ġconversation": 7033,
      "ithmetic": 7034,
      "ĠMary": 7035,
      "Ġalbum": 7036,
      "Ġtrial": 7037,
      "Ġtrading": 7038,
      "total": 7039,
      "Ġflo": 7040,
      "ERT": 7041,
      "Ġ37": 7042,
      "Ġsalt": 7043,
      "Ġmarkets": 7044,
      "Ġfulf": 7045,
      "ras": 7046,
      "ĠIncre": 7047,
      "Ġinsect": 7048,
      "ameters": 7049,
      "ophy": 7050,
      "ala": 7051,
      "Ġremark": 7052,
      "Ġlaunch": 7053,
      "Us": 7054,
      "Ġreviews": 7055,
      "ĠWomen": 7056,
      "ĠDoes": 7057,
      "width": 7058,
      "Ġnutrients": 7059,
      "IA": 7060,
      "Yes": 7061,
      "Ġinjuries": 7062,
      "ĠAuthor": 7063,
      "Ġmedicine": 7064,
      "Ġdecades": 7065,
      "Ġtailored": 7066,
      "Ġscenario": 7067,
      "DS": 7068,
      "Ġaffects": 7069,
      "direct": 7070,
      "forward": 7071,
      "Ġregul": 7072,
      "Ġaccurately": 7073,
      "Ġunknown": 7074,
      "Ġinstallation": 7075,
      "Ġinequality": 7076,
      "ĠDetermine": 7077,
      "ventional": 7078,
      "rated": 7079,
      "ĠSection": 7080,
      "Ġpra": 7081,
      "Ġbond": 7082,
      "Ġwasn": 7083,
      "Ġchurch": 7084,
      "Ġtracking": 7085,
      "61": 7086,
      "Ġpowers": 7087,
      "ĠMoreover": 7088,
      "sm": 7089,
      "59": 7090,
      "ideo": 7091,
      "etal": 7092,
      "Ġreward": 7093,
      "Ġbin": 7094,
      "cons": 7095,
      "Ġfunding": 7096,
      "Ġhorm": 7097,
      "Ġconsumer": 7098,
      "ĊĠĠĠĠĠĠĠĠĠĠĠĠĠĠĠĠĠĠĠĠĠĠĠĠ": 7099,
      "lers": 7100,
      "Ġshapes": 7101,
      "ĠJe": 7102,
      "ĠLike": 7103,
      "ĠToday": 7104,
      "ĠEas": 7105,
      "Ġ150": 7106,
      "ĠTexas": 7107,
      "Ġkg": 7108,
      "Ġ38": 7109,
      "Ġbehaviors": 7110,
      "ighter": 7111,
      "Ġaddressing": 7112,
      "Ġasking": 7113,
      "Ġnodes": 7114,
      "Ġpartnership": 7115,
      "ĠLast": 7116,
      "Ġcriteria": 7117,
      "Ġsuggested": 7118,
      "ĠSpace": 7119,
      "ĠCurrent": 7120,
      "Ġofficers": 7121,
      "Use": 7122,
      "Ġtaught": 7123,
      "ĠMart": 7124,
      "Ġunlike": 7125,
      "ector": 7126,
      "Ġpp": 7127,
      "Ġwilling": 7128,
      "Ġsnipp": 7129,
      "Ġphotos": 7130,
      "Ġped": 7131,
      "Frame": 7132,
      "Expl": 7133,
      "Ġvibrant": 7134,
      "dden": 7135,
      "ician": 7136,
      "draw": 7137,
      "ĠâĨ": 7138,
      "udd": 7139,
      "ĠDirector": 7140,
      "Ġburn": 7141,
      "Ġlock": 7142,
      "vals": 7143,
      "ura": 7144,
      "Ġlaun": 7145,
      "Ġobjective": 7146,
      "ĠExpert": 7147,
      "ĠBack": 7148,
      "Ġviolence": 7149,
      "ĠOnly": 7150,
      "Ġwish": 7151,
      "ĠBoard": 7152,
      "Ġcircumstances": 7153,
      "']": 7154,
      "Ġdynamics": 7155,
      "Ġtheme": 7156,
      "isk": 7157,
      "ani": 7158,
      "ĠFace": 7159,
      "Ġcomputing": 7160,
      "Ġpersonalized": 7161,
      "ĠBank": 7162,
      "Ġconstraints": 7163,
      "Ġconcerned": 7164,
      "ometry": 7165,
      "Ġtransportation": 7166,
      "âĶĢâĶĢâĶĢâĶĢâĶĢâĶĢâĶĢâĶĢâĶĢâĶĢâĶĢâĶĢâĶĢâĶĢâĶĢâĶĢ": 7167,
      "Ġvisible": 7168,
      "ĠMot": 7169,
      "Ġring": 7170,
      "arios": 7171,
      "Ġreact": 7172,
      "Ġfamous": 7173,
      "Ġampl": 7174,
      "Ġdepression": 7175,
      "ĠRaises": 7176,
      "orter": 7177,
      "ĠInvest": 7178,
      "ĠCult": 7179,
      "ĠThanks": 7180,
      "Ġminimize": 7181,
      "ĠCH": 7182,
      "amma": 7183,
      "dt": 7184,
      "ĠProfessor": 7185,
      "Ġflowers": 7186,
      "Calcul": 7187,
      "ieves": 7188,
      "wing": 7189,
      "Ġlabels": 7190,
      "Ġriver": 7191,
      "Ġrig": 7192,
      "ĠSee": 7193,
      "*,": 7194,
      "Ġfro": 7195,
      "ini": 7196,
      "Ġthrow": 7197,
      "ools": 7198,
      "ĠRober": 7199,
      "www": 7200,
      "Ġcolle": 7201,
      "Ġresolution": 7202,
      "otics": 7203,
      "().": 7204,
      "Example": 7205,
      "conomic": 7206,
      "Ġadm": 7207,
      "................................": 7208,
      "Ġ33": 7209,
      "Ġec": 7210,
      "Type": 7211,
      "escription": 7212,
      "ĠAccess": 7213,
      "utable": 7214,
      "Ġbag": 7215,
      "Ġod": 7216,
      "Ġpursu": 7217,
      "Ġchick": 7218,
      "ĠConnect": 7219,
      "ĠMuseum": 7220,
      "azing": 7221,
      "Ġpure": 7222,
      "Ġanalyzing": 7223,
      "Ġsudden": 7224,
      "ĠGeorge": 7225,
      "Ġtissue": 7226,
      "Ġowner": 7227,
      "Ġdistributed": 7228,
      "mas": 7229,
      "Ġpopulations": 7230,
      "Ġpresents": 7231,
      "Ġdepart": 7232,
      "Ġflood": 7233,
      "Ġcompat": 7234,
      "avy": 7235,
      "Ġpand": 7236,
      "ÑĤ": 7237,
      "shape": 7238,
      "group": 7239,
      "stituting": 7240,
      "Ġdesire": 7241,
      "Ġmuscles": 7242,
      "Ġimplications": 7243,
      "Ġroute": 7244,
      "Ġshoot": 7245,
      "Ġopinion": 7246,
      "Ġlists": 7247,
      "Det": 7248,
      "unc": 7249,
      "ĠDistrict": 7250,
      "Ġhabits": 7251,
      "Ġpaths": 7252,
      "Ġgear": 7253,
      "52": 7254,
      "Ġauthors": 7255,
      "ĠCommit": 7256,
      "ĠLand": 7257,
      "ĠTable": 7258,
      "dev": 7259,
      "Ġtag": 7260,
      "Ġcoefficients": 7261,
      "ĠPen": 7262,
      "Ġperhaps": 7263,
      "54": 7264,
      "utors": 7265,
      "ĠAlex": 7266,
      "sigma": 7267,
      "Ġcorrel": 7268,
      "Ġelectronic": 7269,
      "->": 7270,
      "cious": 7271,
      "lay": 7272,
      "Ġcompr": 7273,
      "CR": 7274,
      "ĠRole": 7275,
      "Ġproductivity": 7276,
      "Fe": 7277,
      "arn": 7278,
      "Ġdestroy": 7279,
      "Ġapps": 7280,
      "akistan": 7281,
      "Ġbone": 7282,
      "Please": 7283,
      "ĠQue": 7284,
      "Ġfurn": 7285,
      "Def": 7286,
      "Ġcommunicate": 7287,
      "style": 7288,
      "Ġgeometric": 7289,
      "Ġcognitive": 7290,
      "Ġ{\"": 7291,
      "Ġmeasurement": 7292,
      "Ġexplicit": 7293,
      "Ġabilities": 7294,
      "Ġcomposition": 7295,
      "Ġends": 7296,
      "Ġminute": 7297,
      "Ġsustainability": 7298,
      "Ġrecycl": 7299,
      "Ġfoster": 7300,
      "unctions": 7301,
      "Ġadequ": 7302,
      "ĠPub": 7303,
      "Ġstructured": 7304,
      "riers": 7305,
      "Ġsubtract": 7306,
      "ĠWhere": 7307,
      "imental": 7308,
      "Ġlayers": 7309,
      "Ġassign": 7310,
      "holders": 7311,
      "ĠHTML": 7312,
      "icity": 7313,
      "Ġintroduction": 7314,
      "azon": 7315,
      "Ġbranch": 7316,
      "Ġdealing": 7317,
      "Ġreject": 7318,
      "Ġdetermining": 7319,
      "Ġuniverse": 7320,
      "ĠWindows": 7321,
      "Ġsurgery": 7322,
      "gence": 7323,
      "ĠGame": 7324,
      "Conclusion": 7325,
      "Ġfaced": 7326,
      "Ġthin": 7327,
      "Ġprecision": 7328,
      "72": 7329,
      "Ġreplaced": 7330,
      "Ġselecting": 7331,
      "Ġord": 7332,
      "ĠKore": 7333,
      "ena": 7334,
      "Ġclassic": 7335,
      "Ġmeaningful": 7336,
      "Ġaccum": 7337,
      "Ġunf": 7338,
      "Ġreson": 7339,
      "Ġedges": 7340,
      "Ġmoisture": 7341,
      "Ġkilled": 7342,
      "Ġshot": 7343,
      "Ġschema": 7344,
      "ĠSolution": 7345,
      "((": 7346,
      "Ġhypothesis": 7347,
      "ĠCompute": 7348,
      "ĠTreat": 7349,
      "ĠCode": 7350,
      "Ġhaz": 7351,
      "ĠWrit": 7352,
      "Ġstruggle": 7353,
      "Ġvisitors": 7354,
      "ĠPrint": 7355,
      "Ġhyper": 7356,
      "Ġsubsc": 7357,
      "Ġswim": 7358,
      "Ġclinical": 7359,
      "Ġextension": 7360,
      "Ġvoc": 7361,
      "Ġagreement": 7362,
      "ĠEss": 7363,
      "Ġneighbor": 7364,
      "umes": 7365,
      "Ġmagnetic": 7366,
      "Ġdrink": 7367,
      "ĠCat": 7368,
      "Ġretain": 7369,
      "}\"": 7370,
      "Ġholding": 7371,
      "pload": 7372,
      "ether": 7373,
      "Ġdrawn": 7374,
      "ĠIndust": 7375,
      "Ġstrict": 7376,
      "Ġcup": 7377,
      "Ġmeant": 7378,
      "Ġdemonstrates": 7379,
      "Ġcompound": 7380,
      "ĠAB": 7381,
      "Ġcrow": 7382,
      "option": 7383,
      "Ġnarrative": 7384,
      "rian": 7385,
      "Ġages": 7386,
      "ulf": 7387,
      "Ġbath": 7388,
      "Ġspending": 7389,
      "Ġsole": 7390,
      "EG": 7391,
      "Ġpassword": 7392,
      "=$": 7393,
      "Presenter": 7394,
      "Ġcats": 7395,
      "Ġcareful": 7396,
      "ĠAnother": 7397,
      "Ġtight": 7398,
      "Ġsummary": 7399,
      "ĠMass": 7400,
      "Ġmanual": 7401,
      "ĠFlor": 7402,
      "Ġprovider": 7403,
      "ials": 7404,
      "Ġseamless": 7405,
      "orph": 7406,
      "Ġcapable": 7407,
      "Rem": 7408,
      "uls": 7409,
      "Ġacts": 7410,
      "!\"": 7411,
      "Ġnuclear": 7412,
      "Ġplate": 7413,
      "dimensional": 7414,
      "Ġterrit": 7415,
      "ĠLight": 7416,
      "aid": 7417,
      "pers": 7418,
      "Ġtrained": 7419,
      "Ġsections": 7420,
      "pol": 7421,
      "Ġtun": 7422,
      "ĠMean": 7423,
      "Ġrender": 7424,
      "write": 7425,
      "Ġwalking": 7426,
      "base": 7427,
      "Ġtransmission": 7428,
      "Ġdangerous": 7429,
      "Ġ64": 7430,
      "DER": 7431,
      "Ġarchitecture": 7432,
      "Ġauto": 7433,
      "ĠWilliam": 7434,
      "Ġpri": 7435,
      "EP": 7436,
      "Ġacting": 7437,
      "ĠCompany": 7438,
      "AME": 7439,
      "Ġstages": 7440,
      "Ġpin": 7441,
      "Ġstyles": 7442,
      "Ġplt": 7443,
      "Ġdriven": 7444,
      "Ġmeal": 7445,
      "Ġchapter": 7446,
      "message": 7447,
      "ĠBen": 7448,
      "Ġnice": 7449,
      "ilon": 7450,
      "FI": 7451,
      "Ġalt": 7452,
      "Ġpossess": 7453,
      "ribution": 7454,
      "Ġdispl": 7455,
      "ĠGlobal": 7456,
      "kes": 7457,
      "Ġobser": 7458,
      "{-": 7459,
      "ĠStat": 7460,
      "MM": 7461,
      "orous": 7462,
      "Next": 7463,
      "Ġocean": 7464,
      "Read": 7465,
      "Ġinstant": 7466,
      "Ġnaturally": 7467,
      "ita": 7468,
      "Ġglob": 7469,
      "onent": 7470,
      "Ġfacts": 7471,
      "ĠMedical": 7472,
      "Ġgirl": 7473,
      "Ġinsert": 7474,
      "grade": 7475,
      "stood": 7476,
      "Ġwet": 7477,
      "ĠIsland": 7478,
      "ĠImpro": 7479,
      "kg": 7480,
      "ĠCamp": 7481,
      "arc": 7482,
      "Ġmenu": 7483,
      "eps": 7484,
      "Ġchronic": 7485,
      "Ġexpenses": 7486,
      "Ġpreparation": 7487,
      "Ġcandidate": 7488,
      "DP": 7489,
      "Ġseeing": 7490,
      "adian": 7491,
      "ĠEnd": 7492,
      "Ġstone": 7493,
      "Ġ2004": 7494,
      "Ġmostly": 7495,
      "Ġmanaged": 7496,
      "Ġoutdoor": 7497,
      "Ġplug": 7498,
      "stone": 7499,
      "ĠFigure": 7500,
      "Ġfrag": 7501,
      "kay": 7502,
      "asket": 7503,
      "lisher": 7504,
      "zen": 7505,
      "Ġconvey": 7506,
      "Ġinject": 7507,
      "Ġlegisl": 7508,
      "rays": 7509,
      "Ġrub": 7510,
      "Ġextend": 7511,
      "Once": 7512,
      "Ġtransactions": 7513,
      "Ġintegrated": 7514,
      "Ġcontributing": 7515,
      "Ġbrings": 7516,
      "Ġpil": 7517,
      "Ġturns": 7518,
      "Ġinfluenced": 7519,
      "dig": 7520,
      "ĠInternet": 7521,
      "Ġ!=": 7522,
      "Ġdescript": 7523,
      "ĠOffice": 7524,
      "Ġinfinite": 7525,
      "Ġbroader": 7526,
      "Ġà¤ķ": 7527,
      "Ġsuit": 7528,
      "Ġvolunte": 7529,
      "ĠAnn": 7530,
      "Ġcycl": 7531,
      "ultane": 7532,
      "berg": 7533,
      "Ġfruits": 7534,
      "Ġ$(": 7535,
      "Ġmys": 7536,
      "89": 7537,
      "gypt": 7538,
      "ĠCy": 7539,
      "Ġhorse": 7540,
      "Ġiter": 7541,
      "Ġ34": 7542,
      "ĠOh": 7543,
      "Ġsuggesting": 7544,
      "onents": 7545,
      "ĠHall": 7546,
      "eling": 7547,
      "omega": 7548,
      "Ġplus": 7549,
      "Ġvot": 7550,
      "Ġspin": 7551,
      "Ġfib": 7552,
      "Ġoperate": 7553,
      "ĠBur": 7554,
      "ĠCommunity": 7555,
      "Ġcommitted": 7556,
      "Ġgall": 7557,
      "GB": 7558,
      "Ġenhances": 7559,
      "Subject": 7560,
      "Ġwebsites": 7561,
      "Ġwalls": 7562,
      "icians": 7563,
      "ĠPet": 7564,
      "ĠWrite": 7565,
      "ĠConcept": 7566,
      "ĠArab": 7567,
      "Ġmechanism": 7568,
      "Ġordered": 7569,
      "ĠFoundation": 7570,
      "quare": 7571,
      "Ġprev": 7572,
      "ĠPers": 7573,
      "ĠRussia": 7574,
      "Ġorganized": 7575,
      "Who": 7576,
      "Ġexplanation": 7577,
      "Get": 7578,
      "beta": 7579,
      "Ġbreast": 7580,
      "Ġ400": 7581,
      "normal": 7582,
      "Ġpiv": 7583,
      "sim": 7584,
      "Ġelectron": 7585,
      "upp": 7586,
      "Ġreceiving": 7587,
      "Test": 7588,
      "lock": 7589,
      "Tra": 7590,
      "Ġpaint": 7591,
      "linear": 7592,
      "Ġinfections": 7593,
      "Ġindeed": 7594,
      "forcement": 7595,
      "Ġcontrolled": 7596,
      "Ġvess": 7597,
      "Ġsam": 7598,
      "Ġast": 7599,
      "scale": 7600,
      "%,": 7601,
      "****": 7602,
      "ĠRoad": 7603,
      "Ġneighb": 7604,
      "Ġdecor": 7605,
      "Ð½": 7606,
      "game": 7607,
      "ĠArea": 7608,
      "arge": 7609,
      "Ġmuse": 7610,
      "Ġsnippet": 7611,
      "Ġcompliance": 7612,
      "Ġtells": 7613,
      "ĠCentre": 7614,
      "Ġfitness": 7615,
      "oga": 7616,
      "Ġjoy": 7617,
      "Ġmedication": 7618,
      "Ġlisten": 7619,
      "Ġencourages": 7620,
      "Ġesc": 7621,
      "you": 7622,
      "Ġinsight": 7623,
      "Ġcommands": 7624,
      "Ġentirely": 7625,
      "road": 7626,
      "Ġcollected": 7627,
      "ona": 7628,
      "Ġoperational": 7629,
      "Ġjump": 7630,
      "ĠTre": 7631,
      "itative": 7632,
      "request": 7633,
      "Ġshad": 7634,
      "Ġpuzz": 7635,
      "Ġconcrete": 7636,
      "Ġharmful": 7637,
      "Ġfrequent": 7638,
      "ĠEnt": 7639,
      "Stud": 7640,
      "Ġfle": 7641,
      "Ġemployed": 7642,
      "Ġperforming": 7643,
      "ĠInitialize": 7644,
      "Ġdeviation": 7645,
      "Ġcere": 7646,
      "Ġsport": 7647,
      "Ġfif": 7648,
      "Ġflag": 7649,
      "version": 7650,
      "actly": 7651,
      "87": 7652,
      "([": 7653,
      "Ġgreatest": 7654,
      "vector": 7655,
      "}:": 7656,
      "sl": 7657,
      "Write": 7658,
      "Ġfourth": 7659,
      "rep": 7660,
      "53": 7661,
      "ĠCapt": 7662,
      "agon": 7663,
      "ching": 7664,
      "Ġaest": 7665,
      "Ġsatisfaction": 7666,
      "idity": 7667,
      "ria": 7668,
      "Ġsys": 7669,
      "Ġfans": 7670,
      "Ġunexpected": 7671,
      "ĠApple": 7672,
      "Ġcombat": 7673,
      "Ġfacilitate": 7674,
      "Ġaddresses": 7675,
      "ĠCr": 7676,
      "ĠGiven": 7677,
      "bert": 7678,
      "ĠLou": 7679,
      "Back": 7680,
      "ĠFollow": 7681,
      "Ġlooked": 7682,
      "Ġcharacterized": 7683,
      "Ġexcessive": 7684,
      "Ġdin": 7685,
      "CP": 7686,
      "Ġshut": 7687,
      "Ġdiscount": 7688,
      "real": 7689,
      "alled": 7690,
      "ĠReal": 7691,
      "Ġoral": 7692,
      "Ġregional": 7693,
      "Ġtemporary": 7694,
      "Ġovers": 7695,
      "Ġtelevision": 7696,
      "Ġgod": 7697,
      "Ġwhatever": 7698,
      "Ġmedications": 7699,
      "ĠLoad": 7700,
      "Many": 7701,
      "Ġleak": 7702,
      "ĠLanguage": 7703,
      "Ġease": 7704,
      "OM": 7705,
      "Ġspeaking": 7706,
      "geq": 7707,
      "prene": 7708,
      "Ġwouldn": 7709,
      "Ġera": 7710,
      "ologist": 7711,
      "van": 7712,
      "Ġprotocol": 7713,
      "Ġmonthly": 7714,
      "Ġ42": 7715,
      "Ġmir": 7716,
      "Ġlogical": 7717,
      "Ġknowing": 7718,
      "ounce": 7719,
      "ĠTim": 7720,
      "Ġathlet": 7721,
      "Ġforget": 7722,
      "check": 7723,
      "rooms": 7724,
      "Ġlights": 7725,
      "ateral": 7726,
      "Ġdisorders": 7727,
      "HT": 7728,
      "Ġchannels": 7729,
      "Ġbroken": 7730,
      "Ġsupplement": 7731,
      "Ġnumerical": 7732,
      "Ġemployment": 7733,
      "Ġrapidly": 7734,
      "Ġprivacy": 7735,
      "Ġsensor": 7736,
      "Ġintake": 7737,
      "Ġissued": 7738,
      "Ġstars": 7739,
      "Ġstudying": 7740,
      "Ġantib": 7741,
      "Ġlosses": 7742,
      "lib": 7743,
      "ĠTeam": 7744,
      "Ġsorted": 7745,
      "Ġassigned": 7746,
      "ĠCup": 7747,
      "Ġconfirm": 7748,
      "ao": 7749,
      "ixture": 7750,
      "Ġstatistical": 7751,
      "ĠSystems": 7752,
      "ĠProm": 7753,
      "Ġ65": 7754,
      "Ġfeels": 7755,
      "Ġvertex": 7756,
      "Ġcloser": 7757,
      "Ġgap": 7758,
      "ourage": 7759,
      "Ġfarmers": 7760,
      "ĠPot": 7761,
      "item": 7762,
      "ĠSS": 7763,
      "Ġsurfaces": 7764,
      "ĠSafety": 7765,
      "ette": 7766,
      "CS": 7767,
      "ĠPass": 7768,
      "Ġap": 7769,
      "ĠSar": 7770,
      "lets": 7771,
      "Ġfinite": 7772,
      "Ġfabric": 7773,
      "reprene": 7774,
      "hu": 7775,
      "Ġpollution": 7776,
      "chain": 7777,
      "Ġmetab": 7778,
      "gra": 7779,
      "Rel": 7780,
      "ĠMatter": 7781,
      "Ġoperator": 7782,
      "ĠCommand": 7783,
      "Ġenthusi": 7784,
      "à¤¨": 7785,
      "Ġfan": 7786,
      "Ġtoler": 7787,
      "Ġexciting": 7788,
      "Ġrough": 7789,
      "craft": 7790,
      "tics": 7791,
      "Ġvirus": 7792,
      "ĠPop": 7793,
      "Ġdish": 7794,
      "Ġinputs": 7795,
      "power": 7796,
      "angular": 7797,
      "Ġpictures": 7798,
      "ĠSmith": 7799,
      "Ġboundaries": 7800,
      "echo": 7801,
      "Ġveter": 7802,
      "umps": 7803,
      "ĠBefore": 7804,
      "Ġsubs": 7805,
      "ensus": 7806,
      "ĠPakistan": 7807,
      "Ġsenior": 7808,
      "ĠChall": 7809,
      "ĠWord": 7810,
      "NS": 7811,
      "Ġtransaction": 7812,
      "Ġquarter": 7813,
      "Ġintric": 7814,
      "Ġheader": 7815,
      "Ġobjectives": 7816,
      "Ġdistingu": 7817,
      "ĠCOVID": 7818,
      "email": 7819,
      "Ġfinish": 7820,
      "Ġwheel": 7821,
      "ĠInput": 7822,
      "ruit": 7823,
      "Ġmac": 7824,
      "Ġdiameter": 7825,
      "roc": 7826,
      "Ġscenarios": 7827,
      "ait": 7828,
      "comple": 7829,
      "Ġwaves": 7830,
      "Ġspecialized": 7831,
      "CTION": 7832,
      "Ġexposed": 7833,
      "Ġsquares": 7834,
      "born": 7835,
      "ĠChange": 7836,
      "abin": 7837,
      "ĠClean": 7838,
      "ĠMusic": 7839,
      "Ġproviders": 7840,
      "Ġwinning": 7841,
      "ĠStreet": 7842,
      "Ġnor": 7843,
      "Ġrequiring": 7844,
      "idx": 7845,
      "Ġjustice": 7846,
      "color": 7847,
      "uy": 7848,
      "ridge": 7849,
      "nowned": 7850,
      "ĠChief": 7851,
      "ĠOnline": 7852,
      "ĠMA": 7853,
      "Ġtemplate": 7854,
      "ĠSil": 7855,
      "Ġselling": 7856,
      "Ġpartners": 7857,
      "76": 7858,
      "Ġincorrect": 7859,
      "Ġhousing": 7860,
      "ĠForce": 7861,
      "Ġsavings": 7862,
      "Ġkeeps": 7863,
      "Trans": 7864,
      "Ġturning": 7865,
      "this": 7866,
      "Ġgained": 7867,
      "Ġrecommendations": 7868,
      "Ġpresident": 7869,
      "Ġgene": 7870,
      "Right": 7871,
      "92": 7872,
      "Ġcomplement": 7873,
      "ammation": 7874,
      "Ġfaces": 7875,
      "Ġtack": 7876,
      "Ġfacing": 7877,
      "Ġguard": 7878,
      "alities": 7879,
      "INT": 7880,
      "ocument": 7881,
      "Ġdirected": 7882,
      "ÑĢ": 7883,
      "Ġestate": 7884,
      "Ġcertainly": 7885,
      "spe": 7886,
      "Ġopened": 7887,
      "ĠRussian": 7888,
      "):**": 7889,
      "Ġfeat": 7890,
      "ocratic": 7891,
      "Ġknew": 7892,
      "owns": 7893,
      "ĠDifferent": 7894,
      "Ġincident": 7895,
      "ĠEgypt": 7896,
      "Add": 7897,
      "Ġhardware": 7898,
      "à¥Ģ": 7899,
      "Ġintegrity": 7900,
      "ega": 7901,
      "charge": 7902,
      "Ġpray": 7903,
      "ocker": 7904,
      "Ġexplained": 7905,
      "--|": 7906,
      "ĠMiddle": 7907,
      "Ġdisorder": 7908,
      "Ġinvestors": 7909,
      "whel": 7910,
      "Che": 7911,
      "Ġclarity": 7912,
      "std": 7913,
      "Ġsheet": 7914,
      "Ġeveryday": 7915,
      "Ġcul": 7916,
      "51": 7917,
      "ira": 7918,
      "acent": 7919,
      "Ġmagnitude": 7920,
      "Ġexecute": 7921,
      "Ġstorm": 7922,
      "ĠEngineering": 7923,
      "Ġexponential": 7924,
      "Ġaccepted": 7925,
      "Ġretail": 7926,
      "Ġsequences": 7927,
      "Ġrelief": 7928,
      "Ġtutor": 7929,
      "Ġfest": 7930,
      "eras": 7931,
      "Ġengaged": 7932,
      "lt": 7933,
      "Ġtro": 7934,
      "Ġrevealed": 7935,
      "Ġcontributions": 7936,
      "Ġcyl": 7937,
      "ora": 7938,
      "ĠBr": 7939,
      "ĠAppro": 7940,
      "Ġsecondary": 7941,
      "Ġ2003": 7942,
      "Ġpayments": 7943,
      "organ": 7944,
      "Ġtele": 7945,
      "Ġsuc": 7946,
      "Ġcater": 7947,
      "Ġprocessed": 7948,
      "Ġchecking": 7949,
      "ificate": 7950,
      "ĠStandard": 7951,
      "Ġflav": 7952,
      "Ġrotation": 7953,
      "Am": 7954,
      "Ġimpossible": 7955,
      "ĠOld": 7956,
      "Ġreflects": 7957,
      "Ġrealm": 7958,
      "ĠDan": 7959,
      "ĠColor": 7960,
      "ĠIr": 7961,
      "Ġthreats": 7962,
      "\"{": 7963,
      "Ġempower": 7964,
      "Ġmemor": 7965,
      "urb": 7966,
      "Ġagent": 7967,
      "Ġdifficulty": 7968,
      "acific": 7969,
      "Ġmusical": 7970,
      "Ġ1990": 7971,
      "plicated": 7972,
      "ĠBig": 7973,
      "Ġmarks": 7974,
      "Ġlighting": 7975,
      "Ġstanding": 7976,
      "dem": 7977,
      "Ġstack": 7978,
      "ĠQuestions": 7979,
      "Ġmand": 7980,
      "Ġtalent": 7981,
      "Ġcandidates": 7982,
      "Ġapplicable": 7983,
      "Ġbridge": 7984,
      "Ġworry": 7985,
      "ĠIslam": 7986,
      "ARY": 7987,
      "Ġknows": 7988,
      "!/": 7989,
      "Ġresilience": 7990,
      "Ġprotected": 7991,
      "Where": 7992,
      "ĠReport": 7993,
      "placement": 7994,
      "Ġpit": 7995,
      "Ġrely": 7996,
      "ressing": 7997,
      "Ġpanel": 7998,
      "Ġloved": 7999,
      "ĠFire": 8000,
      "creen": 8001,
      "84": 8002,
      "Ġeast": 8003,
      "Ġallerg": 8004,
      "Ġcompens": 8005,
      "Ġsimplifies": 8006,
      "Ġlived": 8007,
      "ĠGrow": 8008,
      "Found": 8009,
      "uts": 8010,
      "Sp": 8011,
      "ĠVe": 8012,
      "ĠIll": 8013,
      "elihood": 8014,
      "cluded": 8015,
      "Total": 8016,
      "Ġcomputers": 8017,
      "ĠGreek": 8018,
      "`)": 8019,
      "Figure": 8020,
      "Ġdestination": 8021,
      "Ġmyself": 8022,
      "();": 8023,
      "Ġsurvival": 8024,
      "Ġfort": 8025,
      "Ġeigen": 8026,
      "Requ": 8027,
      "Ġrenowned": 8028,
      "ato": 8029,
      "omic": 8030,
      "ude": 8031,
      "Ġisland": 8032,
      "abil": 8033,
      "ĠMil": 8034,
      "Ġthemes": 8035,
      "Ġappreciate": 8036,
      "Ġstake": 8037,
      "Ġincred": 8038,
      "ĠEarly": 8039,
      "Ġbutter": 8040,
      "unning": 8041,
      "ĠBer": 8042,
      "Ġinitiatives": 8043,
      "author": 8044,
      "ÂłÂł": 8045,
      "ancer": 8046,
      "json": 8047,
      "fortunately": 8048,
      "âĶģ": 8049,
      "Ġboundary": 8050,
      "86": 8051,
      "Ġdefe": 8052,
      "Ġbrown": 8053,
      "CM": 8054,
      "instance": 8055,
      "Ġtech": 8056,
      "Ġrail": 8057,
      "Ġencounter": 8058,
      "Ġenhanced": 8059,
      "ĠVARCHAR": 8060,
      "oving": 8061,
      "ĠTri": 8062,
      "93": 8063,
      "ĠStar": 8064,
      "ĠSingh": 8065,
      "ĠQuestion": 8066,
      "Ġoutl": 8067,
      "Ġox": 8068,
      "Ġdaughter": 8069,
      "Ġremoving": 8070,
      "Ġdance": 8071,
      "ĠOrder": 8072,
      "Ġdiscussions": 8073,
      "Ġstudied": 8074,
      "Ġoptimization": 8075,
      "ĠâĨĴ": 8076,
      "Ġmanif": 8077,
      "ĠIss": 8078,
      "night": 8079,
      "irement": 8080,
      "ĠCB": 8081,
      "ĠMathematics": 8082,
      "Before": 8083,
      "ĠDivision": 8084,
      "operation": 8085,
      "ĠĠĠĠĠĠĠĠĠĠĠĠĠ": 8086,
      "Ġshares": 8087,
      "Ġabuse": 8088,
      "oded": 8089,
      "ĠDjango": 8090,
      "uma": 8091,
      "rons": 8092,
      "Ġhealing": 8093,
      "Ġbuying": 8094,
      "Ġblend": 8095,
      "Ġdevelopers": 8096,
      "edge": 8097,
      "#!/": 8098,
      "fessional": 8099,
      "ĠFranc": 8100,
      "Ġhaven": 8101,
      "Ġtrigger": 8102,
      "ĠFlorida": 8103,
      "uler": 8104,
      "ĠAcademy": 8105,
      "Ġsaved": 8106,
      "ĠJewish": 8107,
      "Ġ180": 8108,
      "ailable": 8109,
      "Ġarms": 8110,
      "Ġfly": 8111,
      "content": 8112,
      "onday": 8113,
      "ĠTO": 8114,
      "Ġlaunched": 8115,
      "Ġconscious": 8116,
      "Ġlots": 8117,
      "ustain": 8118,
      "à¤Ĥ": 8119,
      "Ġpix": 8120,
      "Ġchemicals": 8121,
      "())": 8122,
      "Ġmeasurements": 8123,
      "Ġattributes": 8124,
      "94": 8125,
      "Ġmarriage": 8126,
      "Ġagencies": 8127,
      "['": 8128,
      "Ġintroduce": 8129,
      "She": 8130,
      "roke": 8131,
      "miss": 8132,
      "Ġpresentation": 8133,
      "ĠTor": 8134,
      "Ġclothing": 8135,
      "AV": 8136,
      "Ġflexible": 8137,
      "Ġexplores": 8138,
      "Ġsubstitute": 8139,
      "Ġmur": 8140,
      "inition": 8141,
      "arters": 8142,
      "Ġsimultane": 8143,
      "Ġpregnancy": 8144,
      "></": 8145,
      "Ġextent": 8146,
      "FL": 8147,
      "Ġlegs": 8148,
      "Ġprofound": 8149,
      "illa": 8150,
      "Field": 8151,
      "Ġmeals": 8152,
      "ested": 8153,
      "Ġcharges": 8154,
      "bre": 8155,
      "Ġdomestic": 8156,
      "atively": 8157,
      "Ġcultures": 8158,
      "Ġvalidation": 8159,
      "Ġadministration": 8160,
      "Ġinterpretation": 8161,
      "Therefore": 8162,
      "Ġmatters": 8163,
      "Ġmoments": 8164,
      "Ġdates": 8165,
      "Ġzone": 8166,
      "Ġcrime": 8167,
      "Ġdemands": 8168,
      "Ġnecessarily": 8169,
      "Ġwriter": 8170,
      "Ġconnot": 8171,
      "Ġpersonnel": 8172,
      "Find": 8173,
      "ĠLook": 8174,
      "ĠFort": 8175,
      "Ġagency": 8176,
      "Ġbeliefs": 8177,
      "othe": 8178,
      "ĠAud": 8179,
      "rc": 8180,
      "idential": 8181,
      "Ġcenters": 8182,
      "Ġtexture": 8183,
      "Ġfav": 8184,
      "Ġpassing": 8185,
      "Ġinstitution": 8186,
      "Ġintent": 8187,
      "Ġreverse": 8188,
      "Ġtested": 8189,
      "Ġeliminate": 8190,
      "ĠMah": 8191,
      "Ġchat": 8192,
      "Ġrural": 8193,
      "ivating": 8194,
      "âĶģâĶģ": 8195,
      "abul": 8196,
      "Ġenemy": 8197,
      "Eng": 8198,
      "Ġclause": 8199,
      "AA": 8200,
      "OST": 8201,
      "Ġvillage": 8202,
      "Ġnotable": 8203,
      "Ġreplacement": 8204,
      "ĠFamily": 8205,
      "Ġ55": 8206,
      "ĠNext": 8207,
      "ĠPrime": 8208,
      "pute": 8209,
      "akh": 8210,
      "ĠNor": 8211,
      "ĠTrump": 8212,
      "Ġarithmetic": 8213,
      "Ġfewer": 8214,
      "Ġacknowled": 8215,
      "person": 8216,
      "Ġille": 8217,
      "Ġboy": 8218,
      "ĠShow": 8219,
      "Ġfees": 8220,
      "Ġfinds": 8221,
      "join": 8222,
      "Ġsymbols": 8223,
      "files": 8224,
      "ĠMach": 8225,
      "oys": 8226,
      "Ġorient": 8227,
      "Ġsucceed": 8228,
      "Ġfilters": 8229,
      "81": 8230,
      "ĠSund": 8231,
      "Ġmeets": 8232,
      "uming": 8233,
      "Ġunders": 8234,
      "Most": 8235,
      "Ġdrinking": 8236,
      "Ġexception": 8237,
      "Ġdf": 8238,
      "ĠPo": 8239,
      "Ġpainting": 8240,
      "ĠMexico": 8241,
      "amps": 8242,
      "Ġoverwhel": 8243,
      "Ġavailability": 8244,
      "Ġproducing": 8245,
      "Ġcarrying": 8246,
      "ĠCivil": 8247,
      "Ġsale": 8248,
      "veys": 8249,
      "ĠCall": 8250,
      "Ġnur": 8251,
      "ellect": 8252,
      "ĠMichael": 8253,
      "Ġfilms": 8254,
      "ĠSchol": 8255,
      "Ġradiation": 8256,
      "Ġconvenient": 8257,
      "Ġstraightforward": 8258,
      "Ġ2001": 8259,
      "ĠĠĠĠĠĠĠĠĠĠĠĠĠĠ": 8260,
      ".'": 8261,
      "never": 8262,
      "Ġlever": 8263,
      "Ġintense": 8264,
      "onym": 8265,
      "ĠPur": 8266,
      "Dis": 8267,
      "ĠExactly": 8268,
      "Ġobst": 8269,
      "ĠPrinc": 8270,
      "Ġreactions": 8271,
      "ĠClub": 8272,
      "%)": 8273,
      "ĠUnit": 8274,
      "Ġchances": 8275,
      "Ġemphasizes": 8276,
      "ĠPlace": 8277,
      "ĠTABLE": 8278,
      "Ġ;": 8279,
      "Ġproportion": 8280,
      "Ġdisplayed": 8281,
      "Ġmaps": 8282,
      "ependent": 8283,
      "Ġ\\{": 8284,
      "Ġstrings": 8285,
      "Ġimmig": 8286,
      "Ġscheme": 8287,
      "plify": 8288,
      "ĠFOR": 8289,
      "ĠAustralian": 8290,
      "Ġcrisis": 8291,
      "filename": 8292,
      "Ġannounced": 8293,
      "Ġpup": 8294,
      "Ġtow": 8295,
      "Rep": 8296,
      "Ġwildlife": 8297,
      "Ġphoto": 8298,
      "gment": 8299,
      "Ġnegot": 8300,
      "ĠLake": 8301,
      "ĠPan": 8302,
      "Ob": 8303,
      "Ġcra": 8304,
      "ĠThree": 8305,
      "ĠAdminist": 8306,
      "alian": 8307,
      "rection": 8308,
      "Ġdecline": 8309,
      "Ġagricultural": 8310,
      "Ġfinished": 8311,
      "ĠUSA": 8312,
      "ogether": 8313,
      "Ġsmallest": 8314,
      "Ġmechanical": 8315,
      "Ġsaving": 8316,
      "Ġhel": 8317,
      "iler": 8318,
      "rot": 8319,
      "Ġdeeply": 8320,
      "Ġhus": 8321,
      "Ġwhom": 8322,
      "Ġsupposed": 8323,
      "Ġpd": 8324,
      "300": 8325,
      "osc": 8326,
      "ĠDigital": 8327,
      "ĠHen": 8328,
      "-|": 8329,
      "cases": 8330,
      "ĠUnlike": 8331,
      "Ġversions": 8332,
      "ĠAtl": 8333,
      "imeter": 8334,
      "olds": 8335,
      "Ġtact": 8336,
      "Ġstreet": 8337,
      "Ġintervention": 8338,
      "vas": 8339,
      "anda": 8340,
      "Ġmood": 8341,
      "Ġprominent": 8342,
      "uke": 8343,
      "ano": 8344,
      "Author": 8345,
      "Go": 8346,
      "books": 8347,
      "erts": 8348,
      "Ġwaiting": 8349,
      "Ġparticipation": 8350,
      "igenous": 8351,
      "ivation": 8352,
      "Ġsigned": 8353,
      "inem": 8354,
      "ĠSen": 8355,
      "ĠGard": 8356,
      "Ġpossibly": 8357,
      "driven": 8358,
      "Ġfails": 8359,
      "ali": 8360,
      "ĠRaj": 8361,
      "Ġtriangles": 8362,
      "Ġethical": 8363,
      "Ġske": 8364,
      "Ġ01": 8365,
      "Ġretrieve": 8366,
      "display": 8367,
      "ĠFurthermore": 8368,
      "ĠThomas": 8369,
      "ĠAbout": 8370,
      "ogs": 8371,
      "ceptions": 8372,
      "ĠChapter": 8373,
      "itudes": 8374,
      "Ġbreaking": 8375,
      "Ð¾Ð": 8376,
      "eck": 8377,
      "Ġnumerator": 8378,
      "Ġcontemporary": 8379,
      "Ġforced": 8380,
      "Ġneutral": 8381,
      "Ġdt": 8382,
      "ĠSecret": 8383,
      "Table": 8384,
      "Ġadvis": 8385,
      "create": 8386,
      "Ġpounds": 8387,
      "Ġfiber": 8388,
      "ĠMedic": 8389,
      "Ġachieving": 8390,
      "ĠSEO": 8391,
      "Ġsubstance": 8392,
      "Ġinterior": 8393,
      "working": 8394,
      "Ġbear": 8395,
      "Ġinspired": 8396,
      "Ġben": 8397,
      "ĠCommittee": 8398,
      "Ġpermanent": 8399,
      "Ġbiological": 8400,
      "à®": 8401,
      "à¤¤": 8402,
      "Ġcalculating": 8403,
      "ĠStudies": 8404,
      "Ġrequirement": 8405,
      "Ġcomprom": 8406,
      "Ġthanks": 8407,
      "specific": 8408,
      "Ġharvest": 8409,
      "ĠLibrary": 8410,
      "ady": 8411,
      "ĠBase": 8412,
      "Ġgravity": 8413,
      "TC": 8414,
      "Ġdollars": 8415,
      "Ġwelcome": 8416,
      "Ġremained": 8417,
      "atial": 8418,
      "Ġreporting": 8419,
      "zero": 8420,
      "Ġtoken": 8421,
      "ogy": 8422,
      "ĠContin": 8423,
      "Ġ2002": 8424,
      "Ġpreferred": 8425,
      "Â²": 8426,
      "Ġstrongly": 8427,
      "uine": 8428,
      "Start": 8429,
      "Ġexplains": 8430,
      "Ġequil": 8431,
      "ĠBill": 8432,
      "uling": 8433,
      "Ġreligion": 8434,
      "Ġbuff": 8435,
      "Ġstronger": 8436,
      "osa": 8437,
      "Ġinherent": 8438,
      "Ġ'{": 8439,
      "Ġbread": 8440,
      "ĠWal": 8441,
      "Ġtall": 8442,
      "Main": 8443,
      "Ġdiscovery": 8444,
      "Failed": 8445,
      "ĠJul": 8446,
      "ĠExec": 8447,
      "Form": 8448,
      "var": 8449,
      "Ġdent": 8450,
      "Ġlistening": 8451,
      "Ġinflammation": 8452,
      "Ġmovies": 8453,
      "anes": 8454,
      "ĠRemember": 8455,
      "ĠMinistry": 8456,
      "Ġcouldn": 8457,
      "eah": 8458,
      "Ñģ": 8459,
      "Ġmillions": 8460,
      "va": 8461,
      "Ġstead": 8462,
      "Ġsongs": 8463,
      "Ø§": 8464,
      "ĠIII": 8465,
      "Ġmild": 8466,
      "cules": 8467,
      "Ġcouns": 8468,
      "ĠMaster": 8469,
      "conf": 8470,
      "Ġcircul": 8471,
      "afe": 8472,
      "ĠHave": 8473,
      "ĠFacebook": 8474,
      "fix": 8475,
      "ĠBC": 8476,
      "Art": 8477,
      "ĠCarol": 8478,
      "oral": 8479,
      "ranch": 8480,
      "ĠGr": 8481,
      "Ġmainly": 8482,
      "Ã¶": 8483,
      "Ã¼": 8484,
      "Mat": 8485,
      "Ġvitamin": 8486,
      "ĠHQ": 8487,
      "(\"\\": 8488,
      "ĠSimilarly": 8489,
      "ĠTeacher": 8490,
      "Ġprincipal": 8491,
      "ĠAmazon": 8492,
      "Ġalter": 8493,
      "quir": 8494,
      "Ġunderstood": 8495,
      "Ġstem": 8496,
      "Ġauthorities": 8497,
      "Ġoptimize": 8498,
      "Ġtap": 8499,
      "Ġlib": 8500,
      "Ġjoined": 8501,
      "Ġbat": 8502,
      "Ġcrim": 8503,
      "Ġdust": 8504,
      "Ġmodified": 8505,
      "taining": 8506,
      "Ġnerv": 8507,
      "Ġofficials": 8508,
      "Ġpopularity": 8509,
      "indu": 8510,
      "Ġsimulation": 8511,
      "Ġgrown": 8512,
      "ĠLess": 8513,
      "Ġtea": 8514,
      "Ġarrest": 8515,
      "Exp": 8516,
      "obile": 8517,
      "\"],": 8518,
      "Ġhonest": 8519,
      "ĠNetwork": 8520,
      "ologists": 8521,
      "ibraries": 8522,
      "cribed": 8523,
      "Ġarts": 8524,
      "ĠJud": 8525,
      "91": 8526,
      "Ġobservations": 8527,
      "ĠLo": 8528,
      "AND": 8529,
      "ĠDate": 8530,
      "ventions": 8531,
      "Ġsubsequent": 8532,
      "ĠMP": 8533,
      "Ġconsideration": 8534,
      "Ġbreath": 8535,
      "Ġcoordinate": 8536,
      "Ġactively": 8537,
      "asses": 8538,
      "ensions": 8539,
      "Ġdiagnosis": 8540,
      "vol": 8541,
      "EO": 8542,
      "Ġtherap": 8543,
      "ĠAlgebra": 8544,
      "score": 8545,
      "Ġtargets": 8546,
      "Ġsky": 8547,
      "lower": 8548,
      "agraph": 8549,
      "ĠAngel": 8550,
      "ĠAnaly": 8551,
      "Ġseat": 8552,
      "ĠFour": 8553,
      "Ġpossibility": 8554,
      "find": 8555,
      "Ġtab": 8556,
      "Out": 8557,
      "ingly": 8558,
      "Ġcalculator": 8559,
      "ĠFeatures": 8560,
      "ĠâĪĴ": 8561,
      "ĠBlue": 8562,
      "query": 8563,
      "ulas": 8564,
      "Ġlimitations": 8565,
      "Ġyounger": 8566,
      "Ġdrain": 8567,
      "overty": 8568,
      "Ġparticle": 8569,
      "Ġdistances": 8570,
      "ĠChoose": 8571,
      "ĠOrig": 8572,
      "ĠSH": 8573,
      "Ġnit": 8574,
      "args": 8575,
      "Ġ95": 8576,
      "Ġaer": 8577,
      "Ġearn": 8578,
      "ĠWild": 8579,
      "ĠSeries": 8580,
      "equiv": 8581,
      "rightarrow": 8582,
      "Ġneuro": 8583,
      "rium": 8584,
      "Ġgone": 8585,
      "anta": 8586,
      "ĠRobert": 8587,
      "Ġ[\"": 8588,
      "Ġ00": 8589,
      "Ġ----------------": 8590,
      "FF": 8591,
      "Ġasc": 8592,
      "ĠChampions": 8593,
      "ĠAccount": 8594,
      "Ġwatching": 8595,
      "Ġpsychological": 8596,
      "Ġfertil": 8597,
      "Ġdemonstrated": 8598,
      "enth": 8599,
      "Ġclock": 8600,
      "Ġattached": 8601,
      "Ġbatch": 8602,
      "Ġneck": 8603,
      "400": 8604,
      "Ġanticip": 8605,
      "Ġdefense": 8606,
      "wind": 8607,
      "Ġapplies": 8608,
      "claim": 8609,
      "Ġscholars": 8610,
      "Ġours": 8611,
      "DB": 8612,
      "zed": 8613,
      "ĠKen": 8614,
      "ldots": 8615,
      "Ġcodes": 8616,
      "ĠCath": 8617,
      "Ġtaxes": 8618,
      "ĠIntroduction": 8619,
      "Ġsed": 8620,
      "fast": 8621,
      "ulates": 8622,
      "erals": 8623,
      "Ġputting": 8624,
      "Ġhero": 8625,
      "Ġinitiative": 8626,
      "Ġdependent": 8627,
      "Ġrice": 8628,
      "Ġcontrols": 8629,
      "Ġtermin": 8630,
      "ĠMicrosoft": 8631,
      "Ġentries": 8632,
      "Ġremoval": 8633,
      "Ġproven": 8634,
      "Ġentertainment": 8635,
      "Ġthreshold": 8636,
      "Ġsight": 8637,
      "Ġreader": 8638,
      "Ġdebate": 8639,
      "ĠCirc": 8640,
      "vit": 8641,
      "ĠHelp": 8642,
      "Ġdiagram": 8643,
      "ĠDefine": 8644,
      "Ġpreval": 8645,
      "Ġintensity": 8646,
      "omy": 8647,
      "Ġborder": 8648,
      "Ġaf": 8649,
      "Ġtheoretical": 8650,
      "Ġnormally": 8651,
      "root": 8652,
      "uction": 8653,
      "Ġdict": 8654,
      "Ġsatell": 8655,
      "Ġregistered": 8656,
      "Ġdrivers": 8657,
      "ĠCould": 8658,
      "ilation": 8659,
      "Ġgenes": 8660,
      "Ġtechnological": 8661,
      "Ġlogar": 8662,
      "connect": 8663,
      "Ġgenerations": 8664,
      "Lear": 8665,
      "Ġalgebraic": 8666,
      "anning": 8667,
      "Ġmechanisms": 8668,
      "aked": 8669,
      "dated": 8670,
      "Ġreasoning": 8671,
      "hemical": 8672,
      "ĠMen": 8673,
      "??": 8674,
      "73": 8675,
      "ĠStudy": 8676,
      "Ġstrengthen": 8677,
      "Ġproduces": 8678,
      "Ġdisplays": 8679,
      "74": 8680,
      "Ġattempts": 8681,
      "**,": 8682,
      "Ġcombine": 8683,
      "ĠExamples": 8684,
      "Ġ=================": 8685,
      "Ġtargeted": 8686,
      "Ġreaching": 8687,
      "ĠSP": 8688,
      "source": 8689,
      "Ġloyal": 8690,
      "ĠPeter": 8691,
      "ART": 8692,
      "ths": 8693,
      "-\\": 8694,
      "Ġproteins": 8695,
      "ĠSea": 8696,
      "Ġmarried": 8697,
      "Ġhouses": 8698,
      "Ġvertices": 8699,
      "Ġnations": 8700,
      "ushed": 8701,
      "Ġpaying": 8702,
      "ĠAff": 8703,
      "Ġpig": 8704,
      "agram": 8705,
      "ĠCard": 8706,
      "ĠSelect": 8707,
      "Ġgenerating": 8708,
      "Ġadequate": 8709,
      "Ġdispos": 8710,
      "Ġrobot": 8711,
      "Ġpassage": 8712,
      "}\\),": 8713,
      "Ġweapons": 8714,
      "ĠVict": 8715,
      "Ġentered": 8716,
      "Ġkinds": 8717,
      "Ġelig": 8718,
      "Ġapparent": 8719,
      "Ġconventional": 8720,
      "Ġhole": 8721,
      "Ġindependence": 8722,
      "Ġoccasion": 8723,
      "Ġweights": 8724,
      "TE": 8725,
      "Ġble": 8726,
      "SI": 8727,
      "Ġaffecting": 8728,
      "Ġpenal": 8729,
      "Ġepisode": 8730,
      "ĠWood": 8731,
      "frame": 8732,
      "Ġremarkable": 8733,
      "Ġexplo": 8734,
      "False": 8735,
      "Ġconj": 8736,
      "abulary": 8737,
      "Ġfault": 8738,
      "ĠDown": 8739,
      "vin": 8740,
      "Ġmapping": 8741,
      "Ġca": 8742,
      "ĠRest": 8743,
      "Americ": 8744,
      "Cur": 8745,
      "ĠField": 8746,
      "rey": 8747,
      "sole": 8748,
      "ĠÃĹ": 8749,
      "Ġheritage": 8750,
      "MENT": 8751,
      "iciency": 8752,
      "liament": 8753,
      "ĠLin": 8754,
      "Other": 8755,
      "ĠPersonal": 8756,
      "79": 8757,
      "ĠMa": 8758,
      "Ġinvalid": 8759,
      "brid": 8760,
      "endicular": 8761,
      "71": 8762,
      "Ġcryst": 8763,
      "Ġembed": 8764,
      "iary": 8765,
      "Ġpolar": 8766,
      "Ġconsistently": 8767,
      "ivities": 8768,
      "Ġinventory": 8769,
      "Ġencouraging": 8770,
      "redit": 8771,
      "Resp": 8772,
      "aval": 8773,
      "pled": 8774,
      "ĠCanadian": 8775,
      "Ġmaximize": 8776,
      "rations": 8777,
      "Ġlie": 8778,
      "Ġconsistency": 8779,
      "ĠÂ£": 8780,
      "Ġdimension": 8781,
      "Ġaimed": 8782,
      "Ġencount": 8783,
      "Ġprison": 8784,
      "sts": 8785,
      "Ġinvestigation": 8786,
      "Pe": 8787,
      "ĠNatural": 8788,
      "Ġlect": 8789,
      "ĠHistor": 8790,
      "ĠPit": 8791,
      "Ġlikelihood": 8792,
      "Ġreform": 8793,
      "ĠKEY": 8794,
      "Ġyes": 8795,
      "ello": 8796,
      "Ġconstantly": 8797,
      "Ġabund": 8798,
      "rability": 8799,
      "Ġhundreds": 8800,
      "Ġlargely": 8801,
      "tery": 8802,
      "Ġincorporating": 8803,
      "Ġclassification": 8804,
      "Ġsod": 8805,
      "ipt": 8806,
      "Ġcombinations": 8807,
      "\").": 8808,
      "ĠEX": 8809,
      "Ġnine": 8810,
      "ĠVirgin": 8811,
      "VER": 8812,
      "QU": 8813,
      "ĠAge": 8814,
      "Ġexceptional": 8815,
      "Ġcomparing": 8816,
      "zil": 8817,
      "plicate": 8818,
      "ĠDou": 8819,
      "Ġstatic": 8820,
      "Ġpasseng": 8821,
      "Ġgreatly": 8822,
      "target": 8823,
      "Ġprofessor": 8824,
      "Ġbiggest": 8825,
      "ĠBang": 8826,
      "Ġalle": 8827,
      "Ġexamination": 8828,
      "iating": 8829,
      "Ġmassive": 8830,
      "anches": 8831,
      "LA": 8832,
      "Ġworse": 8833,
      "endar": 8834,
      "Ġapproved": 8835,
      "sem": 8836,
      "ĠBir": 8837,
      "Ġheating": 8838,
      "dist": 8839,
      "Ġhousehold": 8840,
      "Ġranging": 8841,
      "ĠRoyal": 8842,
      "Car": 8843,
      "ĠCourse": 8844,
      "Ġcharacteristic": 8845,
      "Ġfriendly": 8846,
      "ishment": 8847,
      "Ġexperiments": 8848,
      "ĠProg": 8849,
      "Ġvariance": 8850,
      "Number": 8851,
      "Ġexamine": 8852,
      "ĠComb": 8853,
      "Ġmarine": 8854,
      "Ġlengths": 8855,
      "Ġovercome": 8856,
      "Ġexperiencing": 8857,
      "icted": 8858,
      "Ġcardi": 8859,
      "Ġwaters": 8860,
      "Ġelif": 8861,
      "...\")": 8862,
      "Ġcoal": 8863,
      "Ġleaf": 8864,
      "ĠAltern": 8865,
      "Ġquantities": 8866,
      "Ġamazing": 8867,
      "cers": 8868,
      "fulness": 8869,
      "iations": 8870,
      "ĠOutput": 8871,
      "Ġcircular": 8872,
      "Ġdefinitely": 8873,
      "Ġlearners": 8874,
      "ĠText": 8875,
      "ĠAssess": 8876,
      "83": 8877,
      "Ġbigger": 8878,
      "worth": 8879,
      "ĠMuslim": 8880,
      "Ġwindows": 8881,
      "Ġcriminal": 8882,
      "Ġvotes": 8883,
      "owered": 8884,
      "Each": 8885,
      "Then": 8886,
      "idation": 8887,
      "Ġaqu": 8888,
      "Ġcenturies": 8889,
      "Ġsalary": 8890,
      "ĠMel": 8891,
      "UNT": 8892,
      "urning": 8893,
      "Ġgrad": 8894,
      "Sum": 8895,
      "Ġadopted": 8896,
      ")]": 8897,
      "Ġkilomet": 8898,
      "åı": 8899,
      "ione": 8900,
      "Ġargue": 8901,
      "Ġprinting": 8902,
      "Ġsatisfy": 8903,
      "Ġexecuted": 8904,
      "ĠMS": 8905,
      "ilitary": 8906,
      "âĪĴ": 8907,
      "Act": 8908,
      "Ġ1980": 8909,
      "Ġagents": 8910,
      "Ġprioritize": 8911,
      "Ġpersonality": 8912,
      "di": 8913,
      "Ġforg": 8914,
      "(),": 8915,
      "Ġintu": 8916,
      "CON": 8917,
      "Ġassignment": 8918,
      "lied": 8919,
      "Ġlasting": 8920,
      "ĠMedia": 8921,
      "Ġconnecting": 8922,
      "Ġprevention": 8923,
      "dec": 8924,
      "Co": 8925,
      "ĠSuch": 8926,
      "ocur": 8927,
      "ells": 8928,
      "Ġ39": 8929,
      "ĠDen": 8930,
      "Ġchildhood": 8931,
      "price": 8932,
      "Ġsick": 8933,
      "ĠEnter": 8934,
      "Ġsupplies": 8935,
      "Ġconfident": 8936,
      "Ġfalls": 8937,
      "Ġtiny": 8938,
      "Char": 8939,
      "Ġdependencies": 8940,
      "ĠKingdom": 8941,
      "Ġtension": 8942,
      "Ġdrag": 8943,
      "Ġdirections": 8944,
      "Ġdisrupt": 8945,
      "Ġtum": 8946,
      "Ġcomposed": 8947,
      "Ġclot": 8948,
      ")^{": 8949,
      "pathy": 8950,
      "Ġcalling": 8951,
      "pectives": 8952,
      "Ġdocumentation": 8953,
      "Ġsafely": 8954,
      "Ġnarrow": 8955,
      "Ġremind": 8956,
      "ĠFriday": 8957,
      "ushing": 8958,
      "Ġgent": 8959,
      "Ġabsence": 8960,
      "ittle": 8961,
      "Ġcategor": 8962,
      "Ġobserve": 8963,
      "weet": 8964,
      "ĠSoft": 8965,
      "Ġtradition": 8966,
      "Ġmas": 8967,
      "Ġverb": 8968,
      "ĠĠĠĠĠĠĠĠĠĠĠĠĠĠĠ": 8969,
      "Ġhur": 8970,
      "Ġbrands": 8971,
      "ĠâĤ": 8972,
      "ĠBible": 8973,
      "Ġinvestments": 8974,
      "Ġmerely": 8975,
      "Ġsoph": 8976,
      "Ġdefines": 8977,
      "Ġaffordable": 8978,
      "ĠThank": 8979,
      "ading": 8980,
      "Ġcream": 8981,
      "Ġfascinating": 8982,
      "asy": 8983,
      "holder": 8984,
      "Ġinvesting": 8985,
      "Ġouter": 8986,
      "Ġassumes": 8987,
      "ĠMill": 8988,
      "Ġpersons": 8989,
      "unicip": 8990,
      "everal": 8991,
      "Ġton": 8992,
      "https": 8993,
      "Ġlosing": 8994,
      "Ġelectro": 8995,
      "binom": 8996,
      "Ġslowly": 8997,
      "Ġmountain": 8998,
      "Ġstructural": 8999,
      ")/": 9000,
      "Ġdamaged": 9001,
      "Ġobservation": 9002,
      "section": 9003,
      "Ġbringing": 9004,
      "amount": 9005,
      "Ġhabitat": 9006,
      "}$.": 9007,
      "Ġescape": 9008,
      "inction": 9009,
      "ĠGraph": 9010,
      "Ġentreprene": 9011,
      "izz": 9012,
      "ivered": 9013,
      "ĠMove": 9014,
      "Ġadventure": 9015,
      "Ġmeasuring": 9016,
      "ository": 9017,
      "Ġforecast": 9018,
      "http": 9019,
      "ĠGal": 9020,
      "Ġmomentum": 9021,
      "Ġdigest": 9022,
      "Ġengines": 9023,
      "Ġconstructed": 9024,
      "NAME": 9025,
      "valuate": 9026,
      "omach": 9027,
      "Ġequally": 9028,
      "hyth": 9029,
      "Ġoblig": 9030,
      "ĠOly": 9031,
      "omatic": 9032,
      "ĠCross": 9033,
      "Ġagriculture": 9034,
      "Ġqueries": 9035,
      "Ġquiet": 9036,
      "Ġimper": 9037,
      "Äģ": 9038,
      "Ġimmers": 9039,
      "rance": 9040,
      "ednes": 9041,
      "ĠGP": 9042,
      "ĠEnh": 9043,
      "Ġvariation": 9044,
      "rary": 9045,
      "ĠAlways": 9046,
      "Ġfant": 9047,
      "ican": 9048,
      "Ġfacility": 9049,
      "covery": 9050,
      "apes": 9051,
      "earing": 9052,
      "ĠLow": 9053,
      "raud": 9054,
      "hops": 9055,
      "ĠRam": 9056,
      "Ġbanks": 9057,
      "Ġcompletion": 9058,
      "Ġphotograph": 9059,
      "uct": 9060,
      "Ġcovering": 9061,
      "ĠCR": 9062,
      "ĠIran": 9063,
      "Ġ49": 9064,
      "ĠBuilding": 9065,
      "pes": 9066,
      "ascular": 9067,
      "egu": 9068,
      "Expert": 9069,
      "Ġsubmit": 9070,
      "Ġ72": 9071,
      "Ġreputation": 9072,
      "erted": 9073,
      "ĠStudent": 9074,
      "ĠFrank": 9075,
      "Imagine": 9076,
      "Ġluck": 9077,
      "Ġnone": 9078,
      "Ġhighlighting": 9079,
      ")`": 9080,
      "Ġfeaturing": 9081,
      "racing": 9082,
      "cessary": 9083,
      "Ġunable": 9084,
      "Ġmetrics": 9085,
      "chron": 9086,
      "ulty": 9087,
      "Med": 9088,
      "Ed": 9089,
      "Ġdiffer": 9090,
      "Ġregression": 9091,
      "Ġpriority": 9092,
      "Ġregistration": 9093,
      "Ġgenuine": 9094,
      "Ġrecording": 9095,
      "fi": 9096,
      "Ġteen": 9097,
      "Ġdividing": 9098,
      "Ġasp": 9099,
      "ndrome": 9100,
      "ĠNov": 9101,
      "cat": 9102,
      "ĠSym": 9103,
      "Ġintervals": 9104,
      "ocolate": 9105,
      "Ġalongside": 9106,
      "ĠPractice": 9107,
      "folio": 9108,
      "Ġstrain": 9109,
      "Ġgram": 9110,
      "names": 9111,
      "haust": 9112,
      "Ġcontrad": 9113,
      "Ġintersection": 9114,
      "\"?": 9115,
      "Ġplenty": 9116,
      "Ġoriginally": 9117,
      "employ": 9118,
      "Ġvulnerable": 9119,
      "eting": 9120,
      "Ġrising": 9121,
      "Ġ($": 9122,
      "node": 9123,
      "ĠCharles": 9124,
      "Ġappeared": 9125,
      "method": 9126,
      "Ġequipped": 9127,
      "Ġreinfor": 9128,
      "nic": 9129,
      "ĠJose": 9130,
      "utch": 9131,
      "Ġintellect": 9132,
      "Ġutility": 9133,
      "âĤ": 9134,
      "ĠItalian": 9135,
      "Ġimprovements": 9136,
      "Ġversatile": 9137,
      "UB": 9138,
      "NG": 9139,
      "ĠCON": 9140,
      "ĠGames": 9141,
      "img": 9142,
      "Ġsto": 9143,
      "Ġbreathing": 9144,
      "pop": 9145,
      "Ġbelieves": 9146,
      "rating": 9147,
      "erior": 9148,
      "ĠFuture": 9149,
      "coin": 9150,
      "Ġsharp": 9151,
      "Ġmatching": 9152,
      "ĠSat": 9153,
      "Ġmatrices": 9154,
      "Ġvaries": 9155,
      "Ġfoss": 9156,
      "Ġregister": 9157,
      "ĠMer": 9158,
      "Ġmuseum": 9159,
      "ĠHaw": 9160,
      "Any": 9161,
      "Ġequals": 9162,
      "Don": 9163,
      "Ġbits": 9164,
      "Ġreliability": 9165,
      "Ġ44": 9166,
      "Ġgum": 9167,
      "Ġencouraged": 9168,
      "Ġunus": 9169,
      "Ġlens": 9170,
      "Ġresponsibilities": 9171,
      "ĠFrancis": 9172,
      "Ġrid": 9173,
      "riction": 9174,
      "82": 9175,
      "Ġfeeding": 9176,
      "ĠLED": 9177,
      "Ġmixture": 9178,
      "Ġsimplified": 9179,
      "ĠLouis": 9180,
      "Ġspark": 9181,
      "Ġheads": 9182,
      "rog": 9183,
      "ĠCrit": 9184,
      "Ġsouthern": 9185,
      "Ġrealize": 9186,
      "ĠDraw": 9187,
      "oup": 9188,
      "Ġdiscom": 9189,
[...]
