{
  "version": "1.0",
  "truncation": null,
  "padding": null,
  "added_tokens": [
    {
      "id": 0,
      "content": "<BOS>",
      "single_word": false,
      "lstrip": false,
      "rstrip": false,
      "normalized": false,
      "special": true
    },
    {
      "id": 1,
      "content": "<EOS>",
      "single_word": false,
      "lstrip": false,
      "rstrip": false,
      "normalized": false,
      "special": true
    },
    {
      "id": 2,
      "content": "<start_of_turn>",
      "single_word": false,
      "lstrip": false,
      "rstrip": false,
      "normalized": false,
      "special": true
    },
    {
      "id": 3,
      "content": "<end_of_turn>",
      "single_word": false,
      "lstrip": false,
      "rstrip": false,
      "normalized": false,
      "special": true
    },
    {
      "id": 4,
      "content": "<DUMMY_2>",
      "single_word": false,
      "lstrip": false,
      "rstrip": false,
      "normalized": false,
      "special": true
    },
    {
      "id": 5,
      "content": "<DUMMY_3>",
      "single_word": false,
      "lstrip": false,
      "rstrip": false,
      "normalized": false,
      "special": true
    },
    {
      "id": 6,
      "content": "<DUMMY_4>",
      "single_word": false,
      "lstrip": false,
      "rstrip": false,
      "normalized": false,
      "special": true
    },
    {
      "id": 7,
      "content": "<DUMMY_5>",
      "single_word": false,
      "lstrip": false,
      "rstrip": false,
      "normalized": false,
      "special": true
    },
    {
      "id": 8,
      "content": "<DUMMY_6>",
      "single_word": false,
      "lstrip": false,
      "rstrip": false,
      "normalized": false,
      "special": true
    },
    {
      "id": 9,
      "content": "<DUMMY_7>",
      "single_word": false,
      "lstrip": false,
      "rstrip": false,
      "normalized": false,
      "special": true
    },
    {
      "id": 10,
      "content": "<DUMMY_8>",
      "single_word": false,
      "lstrip": false,
      "rstrip": false,
      "normalized": false,
      "special": true
    },
    {
      "id": 11,
      "content": "<DUMMY_9>",
      "single_word": false,
      "lstrip": false,
      "rstrip": false,
      "normalized": false,
      "special": true
    }
  ],
  "normalizer": null,
  "pre_tokenizer": {
    "type": "ByteLevel",
    "add_prefix_space": false,
    "trim_offsets": true,
    "use_regex": true
  },
  "post_processor": null,
  "decoder": {
    "type": "ByteLevel",
    "add_prefix_space": true,
    "trim_offsets": true,
    "use_regex": true
  },
  "model": {
    "type": "BPE",
    "dropout": null,
    "unk_token": null,
    "continuing_subword_prefix": null,
    "end_of_word_suffix": null,
    "fuse_unk": false,
    "byte_fallback": false,
    "ignore_merges": false,
    "vocab": {
      "<BOS>": 0,
      "<EOS>": 1,
      "<DUMMY_2>": 4,
      "<DUMMY_3>": 5,
      "<DUMMY_4>": 6,
      "<DUMMY_5>": 7,
      "<DUMMY_6>": 8,
      "<DUMMY_7>": 9,
      "<DUMMY_8>": 10,
      "<DUMMY_9>": 11,
      "!": 12,
      "\"": 13,
      "#": 14,
      "$": 15,
      "%": 16,
      "&": 17,
      "'": 18,
      "(": 19,
      ")": 20,
      "*": 21,
      "+": 22,
      ",": 23,
      "-": 24,
      ".": 25,
      "/": 26,
      "0": 27,
      "1": 28,
      "2": 29,
      "3": 30,
      "4": 31,
      "5": 32,
      "6": 33,
      "7": 34,
      "8": 35,
      "9": 36,
      ":": 37,
      ";": 38,
      "<": 39,
      "=": 40,
      ">": 41,
      "?": 42,
      "@": 43,
      "A": 44,
      "B": 45,
      "C": 46,
      "D": 47,
      "E": 48,
      "F": 49,
      "G": 50,
      "H": 51,
      "I": 52,
      "J": 53,
      "K": 54,
      "L": 55,
      "M": 56,
      "N": 57,
      "O": 58,
      "P": 59,
      "Q": 60,
      "R": 61,
      "S": 62,
      "T": 63,
      "U": 64,
      "V": 65,
      "W": 66,
      "X": 67,
      "Y": 68,
      "Z": 69,
      "[": 70,
      "\\": 71,
      "]": 72,
      "^": 73,
      "_": 74,
      "`": 75,
      "a": 76,
      "b": 77,
      "c": 78,
      "d": 79,
      "e": 80,
      "f": 81,
      "g": 82,
      "h": 83,
      "i": 84,
      "j": 85,
      "k": 86,
      "l": 87,
      "m": 88,
      "n": 89,
      "o": 90,
      "p": 91,
      "q": 92,
      "r": 93,
      "s": 94,
      "t": 95,
      "u": 96,
      "v": 97,
      "w": 98,
      "x": 99,
      "y": 100,
      "z": 101,
      "{": 102,
      "|": 103,
      "}": 104,
      "~": 105,
      "¡": 106,
      "¢": 107,
      "£": 108,
      "¤": 109,
      "¥": 110,
      "¦": 111,
      "§": 112,
      "¨": 113,
      "©": 114,
      "ª": 115,
      "«": 116,
      "¬": 117,
      "®": 118,
      "¯": 119,
      "°": 120,
      "±": 121,
      "²": 122,
      "³": 123,
      "´": 124,
      "µ": 125,
      "¶": 126,
      "·": 127,
      "¸": 128,
      "¹": 129,
      "º": 130,
      "»": 131,
      "¼": 132,
      "½": 133,
      "¾": 134,
      "¿": 135,
      "À": 136,
      "Á": 137,
      "Â": 138,
      "Ã": 139,
      "Ä": 140,
      "Å": 141,
      "Æ": 142,
      "Ç": 143,
      "È": 144,
      "É": 145,
      "Ê": 146,
      "Ë": 147,
      "Ì": 148,
      "Í": 149,
      "Î": 150,
      "Ï": 151,
      "Ð": 152,
      "Ñ": 153,
      "Ò": 154,
      "Ó": 155,
      "Ô": 156,
      "Õ": 157,
      "Ö": 158,
      "×": 159,
      "Ø": 160,
      "Ù": 161,
      "Ú": 162,
      "Û": 163,
      "Ü": 164,
      "Ý": 165,
      "Þ": 166,
      "ß": 167,
      "à": 168,
      "á": 169,
      "â": 170,
      "ã": 171,
      "ä": 172,
      "å": 173,
      "æ": 174,
      "ç": 175,
      "è": 176,
      "é": 177,
      "ê": 178,
      "ë": 179,
      "ì": 180,
      "í": 181,
      "î": 182,
      "ï": 183,
      "ð": 184,
      "ñ": 185,
      "ò": 186,
      "ó": 187,
      "ô": 188,
      "õ": 189,
      "ö": 190,
      "÷": 191,
      "ø": 192,
      "ù": 193,
      "ú": 194,
      "û": 195,
      "ü": 196,
      "ý": 197,
      "þ": 198,
      "ÿ": 199,
      "Ā": 200,
      "ā": 201,
      "Ă": 202,
      "ă": 203,
      "Ą": 204,
      "ą": 205,
      "Ć": 206,
      "ć": 207,
      "Ĉ": 208,
      "ĉ": 209,
      "Ċ": 210,
      "ċ": 211,
      "Č": 212,
      "č": 213,
      "Ď": 214,
      "ď": 215,
      "Đ": 216,
      "đ": 217,
      "Ē": 218,
      "ē": 219,
      "Ĕ": 220,
      "ĕ": 221,
      "Ė": 222,
      "ė": 223,
      "Ę": 224,
      "ę": 225,
      "Ě": 226,
      "ě": 227,
      "Ĝ": 228,
      "ĝ": 229,
      "Ğ": 230,
      "ğ": 231,
      "Ġ": 232,
      "ġ": 233,
      "Ģ": 234,
      "ģ": 235,
      "Ĥ": 236,
      "ĥ": 237,
      "Ħ": 238,
      "ħ": 239,
      "Ĩ": 240,
      "ĩ": 241,
      "Ī": 242,
      "ī": 243,
      "Ĭ": 244,
      "ĭ": 245,
      "Į": 246,
      "į": 247,
      "İ": 248,
      "ı": 249,
      "Ĳ": 250,
      "ĳ": 251,
      "Ĵ": 252,
      "ĵ": 253,
      "Ķ": 254,
      "ķ": 255,
      "ĸ": 256,
      "Ĺ": 257,
      "ĺ": 258,
      "Ļ": 259,
      "ļ": 260,
      "Ľ": 261,
      "ľ": 262,
      "Ŀ": 263,
      "ŀ": 264,
      "Ł": 265,
      "ł": 266,
      "Ń": 267,
      "Ġt": 268,
      "Ġa": 269,
      "he": 270,
      "in": 271,
      "re": 272,
      "on": 273,
      "Ġthe": 274,
      "er": 275,
      "at": 276,
      "Ġs": 277,
      "Ġo": 278,
      "en": 279,
      "Ġc": 280,
      "es": 281,
      "nd": 282,
      "Ġw": 283,
      "is": 284,
      "it": 285,
      "or": 286,
      "Ġp": 287,
      "al": 288,
      "an": 289,
      "ing": 290,
      "Ġf": 291,
      "Ġb": 292,
      "ed": 293,
      "Ġof": 294,
      "Ġin": 295,
      "ou": 296,
      "ar": 297,
      "Ġand": 298,
      "Ġm": 299,
      "Ġto": 300,
      "ic": 301,
      "ion": 302,
      "Ġd": 303,
      "le": 304,
      "ro": 305,
      "as": 306,
      "ent": 307,
      "Ġh": 308,
      "Ġth": 309,
      "ct": 310,
      "Ġe": 311,
      "Ġre": 312,
      "il": 313,
      "ve": 314,
      "om": 315,
      "st": 316,
      "Ġl": 317,
      "Ġn": 318,
      "ly": 319,
      "âĢ": 320,
      "Ġbe": 321,
      "Ġis": 322,
      "ation": 323,
      "ĠT": 324,
      "se": 325,
      "ol": 326,
      "Ġg": 327,
      "im": 328,
      "ce": 329,
      "id": 330,
      "et": 331,
      "ur": 332,
      "ut": 333,
      "ot": 334,
      "ra": 335,
      "ch": 336,
      "ow": 337,
      "Ġfor": 338,
      "ig": 339,
      "ĠA": 340,
      "Ġu": 341,
      "ĠS": 342,
      "Ġst": 343,
      "Ġon": 344,
      "Ġthat": 345,
      "ver": 346,
      "Ġy": 347,
      "ir": 348,
      "ĠC": 349,
      "ĠI": 350,
      "ul": 351,
      "Ġpro": 352,
      "ith": 353,
      "ay": 354,
      "Ġas": 355,
      "el": 356,
      "am": 357,
      "Ġcon": 358,
      "Ġare": 359,
      "ad": 360,
      "Ġyou": 361,
      "Ġwith": 362,
      "her": 363,
      "if": 364,
      "Ġan": 365,
      "Ġor": 366,
      "ment": 367,
      "Ġit": 368,
      "Ġal": 369,
      "ter": 370,
      "od": 371,
      "Ġwh": 372,
      "ĠThe": 373,
      "ge": 374,
      "ĠM": 375,
      "ess": 376,
      "ate": 377,
      "ers": 378,
      "ab": 379,
      "th": 380,
      "ĠP": 381,
      "Ġde": 382,
      "ies": 383,
      "Ġ(": 384,
      "op": 385,
      "ect": 386,
      "ist": 387,
      "Ġex": 388,
      "Ġsu": 389,
      "Ġhe": 390,
      "ity": 391,
      "Ġcom": 392,
      "âĢĻ": 393,
      "ill": 394,
      "res": 395,
      "Ġ1": 396,
      "ive": 397,
      "ĠB": 398,
      "us": 399,
      "ore": 400,
      "est": 401,
      "ac": 402,
      "Ġwe": 403,
      "qu": 404,
      "Ġv": 405,
      "iv": 406,
      "Ġcan": 407,
      "ke": 408,
      "ant": 409,
      "Ġha": 410,
      "ain": 411,
      "um": 412,
      "os": 413,
      "em": 414,
      "pp": 415,
      "rom": 416,
      "ĠH": 417,
      "ld": 418,
      "Ġby": 419,
      "igh": 420,
      "nt": 421,
      "ĠD": 422,
      "ial": 423,
      "ĠW": 424,
      "ort": 425,
      "Ġat": 426,
      "Ġch": 427,
      "ud": 428,
      "oc": 429,
      "and": 430,
      "Ġr": 431,
      "ĠE": 432,
      "Ġfrom": 433,
      "ure": 434,
      "Ġne": 435,
      "ĠR": 436,
      "ĠF": 437,
      "Ġse": 438,
      "Ġen": 439,
      "Ġle": 440,
      "Ġwas": 441,
      "un": 442,
      "ical": 443,
      "art": 444,
      "ĠâĢ": 445,
      "Ġ2": 446,
      "Ġnot": 447,
      "ri": 448,
      "og": 449,
      "Ġhave": 450,
      "Ġsh": 451,
      "ĠN": 452,
      "ĠG": 453,
      "Ġsp": 454,
      "pt": 455,
      "ĠL": 456,
      "ions": 457,
      "Ġim": 458,
      "ight": 459,
      "du": 460,
      "Ġthis": 461,
      "per": 462,
      "rou": 463,
      "all": 464,
      "Ġwor": 465,
      "red": 466,
      "Ġab": 467,
      "ff": 468,
      "our": 469,
      "ther": 470,
      "ost": 471,
      "ich": 472,
      "act": 473,
      "Ġpl": 474,
      "gh": 475,
      "Ġtheir": 476,
      "ould": 477,
      "Ġus": 478,
      "The": 479,
      "ated": 480,
      "ine": 481,
      "ome": 482,
      "Ġyour": 483,
      "pl": 484,
      "ard": 485,
      "Ġint": 486,
      "ag": 487,
      "ide": 488,
      "age": 489,
      "out": 490,
      "iz": 491,
      "ell": 492,
      "00": 493,
      "ĠO": 494,
      "ru": 495,
      "ak": 496,
      "Ġad": 497,
      "ans": 498,
      "ec": 499,
      "ations": 500,
      "ous": 501,
      "ast": 502,
      "Ġinc": 503,
      "Ġcont": 504,
      "Ġwhe": 505,
      "ult": 506,
      "ear": 507,
      "Ġcomp": 508,
      "cc": 509,
      "Ġwhich": 510,
      "end": 511,
      "Ġres": 512,
      "ib": 513,
      "Ġk": 514,
      "Ġthey": 515,
      "ust": 516,
      "Ġall": 517,
      "ĠU": 518,
      "ip": 519,
      "Ġwill": 520,
      "ood": 521,
      "ĠIn": 522,
      "ap": 523,
      "vel": 524,
      "Ġdis": 525,
      "orm": 526,
      "able": 527,
      "Ġmore": 528,
      "ance": 529,
      "ong": 530,
      "ence": 531,
      "are": 532,
      "so": 533,
      "ĠTh": 534,
      "ia": 535,
      "Ġhas": 536,
      "ere": 537,
      "ĠJ": 538,
      "Ġimp": 539,
      "âĢĿ": 540,
      "ary": 541,
      "ater": 542,
      "Ġ|": 543,
      "ual": 544,
      "Ġman": 545,
      "ew": 546,
      "ks": 547,
      "Ġte": 548,
      "ign": 549,
      "Ġdo": 550,
      "ild": 551,
      "ep": 552,
      "Ġcl": 553,
      "Ġother": 554,
      "ry": 555,
      "Ġalso": 556,
      "ach": 557,
      "ents": 558,
      "ind": 559,
      "Ġper": 560,
      "reat": 561,
      "Ġbut": 562,
      "Ġme": 563,
      "ress": 564,
      "ition": 565,
      "ake": 566,
      "ction": 567,
      "av": 568,
      "ase": 569,
      "Ġapp": 570,
      "ĠâĢľ": 571,
      "Ġun": 572,
      "ose": 573,
      "Ġj": 574,
      "Ġwere": 575,
      "Ġone": 576,
      "ass": 577,
      "ice": 578,
      "ime": 579,
      "ire": 580,
      "Ġso": 581,
      "Ġout": 582,
      "ace": 583,
      "Ġsy": 584,
      "ces": 585,
      "Ġar": 586,
      "Ġinf": 587,
      "Ġpart": 588,
      "Ġcomm": 589,
      "ens": 590,
      "au": 591,
      "one": 592,
      "Ġev": 593,
      "ors": 594,
      "ack": 595,
      "very": 596,
      "ord": 597,
      "ount": 598,
      "ber": 599,
      "'s": 600,
      "ue": 601,
      "Ġabout": 602,
      "ĠSt": 603,
      "Ġstud": 604,
      "ory": 605,
      "ike": 606,
      "Ġpre": 607,
      "Ġthem": 608,
      "Ġpe": 609,
      "ang": 610,
      "ĠIt": 611,
      "Ġsc": 612,
      "ish": 613,
      "ok": 614,
      "olog": 615,
      "ile": 616,
      "nder": 617,
      "low": 618,
      "Ġwho": 619,
      "Ġmay": 620,
      "ame": 621,
      "now": 622,
      "ĠThis": 623,
      "ric": 624,
      "Ġqu": 625,
      "Ġ19": 626,
      "ub": 627,
      "ite": 628,
      "iff": 629,
      "ree": 630,
      "ail": 631,
      "Ġup": 632,
      "ĠK": 633,
      "Ġtra": 634,
      "Ġbec": 635,
      "Ġits": 636,
      "ound": 637,
      "Ġrec": 638,
      "ie": 639,
      "ific": 640,
      "Ġhis": 641,
      ").": 642,
      "ays": 643,
      "ĠCh": 644,
      "alth": 645,
      "Ġinto": 646,
      "Ġover": 647,
      "ings": 648,
      "Ġthan": 649,
      "ates": 650,
      "ople": 651,
      "Ġthese": 652,
      "Ġro": 653,
      "Ġwhen": 654,
      "ities": 655,
      "erv": 656,
      "Ġwork": 657,
      "lud": 658,
      "Ġcons": 659,
      "Ġsome": 660,
      "Ġtime": 661,
      "ments": 662,
      "Ġ20": 663,
      "ren": 664,
      "rough": 665,
      "Ġdiff": 666,
      "Ġbeen": 667,
      "ons": 668,
      "Ġthere": 669,
      "Ġgo": 670,
      "ian": 671,
      "Ġag": 672,
      "stem": 673,
      "Ġyear": 674,
      "rit": 675,
      "Ġem": 676,
      "Ġeff": 677,
      "Ġunder": 678,
      "Ġhow": 679,
      "ally": 680,
      "Ġhel": 681,
      "Ġuse": 682,
      "Ġacc": 683,
      "Ġact": 684,
      "ms": 685,
      "tern": 686,
      "vers": 687,
      "Ġbet": 688,
      "ph": 689,
      "Ġlike": 690,
      "ough": 691,
      "Ġcol": 692,
      "ĠV": 693,
      "te": 694,
      "ious": 695,
      "ning": 696,
      "Ġour": 697,
      "velop": 698,
      "Ġneed": 699,
      "Ġsuch": 700,
      "ys": 701,
      "lect": 702,
      "Ġpeople": 703,
      "Ġtr": 704,
      "cess": 705,
      "lic": 706,
      "ts": 707,
      "ond": 708,
      "we": 709,
      "ject": 710,
      "Ġra": 711,
      "Ġhelp": 712,
      "ove": 713,
      "ause": 714,
      "Ġ3": 715,
      "les": 716,
      "ll": 717,
      "row": 718,
      "Ġdes": 719,
      "Ġprov": 720,
      "Ġinclud": 721,
      "ating": 722,
      "Ġrel": 723,
      "Ġknow": 724,
      "Ġsa": 725,
      "Ġbl": 726,
      "Ġ\"": 727,
      "Ġmost": 728,
      "ility": 729,
      "ational": 730,
      "Ġind": 731,
      "ient": 732,
      "ĠY": 733,
      "ular": 734,
      "Ġnew": 735,
      "ative": 736,
      "ced": 737,
      "ook": 738,
      "irst": 739,
      "Ġoff": 740,
      "Ġrep": 741,
      "ob": 742,
      "yp": 743,
      "Ġany": 744,
      "Ġif": 745,
      "uring": 746,
      "Ġprodu": 747,
      "Ġdevelop": 748,
      "Ġhad": 749,
      "Ġsystem": 750,
      "Ġpr": 751,
      "Ġused": 752,
      "Ġgen": 753,
      "ple": 754,
      "mer": 755,
      "Ġtw": 756,
      "ov": 757,
      "Ġthrough": 758,
      "Ġwould": 759,
      "Ġreg": 760,
      "Ġfe": 761,
      "Ġchild": 762,
      "Ġph": 763,
      "Ġspec": 764,
      "ise": 765,
      "ful": 766,
      "Ġhealth": 767,
      "hed": 768,
      "Ġonly": 769,
      "ics": 770,
      "Ġam": 771,
      "iet": 772,
      "oin": 773,
      "round": 774,
      "ool": 775,
      "Ġwhat": 776,
      "Ġac": 777,
      "Ġexp": 778,
      "ark": 779,
      "ures": 780,
      "hen": 781,
      "oss": 782,
      "oth": 783,
      "Ġdiffere": 784,
      "ten": 785,
      "Ġmany": 786,
      "Ġadd": 787,
      "Ġdec": 788,
      "ower": 789,
      "Ġsupp": 790,
      "als": 791,
      "uc": 792,
      "rib": 793,
      "Ġno": 794,
      "ract": 795,
      "ased": 796,
      "eth": 797,
      "ef": 798,
      "ange": 799,
      "chn": 800,
      "Ġass": 801,
      "Ġshould": 802,
      "fter": 803,
      "iss": 804,
      "ible": 805,
      "ne": 806,
      "Ġatt": 807,
      "ath": 808,
      "Ġfirst": 809,
      "Ġinv": 810,
      "old": 811,
      "ĠUn": 812,
      "Ġob": 813,
      "erg": 814,
      "erm": 815,
      "ink": 816,
      "its": 817,
      "Ġwell": 818,
      "ert": 819,
      "ied": 820,
      "),": 821,
      "rop": 822,
      "Ġsur": 823,
      "Ġrem": 824,
      "Ġtwo": 825,
      "In": 826,
      "cy": 827,
      "gan": 828,
      "form": 829,
      "ween": 830,
      "Ġwater": 831,
      "Ġhigh": 832,
      "ife": 833,
      "ting": 834,
      "ĠâĢĵ": 835,
      "Ġtrans": 836,
      "Ġ-": 837,
      "Ġimport": 838,
      "ble": 839,
      "Ġfl": 840,
      "arch": 841,
      "Ġsub": 842,
      "ata": 843,
      "Ġbetween": 844,
      "Ġpers": 845,
      "ram": 846,
      "ution": 847,
      "hes": 848,
      "ĠHe": 849,
      "Ġsm": 850,
      "ever": 851,
      "own": 852,
      "Ġco": 853,
      "Ġeffect": 854,
      "Ġwhere": 855,
      "Ġinter": 856,
      "Ġmake": 857,
      "wn": 858,
      "ural": 859,
      "ade": 860,
      "ience": 861,
      "Ġ4": 862,
      "ng": 863,
      "Ġpres": 864,
      "Ġmod": 865,
      "ology": 866,
      "sel": 867,
      "ident": 868,
      "Ġexper": 869,
      "ness": 870,
      "Ġsign": 871,
      "ick": 872,
      "ĠAs": 873,
      "fore": 874,
      "ants": 875,
      "Ġbu": 876,
      "Ġ201": 877,
      "Ġinst": 878,
      "Ġcould": 879,
      "Ġyears": 880,
      "Ġlear": 881,
      "ily": 882,
      "ines": 883,
      "aking": 884,
      "Ġ5": 885,
      "xt": 886,
      "Ġrese": 887,
      "Ġpol": 888,
      "Ġvar": 889,
      "Ġtechn": 890,
      "Ġform": 891,
      "Ġget": 892,
      "Ġresp": 893,
      "oy": 894,
      "Ġdet": 895,
      "aw": 896,
      "Ġdifferent": 897,
      "Ġmed": 898,
      "ted": 899,
      "Ġdisc": 900,
      "Ġexam": 901,
      "Ġrequ": 902,
      "Ġincre": 903,
      "Ġke": 904,
      "Ġprocess": 905,
      "vent": 906,
      "Ġtyp": 907,
      "Ġinform": 908,
      "Ġcar": 909,
      "Ġear": 910,
      "uch": 911,
      "hat": 912,
      "cept": 913,
      "get": 914,
      "ont": 915,
      "iron": 916,
      "ited": 917,
      "Ġworld": 918,
      "chool": 919,
      "ature": 920,
      "Ġnum": 921,
      "ives": 922,
      "Ġlong": 923,
      "omm": 924,
      "ft": 925,
      "Ġsim": 926,
      "Ġher": 927,
      "ices": 928,
      "Ġeven": 929,
      "ruct": 930,
      "Ġlead": 931,
      "Ġsec": 932,
      "ues": 933,
      "ically": 934,
      "ivers": 935,
      "ists": 936,
      "ism": 937,
      "ollow": 938,
      "Ġcommun": 939,
      "Ġhum": 940,
      "Ġway": 941,
      "ential": 942,
      "Ġed": 943,
      "Ġsoc": 944,
      "eg": 945,
      "Ġlar": 946,
      "ins": 947,
      "Ġjust": 948,
      "Ġcount": 949,
      "ually": 950,
      "Ġref": 951,
      "Ġgener": 952,
      "Ġafter": 953,
      "ck": 954,
      "Ġimportant": 955,
      "ĠInd": 956,
      "Ġdata": 957,
      "Ġbecause": 958,
      "Ġcent": 959,
      "Ġpat": 960,
      "ps": 961,
      "Ġext": 962,
      "arm": 963,
      "ases": 964,
      "Ġfound": 965,
      "Ġ200": 966,
      "urn": 967,
      "Ġresult": 968,
      "Ġsee": 969,
      "Ġprog": 970,
      "meric": 971,
      "ros": 972,
      "land": 973,
      "Ġloc": 974,
      "led": 975,
      "stand": 976,
      "Ġfact": 977,
      "ized": 978,
      "Ġthen": 979,
      "other": 980,
      "iew": 981,
      "Ġca": 982,
      "Ġvery": 983,
      "Ġstr": 984,
      "Ġcre": 985,
      "Ġsk": 986,
      "ize": 987,
      "Ġevery": 988,
      "ork": 989,
      "cer": 990,
      "viron": 991,
      "Ġpartic": 992,
      "ict": 993,
      "Ġthose": 994,
      "Ġduring": 995,
      "ages": 996,
      "Ġeach": 997,
      "Ġlevel": 998,
      "hip": 999,
      "Ġdef": 1000,
      "ection": 1001,
      "Ġlife": 1002,
      "ody": 1003,
      "Ġdep": 1004,
      "Ġbeing": 1005,
      "ward": 1006,
      "Ġset": 1007,
      "Ġmain": 1008,
      "Ġart": 1009,
      "Ġperson": 1010,
      "Ġfollow": 1011,
      "Ġgrow": 1012,
      "ivid": 1013,
      "ĠPro": 1014,
      "Ġdi": 1015,
      "Ġdist": 1016,
      "Ġav": 1017,
      "Ġpub": 1018,
      "Ġaut": 1019,
      "Ġmon": 1020,
      "Ġent": 1021,
      "Ġchildren": 1022,
      "ved": 1023,
      "Ġinformation": 1024,
      "Ġins": 1025,
      "ality": 1026,
      "Ġgra": 1027,
      "ĠThey": 1028,
      "ds": 1029,
      "Ġfood": 1030,
      ".âĢĿ": 1031,
      "Ġcall": 1032,
      "Ġmin": 1033,
      "ĠAmeric": 1034,
      "Th": 1035,
      "vern": 1036,
      "Ġown": 1037,
      "Ġexpl": 1038,
      "ĠFor": 1039,
      "onom": 1040,
      "ather": 1041,
      "Ġcomple": 1042,
      "Ġright": 1043,
      "tle": 1044,
      "ĠAl": 1045,
      "ien": 1046,
      "ĠWe": 1047,
      "Ġfam": 1048,
      "Ġusing": 1049,
      "Ġoften": 1050,
      "Ġprovid": 1051,
      "Ġstudents": 1052,
      "Ġ18": 1053,
      "Ġval": 1054,
      "vironment": 1055,
      "Ġcur": 1056,
      "Ġread": 1057,
      "Ġboth": 1058,
      "Ġsaid": 1059,
      "gg": 1060,
      "ĠAr": 1061,
      "Ġproble": 1062,
      "Ġredu": 1063,
      "imes": 1064,
      "ĠHow": 1065,
      "Ġsol": 1066,
      "Ġstudy": 1067,
      "Ġmuch": 1068,
      "ergy": 1069,
      "any": 1070,
      "Ġsupport": 1071,
      "Ġprot": 1072,
      "rol": 1073,
      "Ġche": 1074,
      "dition": 1075,
      "Ġshe": 1076,
      "Ġserv": 1077,
      "Ġfind": 1078,
      "Ġdoes": 1079,
      "iqu": 1080,
      "ĠIf": 1081,
      "Ġwhile": 1082,
      "Ġgood": 1083,
      "io": 1084,
      "cent": 1085,
      "Ġback": 1086,
      "Ġgl": 1087,
      "Ġmade": 1088,
      "Ġtest": 1089,
      "Ġorgan": 1090,
      "Ġtreat": 1091,
      "Ġ6": 1092,
      "Ġris": 1093,
      "ĠAn": 1094,
      "ock": 1095,
      "Ġec": 1096,
      "rain": 1097,
      "Ġend": 1098,
      "Ġmy": 1099,
      "Ġpower": 1100,
      "Ġcor": 1101,
      "iel": 1102,
      "Ġsame": 1103,
      "Ġdesign": 1104,
      "Ġbr": 1105,
      "und": 1106,
      "Ġpop": 1107,
      "Ġhist": 1108,
      "imate": 1109,
      "ected": 1110,
      "read": 1111,
      "Ġbefore": 1112,
      "20": 1113,
      "ital": 1114,
      "Ġbo": 1115,
      "Ġschool": 1116,
      "Ġgrou": 1117,
      "ale": 1118,
      "Ġfun": 1119,
      "Ġsmall": 1120,
      "Ġshow": 1121,
      "Ġvis": 1122,
      "Ġactiv": 1123,
      "ional": 1124,
      "Ġtake": 1125,
      "Ġmust": 1126,
      "ax": 1127,
      "Ġposs": 1128,
      "ix": 1129,
      "nce": 1130,
      "Ġagain": 1131,
      "Ġunderstand": 1132,
      "inal": 1133,
      "ute": 1134,
      "ves": 1135,
      "ividual": 1136,
      "irect": 1137,
      "Ġhand": 1138,
      "Ġless": 1139,
      "Ġadv": 1140,
      "ty": 1141,
      "Ġresearch": 1142,
      "iety": 1143,
      "akes": 1144,
      "Ġbody": 1145,
      "eng": 1146,
      "der": 1147,
      "Ġcle": 1148,
      "ving": 1149,
      "ince": 1150,
      "ral": 1151,
      "ability": 1152,
      "Ġconf": 1153,
      "Ġdise": 1154,
      "Ġstate": 1155,
      "Ġchar": 1156,
      "Ġallow": 1157,
      "the": 1158,
      "oint": 1159,
      "ier": 1160,
      "ars": 1161,
      "itions": 1162,
      "anc": 1163,
      "Ġday": 1164,
      "Ġcare": 1165,
      "ulation": 1166,
      "air": 1167,
      "iversity": 1168,
      "..": 1169,
      "Ġincluding": 1170,
      "Ġcommon": 1171,
      "Ġhuman": 1172,
      "omen": 1173,
      "ĠSp": 1174,
      "iving": 1175,
      "ĠThese": 1176,
      "Ġelect": 1177,
      "Ġpract": 1178,
      "Ġplan": 1179,
      "Ġocc": 1180,
      "ters": 1181,
      "000": 1182,
      "Ġequ": 1183,
      "Ġenvironment": 1184,
      "Ġaff": 1185,
      "Ġaround": 1186,
      "Ġmem": 1187,
      "Ġindividual": 1188,
      "up": 1189,
      "ished": 1190,
      "ering": 1191,
      "aj": 1192,
      "Ġ10": 1193,
      "Ġlit": 1194,
      "Ġimpro": 1195,
      "Ġdown": 1196,
      "Ġnumber": 1197,
      "ex": 1198,
      "Ġstart": 1199,
      "19": 1200,
      "Ġpo": 1201,
      "cl": 1202,
      "Ġcontin": 1203,
      "aterial": 1204,
      "uss": 1205,
      "Ġbel": 1206,
      "ross": 1207,
      "Ġest": 1208,
      "ered": 1209,
      "rent": 1210,
      "esp": 1211,
      "tain": 1212,
      "Ġnow": 1213,
      "ron": 1214,
      "Ġpot": 1215,
      "Ġclass": 1216,
      "Ġcell": 1217,
      "âĢĶ": 1218,
      "ization": 1219,
      "Ġlook": 1220,
      "ium": 1221,
      "Ġgu": 1222,
      "itive": 1223,
      "acter": 1224,
      "Ġappro": 1225,
      "Ġeduc": 1226,
      "Ġoper": 1227,
      "Ġbuild": 1228,
      "Ġbeh": 1229,
      "ven": 1230,
      "Ġser": 1231,
      "Ġconst": 1232,
      "Ġgovern": 1233,
      "ired": 1234,
      "ĠSc": 1235,
      "Ġthree": 1236,
      "Ġland": 1237,
      "Ġexample": 1238,
      "Ġenergy": 1239,
      "hers": 1240,
      "iven": 1241,
      "oh": 1242,
      "ury": 1243,
      "ources": 1244,
      "Ġop": 1245,
      "Ġdr": 1246,
      "day": 1247,
      "Ġiss": 1248,
      "Ġ7": 1249,
      "ĠRe": 1250,
      "ined": 1251,
      ".,": 1252,
      "Ġeng": 1253,
      "ared": 1254,
      "com": 1255,
      "Ġben": 1256,
      "ĠNew": 1257,
      "This": 1258,
      "Ġmet": 1259,
      "ially": 1260,
      "Ġlarge": 1261,
      "ĠYou": 1262,
      "str": 1263,
      "ave": 1264,
      "Ġcap": 1265,
      ",âĢĿ": 1266,
      "Ġhim": 1267,
      "Ġprof": 1268,
      "els": 1269,
      "ash": 1270,
      "oms": 1271,
      "ĠâĢĺ": 1272,
      "Ġgreat": 1273,
      "Ġdevelopment": 1274,
      "Ġair": 1275,
      "ner": 1276,
      "Ġpos": 1277,
      "ĠThere": 1278,
      "iness": 1279,
      "ains": 1280,
      "Ġproduct": 1281,
      "self": 1282,
      "ull": 1283,
      "Ġplay": 1284,
      "Ġreport": 1285,
      "Ġmaterial": 1286,
      "Ġeas": 1287,
      "ental": 1288,
      "ah": 1289,
      "Ġ8": 1290,
      "ination": 1291,
      "Ġwithin": 1292,
      "ethod": 1293,
      "Ġaw": 1294,
      "Ġident": 1295,
      "Ġdem": 1296,
      "Ġproject": 1297,
      "Ġchang": 1298,
      "ption": 1299,
      "iod": 1300,
      "Ġcour": 1301,
      "Ġknown": 1302,
      "ateg": 1303,
      "ee": 1304,
      "Ġsym": 1305,
      "ify": 1306,
      "Ġpur": 1307,
      "Ġstand": 1308,
      "ĠBut": 1309,
      "ior": 1310,
      "Ġanal": 1311,
      "ense": 1312,
      "ouse": 1313,
      "Ġve": 1314,
      "Ġgre": 1315,
      "Ġsignific": 1316,
      "Ġpublic": 1317,
      "Ġwithout": 1318,
      "Ġwrit": 1319,
      "ids": 1320,
      "Ġide": 1321,
      "Ġtem": 1322,
      "Ġmight": 1323,
      "ĠWh": 1324,
      "Ġess": 1325,
      "Ġchange": 1326,
      "Ġphys": 1327,
      "erest": 1328,
      "Ġprovide": 1329,
      "Ġquest": 1330,
      "ger": 1331,
      "iver": 1332,
      "line": 1333,
      "Ġcaus": 1334,
      "ank": 1335,
      "ĠIs": 1336,
      "Ġthough": 1337,
      "Ġcult": 1338,
      "Ġsaf": 1339,
      "ĠAd": 1340,
      "ertain": 1341,
      "Ġdid": 1342,
      "Ġplace": 1343,
      "ration": 1344,
      "Ġsocial": 1345,
      "Ġinclude": 1346,
      "oci": 1347,
      "ining": 1348,
      "Ġlight": 1349,
      "Ġimm": 1350,
      "Ġmat": 1351,
      "Ġstill": 1352,
      "oun": 1353,
      "lish": 1354,
      "Ġsom": 1355,
      "de": 1356,
      "ision": 1357,
      "Ġ9": 1358,
      "outh": 1359,
      "10": 1360,
      "Ġlearn": 1361,
      "Ġcontrol": 1362,
      "Ġthink": 1363,
      "less": 1364,
      "ets": 1365,
      "Ġsit": 1366,
      "âĢľ": 1367,
      "orn": 1368,
      "Ġcalled": 1369,
      "Ġbre": 1370,
      "angu": 1371,
      "raph": 1372,
      "Ġpresent": 1373,
      "ĠAnd": 1374,
      "Ġrisk": 1375,
      "Ġfew": 1376,
      "Ġproper": 1377,
      "bers": 1378,
      "ĠHowever": 1379,
      "Ġmeas": 1380,
      "Ġperform": 1381,
      "ccess": 1382,
      "ills": 1383,
      "Ġmark": 1384,
      "agn": 1385,
      "Ġbest": 1386,
      "ĠCon": 1387,
      "ording": 1388,
      "ries": 1389,
      "me": 1390,
      "osed": 1391,
      "ider": 1392,
      "Ġdirect": 1393,
      "erc": 1394,
      "ield": 1395,
      "Ġbenef": 1396,
      "Ġwant": 1397,
      "Ġindu": 1398,
      "Ġmethod": 1399,
      "Ġens": 1400,
      "inc": 1401,
      "pect": 1402,
      "ason": 1403,
      "Ġret": 1404,
      "ological": 1405,
      "Ġmil": 1406,
      "Ġinvol": 1407,
      "ĠDe": 1408,
      "Ġeconom": 1409,
      "atural": 1410,
      "Ġprom": 1411,
      "Ġopp": 1412,
      "ified": 1413,
      "Ġmus": 1414,
      "bs": 1415,
      "Ġarea": 1416,
      "ĠEng": 1417,
      "Ġlearning": 1418,
      "lu": 1419,
      "agement": 1420,
      "Ġhome": 1421,
      "Ġbetter": 1422,
      "Ġpain": 1423,
      "rodu": 1424,
      "Ġbecome": 1425,
      "ency": 1426,
      "ived": 1427,
      "arent": 1428,
      "Ġpass": 1429,
      "ajor": 1430,
      "Ġkeep": 1431,
      "tt": 1432,
      "Ġdisease": 1433,
      "Ġreal": 1434,
      "ently": 1435,
      "Ġant": 1436,
      "Ġmove": 1437,
      "Ġfin": 1438,
      "atic": 1439,
      "Ġ&": 1440,
      "Ġimpact": 1441,
      "Ġdon": 1442,
      "Ġinterest": 1443,
      "Ġblood": 1444,
      "eral": 1445,
      "Ġsignificant": 1446,
      "rap": 1447,
      "alk": 1448,
      "Ġrest": 1449,
      "âĢĵ": 1450,
      "Ġleg": 1451,
      "ĠEx": 1452,
      "Ġter": 1453,
      "cing": 1454,
      "Ġwar": 1455,
      "Ġavail": 1456,
      "ource": 1457,
      "Ġbas": 1458,
      "Ġdev": 1459,
      "Ġbus": 1460,
      "hor": 1461,
      "Ġanother": 1462,
      "Ġsever": 1463,
      "Ġbelie": 1464,
      "It": 1465,
      "Ġlow": 1466,
      "ris": 1467,
      "eed": 1468,
      "oid": 1469,
      "ton": 1470,
      "ploy": 1471,
      "Ġcost": 1472,
      "Ġprevent": 1473,
      "Ġtre": 1474,
      "ats": 1475,
      "ways": 1476,
      "Ġagainst": 1477,
      "ern": 1478,
      "Ġsl": 1479,
      "Ġcause": 1480,
      "ards": 1481,
      "ogn": 1482,
      "Ġaccess": 1483,
      "Ġele": 1484,
      "man": 1485,
      "icle": 1486,
      "ocus": 1487,
      "ention": 1488,
      "ina": 1489,
      "Ġpar": 1490,
      "ead": 1491,
      "Ġaddition": 1492,
      "illion": 1493,
      "Ġparticular": 1494,
      "Ġwomen": 1495,
      "ients": 1496,
      "||": 1497,
      "ĠSh": 1498,
      "ĠComm": 1499,
      "ication": 1500,
      "ug": 1501,
      "Ġdel": 1502,
      "Ġpotential": 1503,
      "Ġearly": 1504,
      "Ġsystems": 1505,
      "Ġmeans": 1506,
      "ians": 1507,
      "ories": 1508,
      "ĠCol": 1509,
      "Ġcreat": 1510,
      "ples": 1511,
      "omp": 1512,
      "ances": 1513,
      "Ġareas": 1514,
      "ling": 1515,
      "ĠUniversity": 1516,
      "Ġprogram": 1517,
      "Ġfeel": 1518,
      "Ġgovernment": 1519,
      "Ġconn": 1520,
      "Ġlim": 1521,
      "ission": 1522,
      "Ġanim": 1523,
      "to": 1524,
      "Ġcond": 1525,
      "Ġtop": 1526,
      "ote": 1527,
      "Ġvarious": 1528,
      "Ġfore": 1529,
      "Ġhig": 1530,
      "Ġlaw": 1531,
      ".\"": 1532,
      "What": 1533,
      "Ġhistory": 1534,
      "ĠWhen": 1535,
      "ik": 1536,
      "ĠTo": 1537,
      "view": 1538,
      "Ġpossible": 1539,
      "Ġmajor": 1540,
      "Ġlangu": 1541,
      "Ġcurrent": 1542,
      "Ġ0": 1543,
      "Ġmaking": 1544,
      "here": 1545,
      "ĠAmerican": 1546,
      "urther": 1547,
      "Ġeffective": 1548,
      "elf": 1549,
      "arc": 1550,
      "Ġplant": 1551,
      "orth": 1552,
      "--": 1553,
      "Ġperiod": 1554,
      "port": 1555,
      "Ġfac": 1556,
      "irc": 1557,
      "Ġorder": 1558,
      "az": 1559,
      "ĠCl": 1560,
      "Ġseveral": 1561,
      "Ġoccur": 1562,
      "Ġbased": 1563,
      "Ġdesc": 1564,
      "lished": 1565,
      "ĠRes": 1566,
      "Ġtoo": 1567,
      "Ġtreatment": 1568,
      "ĠQ": 1569,
      "uture": 1570,
      "Ġold": 1571,
      "Ġbeg": 1572,
      "Ġcal": 1573,
      "Ġlast": 1574,
      "Ġmean": 1575,
      "Ġgroup": 1576,
      "Ġfollowing": 1577,
      "Ġfamily": 1578,
      "Ġsecond": 1579,
      "Ġcase": 1580,
      "amp": 1581,
      "Ġstruct": 1582,
      "Ġopen": 1583,
      "ator": 1584,
      "ĠPl": 1585,
      "ĠPh": 1586,
      "work": 1587,
      "Ġ199": 1588,
      "Ġfocus": 1589,
      "ended": 1590,
      "Ġdue": 1591,
      "Ġavailable": 1592,
      "Ġet": 1593,
      "Ġtechnology": 1594,
      "ots": 1595,
      "par": 1596,
      "Ġable": 1597,
      "Ġnon": 1598,
      "Ġhere": 1599,
      "Ġintern": 1600,
      "Ġtru": 1601,
      "ends": 1602,
      "Ġfre": 1603,
      "Ġothers": 1604,
      "Ġlevels": 1605,
      "ograph": 1606,
      "Ġcho": 1607,
      "ns": 1608,
      "por": 1609,
      "Ġsuccess": 1610,
      "Ġpress": 1611,
      "idence": 1612,
      "Ġhapp": 1613,
      "Ġnatural": 1614,
      "use": 1615,
      "Ġel": 1616,
      "Ġamong": 1617,
      "ortun": 1618,
      "Ġ15": 1619,
      "ised": 1620,
      "ilar": 1621,
      "Ġspecific": 1622,
      "Ġmar": 1623,
      "ilities": 1624,
      "Ġunt": 1625,
      "rist": 1626,
      "Ġmult": 1627,
      "Ġlo": 1628,
      "Ġrequire": 1629,
      "abor": 1630,
      "Ġspecies": 1631,
      "urity": 1632,
      "ledge": 1633,
      "Ġcertain": 1634,
      "Ġnear": 1635,
      "br": 1636,
      "Ġneeds": 1637,
      "sp": 1638,
      "ĠUnited": 1639,
      "Ġcountry": 1640,
      "Ġchall": 1641,
      "ĠâĢĶ": 1642,
      "'t": 1643,
      "Ġbehav": 1644,
      "Ġcreate": 1645,
      "Ġinvest": 1646,
      "ret": 1647,
      "Ġtype": 1648,
      "Ġorig": 1649,
      "Ġapplic": 1650,
      "Ġobject": 1651,
      "ĠTe": 1652,
      "be": 1653,
      "Ġhead": 1654,
      "Ġthings": 1655,
      "Ġrece": 1656,
      "Ġtool": 1657,
      "Ġsince": 1658,
      "Ġexperience": 1659,
      "icult": 1660,
      "ane": 1661,
      "Ġfunction": 1662,
      "Ġscient": 1663,
      "osp": 1664,
      "Ġgr": 1665,
      "Ġlocal": 1666,
      "Ġtimes": 1667,
      "Ġimprove": 1668,
      "As": 1669,
      "Ġmen": 1670,
      "ression": 1671,
      "Ġpost": 1672,
      "olution": 1673,
      "Ġsay": 1674,
      "urop": 1675,
      "Ġsw": 1676,
      "Ġopt": 1677,
      "ole": 1678,
      "Ġconditions": 1679,
      "Ġcomb": 1680,
      "Ġflow": 1681,
      "Ġproblem": 1682,
      "Ġproblems": 1683,
      "of": 1684,
      "Ġfuture": 1685,
      "Ġcome": 1686,
      "Ġfree": 1687,
      "ones": 1688,
      "ĠSe": 1689,
      "over": 1690,
      "Ġrole": 1691,
      "gen": 1692,
      "Ġamount": 1693,
      "Ġlet": 1694,
      "ĠZ": 1695,
      "ĠCan": 1696,
      "aper": 1697,
      "Ġ.": 1698,
      "though": 1699,
      "sc": 1700,
      "Ġassoci": 1701,
      "Ġmonth": 1702,
      "Ġrun": 1703,
      "Ġpercent": 1704,
      "Ġpoint": 1705,
      "Ġview": 1706,
      "Ġhard": 1707,
      "Ġenc": 1708,
      "Ġage": 1709,
      "ames": 1710,
      "Ġcrit": 1711,
      "Ġprofess": 1712,
      "hy": 1713,
      "ĠEn": 1714,
      "If": 1715,
      "Ġbusiness": 1716,
      "Ġconsum": 1717,
      "Ġbi": 1718,
      "atory": 1719,
      "ique": 1720,
      "Ġhy": 1721,
      "sy": 1722,
      "Ġrespons": 1723,
      "Ġnecess": 1724,
      "asing": 1725,
      "ending": 1726,
      "Ġwee": 1727,
      "ĠGod": 1728,
      "ope": 1729,
      "Ġbro": 1730,
      "Ġlist": 1731,
      "ured": 1732,
      "Ġkey": 1733,
      "ately": 1734,
      "Ġeducation": 1735,
      "**": 1736,
      "Ġname": 1737,
      "Ġfour": 1738,
      "ably": 1739,
      "cle": 1740,
      "Ġdeterm": 1741,
      "une": 1742,
      "Ġcomput": 1743,
      "We": 1744,
      "ox": 1745,
      "acy": 1746,
      "Ġcy": 1747,
      "Ġincrease": 1748,
      "How": 1749,
      "Ġshort": 1750,
      "Ġsays": 1751,
      "Ġ12": 1752,
      "ggest": 1753,
      "ape": 1754,
      "resent": 1755,
      "Ġ[": 1756,
      "Ġrele": 1757,
      "ysis": 1758,
      "Ġvol": 1759,
      "ring": 1760,
      "ĠOr": 1761,
      "chie": 1762,
      "Ġnet": 1763,
      "ĠAt": 1764,
      "ptoms": 1765,
      "utions": 1766,
      "ecially": 1767,
      "ĠStates": 1768,
      "Ġbir": 1769,
      "Ġcommunity": 1770,
      "Ġvir": 1771,
      "Ġput": 1772,
      "Ġheart": 1773,
      "Ġlikely": 1774,
      "Ġcirc": 1775,
      "Ġdam": 1776,
      "obal": 1777,
      "urope": 1778,
      "orts": 1779,
      "Ġspace": 1780,
      "Ġclear": 1781,
      "ĠCent": 1782,
      "Ġrad": 1783,
      "ffic": 1784,
      "Ġtemper": 1785,
      "Ġlanguage": 1786,
      "ators": 1787,
      "ides": 1788,
      "aken": 1789,
      "aster": 1790,
      "ĠUS": 1791,
      "face": 1792,
      "Ġteam": 1793,
      "Ġacross": 1794,
      "Ġdifficult": 1795,
      "ĠAf": 1796,
      "Ġessential": 1797,
      "Ġfil": 1798,
      "Ġcells": 1799,
      "Ġyoung": 1800,
      "not": 1801,
      "Ġpolit": 1802,
      "Ġsuggest": 1803,
      "Ġturn": 1804,
      "Ġchanges": 1805,
      "int": 1806,
      "Ġalong": 1807,
      "Ġgiven": 1808,
      "ĠWhat": 1809,
      "Ġsens": 1810,
      "especially": 1811,
      "Ġresults": 1812,
      "Ġspecial": 1813,
      "Ġfar": 1814,
      "ething": 1815,
      "12": 1816,
      "oring": 1817,
      "ww": 1818,
      "Ġlittle": 1819,
      "Ġ17": 1820,
      "Ġstrateg": 1821,
      "ĠIndia": 1822,
      "Ġhigher": 1823,
      "ibility": 1824,
      "Ġconsider": 1825,
      "Ġdig": 1826,
      "ĠBy": 1827,
      "Ġey": 1828,
      "Ġalways": 1829,
      "Ġexist": 1830,
      "Ġcharacter": 1831,
      "lement": 1832,
      "oks": 1833,
      "duct": 1834,
      "Ġcontrib": 1835,
      "Ġstrong": 1836,
      "Ġestab": 1837,
      "Ġauthor": 1838,
      "Ġuntil": 1839,
      "Ġobs": 1840,
      "Ġinflu": 1841,
      "iation": 1842,
      "ruction": 1843,
      "ĠNational": 1844,
      "Ġdays": 1845,
      "Ġrelations": 1846,
      "ither": 1847,
      "Ġbook": 1848,
      "Ġdiscuss": 1849,
      "Ġmot": 1850,
      "ored": 1851,
      "aps": 1852,
      "ours": 1853,
      "Ġprotect": 1854,
      "ĠAll": 1855,
      "af": 1856,
      "ĠEurope": 1857,
      "Ġworks": 1858,
      "ires": 1859,
      "Ġcourse": 1860,
      "apt": 1861,
      "ĠOn": 1862,
      "Ġdra": 1863,
      "etic": 1864,
      "Ġstep": 1865,
      "min": 1866,
      "pr": 1867,
      "ried": 1868,
      "Ġachie": 1869,
      "Ġtoday": 1870,
      "ned": 1871,
      "Ġphysical": 1872,
      "Ġplants": 1873,
      "stit": 1874,
      "Ġlater": 1875,
      "isc": 1876,
      "Ġcountries": 1877,
      "Ġappear": 1878,
      "Ġusually": 1879,
      "Ġcontain": 1880,
      "Ġespecially": 1881,
      "Ġquality": 1882,
      "Ġtypes": 1883,
      "ems": 1884,
      "Ġpast": 1885,
      "Ġsing": 1886,
      "Ġgrowth": 1887,
      "ware": 1888,
      "ember": 1889,
      "vious": 1890,
      "istic": 1891,
      "Ġknowledge": 1892,
      "Ġsimilar": 1893,
      "Ġmaintain": 1894,
      "Ġsomething": 1895,
      "Ġbrain": 1896,
      "Ġpolic": 1897,
      "Ġeffects": 1898,
      "Ġwhy": 1899,
      "11": 1900,
      "Ġworking": 1901,
      "Ġbat": 1902,
      "St": 1903,
      "hem": 1904,
      "Ġer": 1905,
      "Ġways": 1906,
      "Ġissues": 1907,
      "Ġresources": 1908,
      "Ġreduce": 1909,
      "ode": 1910,
      "ĠSo": 1911,
      "ĠSy": 1912,
      "Ġparent": 1913,
      "mit": 1914,
      "orld": 1915,
      "Ġgive": 1916,
      "aces": 1917,
      "Ġill": 1918,
      "ER": 1919,
      "Ġactivities": 1920,
      "Ġmind": 1921,
      "for": 1922,
      "Ġrange": 1923,
      "Ġskills": 1924,
      "aring": 1925,
      "Ġemploy": 1926,
      "Ġtoget": 1927,
      "Ġprim": 1928,
      "Ġteac": 1929,
      "Ġtogether": 1930,
      "Ġconcer": 1931,
      "fact": 1932,
      "Ġself": 1933,
      "Ġunderstanding": 1934,
      "Ġsymptoms": 1935,
      "Ġnut": 1936,
      "atures": 1937,
      "Ġline": 1938,
      "Ġfurther": 1939,
      ",\"": 1940,
      "There": 1941,
      "Ġprop": 1942,
      "iting": 1943,
      "ĠChrist": 1944,
      "ification": 1945,
      "aging": 1946,
      "app": 1947,
      "Ġeffic": 1948,
      "ĠWith": 1949,
      "50": 1950,
      "Ġrecord": 1951,
      "Ġproduction": 1952,
      "ables": 1953,
      "omes": 1954,
      "18": 1955,
      "Ġaccount": 1956,
      "ĠBl": 1957,
      "amm": 1958,
      "Ġcomplete": 1959,
      "ĠMed": 1960,
      "itary": 1961,
      "Ġnext": 1962,
      "Ġtoward": 1963,
      "oney": 1964,
      "Ġside": 1965,
      "Ġmanagement": 1966,
      "Ġabove": 1967,
      "Ġdeath": 1968,
      "reen": 1969,
      "ĠBe": 1970,
      "oot": 1971,
      "idd": 1972,
      "Ġ16": 1973,
      "Ġcancer": 1974,
      "aves": 1975,
      "ush": 1976,
      "oura": 1977,
      "ety": 1978,
      "Ġmov": 1979,
      "Ġaffect": 1980,
      "utes": 1981,
      "Ġbegin": 1982,
      "Ġoffic": 1983,
      "Ġaddress": 1984,
      "Ġwords": 1985,
      "Ġcases": 1986,
      "ler": 1987,
      "rug": 1988,
      "Ġ$": 1989,
      "Ġpopulation": 1990,
      "selves": 1991,
      "Ġtry": 1992,
      "ivity": 1993,
      "ĠFr": 1994,
      "Ġensure": 1995,
      "Ġsitu": 1996,
      "Ġfund": 1997,
      "atch": 1998,
      "Ġindividuals": 1999,
      "Ġlower": 2000,
      "ged": 2001,
      "izing": 2002,
      "aching": 2003,
      "ĠIm": 2004,
      "Ġpatients": 2005,
      "Ġterm": 2006,
      "Ġground": 2007,
      "Ġchem": 2008,
      "Ġmillion": 2009,
      "let": 2010,
      "Ġaway": 2011,
      "by": 2012,
      "Ġcr": 2013,
      "Ġleast": 2014,
      "Ġsubject": 2015,
      "ray": 2016,
      "ĠMan": 2017,
      "Ġask": 2018,
      "Ġfull": 2019,
      "Ġmakes": 2020,
      "Ġcentury": 2021,
      "Ġresearc": 2022,
      "Ġnorm": 2023,
      "Ġdescrib": 2024,
      "ĠAfric": 2025,
      "most": 2026,
      "Ġpred": 2027,
      "ications": 2028,
      "Ġkind": 2029,
      "iple": 2030,
      "Ġproducts": 2031,
      "Ġstress": 2032,
      "Ġinit": 2033,
      "Ġloss": 2034,
      "Ġcolle": 2035,
      "ights": 2036,
      "Ġdiet": 2037,
      "ĠSome": 2038,
      "Ġvalue": 2039,
      "Ġleft": 2040,
      "Ġhowever": 2041,
      "Ġenough": 2042,
      "Ġwhether": 2043,
      "Ġtradition": 2044,
      "Ġ'": 2045,
      "side": 2046,
      "ilt": 2047,
      "ipp": 2048,
      "acc": 2049,
      "Ġrecogn": 2050,
      "ument": 2051,
      "ges": 2052,
      "Ġsal": 2053,
      "leep": 2054,
      "Ġcomplex": 2055,
      "ĠEar": 2056,
      "Ġhaving": 2057,
      "Ġgeneral": 2058,
      "ery": 2059,
      "edi": 2060,
      "bon": 2061,
      "Ġparticip": 2062,
      "rel": 2063,
      "Ġmedical": 2064,
      "Ġmodel": 2065,
      "ĠWar": 2066,
      "ued": 2067,
      "thing": 2068,
      "Ġrepresent": 2069,
      "Ġstudies": 2070,
      "icro": 2071,
      "Ġlot": 2072,
      "Ġindic": 2073,
      "Ġopportun": 2074,
      "Ġnever": 2075,
      "ĠGen": 2076,
      "Ġfield": 2077,
      "Ġz": 2078,
      "Ġclimate": 2079,
      "Ġremain": 2080,
      "my": 2081,
      "ites": 2082,
      "Ġtraining": 2083,
      "Ġconcept": 2084,
      "Ġmaterials": 2085,
      "For": 2086,
      "Ġfactors": 2087,
      "NA": 2088,
      "An": 2089,
      "Ġchalleng": 2090,
      "Ġdetail": 2091,
      "Ġapproach": 2092,
      "sych": 2093,
      "Ġsure": 2094,
      "Ġactivity": 2095,
      "Ġrecomm": 2096,
      "Ġneg": 2097,
      "ĠBrit": 2098,
      "Ġsoil": 2099,
      "ream": 2100,
      "Ġability": 2101,
      "Ġservices": 2102,
      "anced": 2103,
      "When": 2104,
      "Ġmarket": 2105,
      "Ġlive": 2106,
      "ules": 2107,
      "Ġtext": 2108,
      "lo": 2109,
      "Ġsum": 2110,
      "ready": 2111,
      "Ġgoing": 2112,
      "Ġexperien": 2113,
      "ĠGo": 2114,
      "ĠOne": 2115,
      "sw": 2116,
      "aut": 2117,
      "verage": 2118,
      "Ġrequired": 2119,
      "Ġpersonal": 2120,
      "Ġur": 2121,
      "Ġbig": 2122,
      "Ġhealthy": 2123,
      "ask": 2124,
      "Ġbuilding": 2125,
      "Ġpressure": 2126,
      "ands": 2127,
      "alf": 2128,
      "Ġreason": 2129,
      "Ġ30": 2130,
      "Ġgroups": 2131,
      "Ġmeet": 2132,
      "Ġoil": 2133,
      "Ġquestion": 2134,
      "30": 2135,
      "ĠHealth": 2136,
      "ĠCO": 2137,
      "aim": 2138,
      "Ġstat": 2139,
      "Ġwind": 2140,
      "Ġclose": 2141,
      "Ġnature": 2142,
      "ips": 2143,
      "Ġhouse": 2144,
      "Ġrelationship": 2145,
      "stry": 2146,
      "Ġavoid": 2147,
      "Ġpaper": 2148,
      "ung": 2149,
      "Ġcru": 2150,
      "Ġfrequ": 2151,
      "Ġdeg": 2152,
      "Ġscience": 2153,
      "chan": 2154,
      "rect": 2155,
      "erence": 2156,
      "Ġnecessary": 2157,
      "Ġengine": 2158,
      "Ġprovides": 2159,
      "arget": 2160,
      "__": 2161,
      "Ġbecame": 2162,
      "Ġglobal": 2163,
      "ensive": 2164,
      "Ġfall": 2165,
      "15": 2166,
      "esc": 2167,
      "Ġseen": 2168,
      "Ġalready": 2169,
      "fer": 2170,
      "Ġwide": 2171,
      "Ġeconomic": 2172,
      "nal": 2173,
      "Ġcollect": 2174,
      "mb": 2175,
      "idered": 2176,
      "Ġcity": 2177,
      "ĠLe": 2178,
      "Ġpay": 2179,
      "Ġdom": 2180,
      "ivil": 2181,
      "Ġassociated": 2182,
      "osis": 2183,
      "Ġabs": 2184,
      "Ġwr": 2185,
      "Ġbenefits": 2186,
      "Ġarticle": 2187,
      "rams": 2188,
      "Ġdone": 2189,
      "Ġexerc": 2190,
      "Ġnational": 2191,
      "Ġsource": 2192,
      "Ġdeveloped": 2193,
      "val": 2194,
      "oman": 2195,
      "ĠComp": 2196,
      "Ġbelow": 2197,
      "ott": 2198,
      "Ġrather": 2199,
      "ĠJoh": 2200,
      "AT": 2201,
      "iol": 2202,
      "roll": 2203,
      "Ġstory": 2204,
      "Ġfail": 2205,
      "ann": 2206,
      "Ġskin": 2207,
      "Ġinteg": 2208,
      "Ġcut": 2209,
      "Ġdog": 2210,
      "Ġlay": 2211,
      "Ġanalysis": 2212,
      "Ġincreased": 2213,
      "cial": 2214,
      "ird": 2215,
      "reng": 2216,
      "ĠNo": 2217,
      "Ġpractice": 2218,
      "sequ": 2219,
      "put": 2220,
      "Ġquick": 2221,
      "Ġcoll": 2222,
      "ival": 2223,
      "Ġflu": 2224,
      "rict": 2225,
      "Ġaccording": 2226,
      "Ġevent": 2227,
      "Ġintrodu": 2228,
      "Ġsurface": 2229,
      "amin": 2230,
      "ĠGerm": 2231,
      "ĠWorld": 2232,
      "Ġrate": 2233,
      "Ġhold": 2234,
      "Ġconsidered": 2235,
      "Ġassess": 2236,
      "Ġsingle": 2237,
      "usion": 2238,
      "etimes": 2239,
      "16": 2240,
      "ley": 2241,
      "Ġsoft": 2242,
      "earch": 2243,
      "//": 2244,
      "ĠCont": 2245,
      "AR": 2246,
      "Ġ14": 2247,
      "verse": 2248,
      "Ġrepl": 2249,
      "Ġquestions": 2250,
      "Ġsust": 2251,
      "Ġcondition": 2252,
      "ening": 2253,
      "Ġmass": 2254,
      "Ġmodern": 2255,
      "Ġsize": 2256,
      "Ġhelps": 2257,
      "ĠEnglish": 2258,
      "ae": 2259,
      "ĠIntern": 2260,
      "Ġfri": 2261,
      "ĠThat": 2262,
      "Ġpurp": 2263,
      "epend": 2264,
      "Ġsecurity": 2265,
      "Ġtaken": 2266,
      "AS": 2267,
      "Ġeither": 2268,
      "Ġred": 2269,
      "ulations": 2270,
      "Ġinteract": 2271,
      "Ġobserv": 2272,
      "overed": 2273,
      "ney": 2274,
      "Ġclean": 2275,
      "Ġconduct": 2276,
      "unt": 2277,
      "reme": 2278,
      "tal": 2279,
      "Ġfeed": 2280,
      "ĠStud": 2281,
      "acks": 2282,
      "Ġmembers": 2283,
      "lying": 2284,
      "yl": 2285,
      "Ġindustry": 2286,
      "based": 2287,
      "Ġut": 2288,
      "Ġcomes": 2289,
      "Ġonce": 2290,
      "yn": 2291,
      "Ġsound": 2292,
      "ym": 2293,
      "Ġpolitical": 2294,
      "Ġcannot": 2295,
      "itud": 2296,
      "Ġreally": 2297,
      "Ġphot": 2298,
      "Ġsustain": 2299,
      "Ġdrug": 2300,
      "ĠPr": 2301,
      "://": 2302,
      "ule": 2303,
      "ĠDr": 2304,
      "augh": 2305,
      "way": 2306,
      "Ġdoct": 2307,
      "To": 2308,
      "Ġresearchers": 2309,
      "ĠWhile": 2310,
      "Ġtherap": 2311,
      "Ġsimple": 2312,
      "go": 2313,
      "Ch": 2314,
      "Ġcreated": 2315,
      "14": 2316,
      "Ġneeded": 2317,
      "Ġrelated": 2318,
      "ison": 2319,
      "Ġthemselves": 2320,
      "Ġhistor": 2321,
      "Ġword": 2322,
      "ĠCar": 2323,
      "ĠSouth": 2324,
      "Ġwhole": 2325,
      "ES": 2326,
      "Ġcontent": 2327,
      "aged": 2328,
      "Ġweight": 2329,
      "pro": 2330,
      "Ġliving": 2331,
      "Ġfive": 2332,
      "Ġenh": 2333,
      "ĠMar": 2334,
      "Ġincreasing": 2335,
      "eter": 2336,
      "Ġparts": 2337,
      "Ġenvironmental": 2338,
      "Ġla": 2339,
      "Ġpriv": 2340,
      "Wh": 2341,
      "Ġtarget": 2342,
      "Ġdoc": 2343,
      "Ġdest": 2344,
      "ibr": 2345,
      "aced": 2346,
      "Ġ198": 2347,
      "urch": 2348,
      "Ġmach": 2349,
      "ĠTr": 2350,
      "Ġann": 2351,
      "17": 2352,
      "ĠAss": 2353,
      "Ġevidence": 2354,
      "Ġprob": 2355,
      "ĠShe": 2356,
      "Ġonline": 2357,
      "Ġwhite": 2358,
      "illed": 2359,
      "ences": 2360,
      "Ġpattern": 2361,
      "like": 2362,
      "Ġbal": 2363,
      "Ġfru": 2364,
      "Ġport": 2365,
      "Ġentire": 2366,
      "Ġanimals": 2367,
      "ĠAb": 2368,
      "rad": 2369,
      "mber": 2370,
      "Ġstates": 2371,
      "Ġaction": 2372,
      "oints": 2373,
      "Ġsafe": 2374,
      "Ġsent": 2375,
      "vere": 2376,
      "Ġpopular": 2377,
      "emic": 2378,
      "13": 2379,
      "ump": 2380,
      "Ġupon": 2381,
      "Ġfire": 2382,
      "Ġemot": 2383,
      "Ġregard": 2384,
      "aff": 2385,
      "Ġsite": 2386,
      "erve": 2387,
      "Ġstreng": 2388,
      "ufact": 2389,
      "Ġsleep": 2390,
      "reg": 2391,
      "light": 2392,
      "ections": 2393,
      "Ġregular": 2394,
      "ublic": 2395,
      "onse": 2396,
      "uel": 2397,
      "Ġservice": 2398,
      "ising": 2399,
      "Ġfamil": 2400,
      "Ġfat": 2401,
      "yle": 2402,
      "Ġcat": 2403,
      "Ġrelig": 2404,
      "Ġsuper": 2405,
      "Ġidentify": 2406,
      "ership": 2407,
      "Ġreturn": 2408,
      "ancial": 2409,
      "Ġjob": 2410,
      "olic": 2411,
      "icles": 2412,
      "Ġsafety": 2413,
      "bo": 2414,
      "Ġmoney": 2415,
      "Ġbar": 2416,
      "Ġvers": 2417,
      "Ġbehavior": 2418,
      "ĠAct": 2419,
      "nces": 2420,
      "IN": 2421,
      "istics": 2422,
      "Ġreact": 2423,
      "Ġpath": 2424,
      "Ġfish": 2425,
      "oses": 2426,
      "ĠRep": 2427,
      "Ġgreen": 2428,
      "Ġpositive": 2429,
      "ales": 2430,
      "Ġgas": 2431,
      "iam": 2432,
      "ai": 2433,
      "hing": 2434,
      "Ġposition": 2435,
      "rast": 2436,
      "ĠChina": 2437,
      "Ġsun": 2438,
      "oph": 2439,
      "Ġprote": 2440,
      "ĠCal": 2441,
      "Ġarch": 2442,
      "Ġrights": 2443,
      "hold": 2444,
      "rior": 2445,
      "...": 2446,
      "Ġcompany": 2447,
      "Ġsense": 2448,
      "elling": 2449,
      "Ġperformance": 2450,
      "Ġ13": 2451,
      "Ġadult": 2452,
      "Ġthreat": 2453,
      "ĠNorth": 2454,
      "Ġcompon": 2455,
      "Ġprinc": 2456,
      "Ġcheck": 2457,
      "ĠAg": 2458,
      "Ġmeasure": 2459,
      "Ġspe": 2460,
      "Ġweek": 2461,
      "ID": 2462,
      "ze": 2463,
      "Ġmethods": 2464,
      "Ġlif": 2465,
      "erous": 2466,
      "Ġproduce": 2467,
      "ĠGe": 2468,
      "ĠDo": 2469,
      "istance": 2470,
      "200": 2471,
      "Ġactually": 2472,
      "Ġstudent": 2473,
      "Ġcust": 2474,
      "ĠMay": 2475,
      "oon": 2476,
      "Ġmonths": 2477,
      "ores": 2478,
      "Ġhab": 2479,
      "Ġlink": 2480,
      "Ġprec": 2481,
      "Ġthroughout": 2482,
      "ĠIndian": 2483,
      "med": 2484,
      "ĠAmerica": 2485,
      "Ġver": 2486,
      "ops": 2487,
      "itation": 2488,
      "hib": 2489,
      "Ġimplement": 2490,
      "Ġtaking": 2491,
      "Ġheat": 2492,
      "Ġmor": 2493,
      "Ġregion": 2494,
      "Ġstructure": 2495,
      "gest": 2496,
      "Ġdesigned": 2497,
      "Ġge": 2498,
      "Ġansw": 2499,
      "Ġtemperature": 2500,
      "Ġthought": 2501,
      "Ġblack": 2502,
      "Ġsat": 2503,
      "Ġidea": 2504,
      "Ġitself": 2505,
      "Ġchemical": 2506,
      "ively": 2507,
      "aily": 2508,
      "Ġdeep": 2509,
      "Ġwriting": 2510,
      "Ġemerg": 2511,
      "Ġlab": 2512,
      "iency": 2513,
      "Ġbreak": 2514,
      "Ġprovided": 2515,
      "Ġsociety": 2516,
      "ĠAm": 2517,
      "Ġmilitary": 2518,
      "Ġ=": 2519,
      "eds": 2520,
      "lex": 2521,
      "Ġface": 2522,
      "artment": 2523,
      "lt": 2524,
      "urs": 2525,
      "Ġarg": 2526,
      "ĠGu": 2527,
      "Ġcalc": 2528,
      "Ġtools": 2529,
      "Ġfr": 2530,
      "Ġmechan": 2531,
      "ropri": 2532,
      "ĠSu": 2533,
      "Ġ100": 2534,
      "ĠDep": 2535,
      "Ġarr": 2536,
      "ournal": 2537,
      "Ġparents": 2538,
      "Ġcame": 2539,
      "Ġdamage": 2540,
      "ened": 2541,
      "ronic": 2542,
      "Ġinj": 2543,
      "ĠSec": 2544,
      "sh": 2545,
      "atives": 2546,
      "ipment": 2547,
      "Ġwin": 2548,
      "cient": 2549,
      "ming": 2550,
      "ĠAust": 2551,
      "ĠX": 2552,
      "ĠSoc": 2553,
      "pid": 2554,
      "Ġincludes": 2555,
      "You": 2556,
      "Ġsuff": 2557,
      "astic": 2558,
      "asc": 2559,
      "Ġliter": 2560,
      "Ġpublished": 2561,
      "Ġrev": 2562,
      "ging": 2563,
      "Ġfarm": 2564,
      "aling": 2565,
      "fully": 2566,
      "Ġterms": 2567,
      "Ġencoura": 2568,
      "ON": 2569,
      "Ġlives": 2570,
      "uted": 2571,
      "Ġcomputer": 2572,
      "nov": 2573,
      "Ġdiagn": 2574,
      "ĠApp": 2575,
      "Ġalmost": 2576,
      "ches": 2577,
      "Ġcompan": 2578,
      "eration": 2579,
      "het": 2580,
      "Ġsam": 2581,
      "ply": 2582,
      "Ġunique": 2583,
      "Ġdeb": 2584,
      "Ġmental": 2585,
      "Ġever": 2586,
      "IS": 2587,
      "âĢ¦": 2588,
      "Ġce": 2589,
      "isions": 2590,
      "Ġnetwork": 2591,
      "Ġoffer": 2592,
      "Al": 2593,
      "Ġsepar": 2594,
      "Ġcop": 2595,
      "Ġparticularly": 2596,
      "minist": 2597,
      "Ġmeaning": 2598,
      "Ġlonger": 2599,
      "ccording": 2600,
      "Ġcompet": 2601,
      "):": 2602,
      "Ġcompl": 2603,
      "ext": 2604,
      "Ġste": 2605,
      "org": 2606,
      "Ġeasy": 2607,
      "Ġcolor": 2608,
      "Ġhtt": 2609,
      "Ġcontact": 2610,
      "Ġvariety": 2611,
      "Ġmanufact": 2612,
      "Ġcauses": 2613,
      "Ġhours": 2614,
      "iction": 2615,
      "Ġrecent": 2616,
      "Ġdisord": 2617,
      "aving": 2618,
      "Ġreading": 2619,
      "Ġharm": 2620,
      "Ġbring": 2621,
      "iment": 2622,
      "Ġallows": 2623,
      "empt": 2624,
      "ises": 2625,
      "ober": 2626,
      "oll": 2627,
      "ĠEarth": 2628,
      "Ġcritical": 2629,
      "ma": 2630,
      "Ġyet": 2631,
      "Ġ50": 2632,
      "Ġbur": 2633,
      "eb": 2634,
      "Ġ:": 2635,
      "Ġcaused": 2636,
      "ĠInt": 2637,
      "Ġprevious": 2638,
      "ume": 2639,
      "ulate": 2640,
      "iques": 2641,
      "Ġculture": 2642,
      "ĠCo": 2643,
      "ĠHis": 2644,
      "Ġheav": 2645,
      "ĠAfter": 2646,
      "Ġminim": 2647,
      "aries": 2648,
      "Ġspread": 2649,
      "Ġsources": 2650,
      "25": 2651,
      "Ġcarbon": 2652,
      "ĠState": 2653,
      "imately": 2654,
      "Ġconc": 2655,
      "Ġrespect": 2656,
      "inary": 2657,
      "Ġhalf": 2658,
      "Ġemb": 2659,
      "Ġshows": 2660,
      "Ġresponse": 2661,
      "Ġmatter": 2662,
      "igure": 2663,
      "aches": 2664,
      "alu": 2665,
      "Ġaware": 2666,
      "Ġtotal": 2667,
      "vey": 2668,
      "Ġtravel": 2669,
      "Ġaspect": 2670,
      "Ġmovement": 2671,
      "Ġbegan": 2672,
      "Ġ197": 2673,
      "cies": 2674,
      "ricult": 2675,
      "iddle": 2676,
      "Ġmonit": 2677,
      "Ġachieve": 2678,
      "Ġcommunication": 2679,
      "Ġsubst": 2680,
      "Ġtook": 2681,
      "Ġelectric": 2682,
      "Ġclaim": 2683,
      "ese": 2684,
      "Ġissue": 2685,
      "hood": 2686,
      "Ġsurv": 2687,
      "ades": 2688,
      "Ġattention": 2689,
      "iable": 2690,
      "ĠEm": 2691,
      "Ġfinancial": 2692,
      "Ġ25": 2693,
      "Ġevents": 2694,
      "Ġanaly": 2695,
      "Ġvide": 2696,
      "ctions": 2697,
      "apan": 2698,
      "Ġtraditional": 2699,
      "Ġaccept": 2700,
      "osing": 2701,
      "Ġbuilt": 2702,
      "Ġled": 2703,
      "ĠMe": 2704,
      "ĠJohn": 2705,
      "Ġtalk": 2706,
      "Ġpoll": 2707,
      "ĠPe": 2708,
      "uck": 2709,
      "Ġlack": 2710,
      "Ġgreater": 2711,
      "Ġprograms": 2712,
      "Ġstandard": 2713,
      "ii": 2714,
      "Ġconsist": 2715,
      "estern": 2716,
      "Ġpsych": 2717,
      "Ġgain": 2718,
      "ript": 2719,
      "rown": 2720,
      "ĠPar": 2721,
      "Ġcoun": 2722,
      "orks": 2723,
      "Ġschools": 2724,
      "Ġmedia": 2725,
      "ene": 2726,
      "Ġ11": 2727,
      "Ġwild": 2728,
      "Ġinvolved": 2729,
      "Ġlog": 2730,
      "AN": 2731,
      "Ġfoods": 2732,
      "Ġmusic": 2733,
      "ĠResearch": 2734,
      "ched": 2735,
      "Ġremov": 2736,
      "ows": 2737,
      "ils": 2738,
      "issions": 2739,
      "Ġbacter": 2740,
      "Ġaim": 2741,
      "ĠAI": 2742,
      "arily": 2743,
      "ĠII": 2744,
      "mon": 2745,
      "oor": 2746,
      "ĠReg": 2747,
      "Ġdeveloping": 2748,
      "Ġforce": 2749,
      "Ġtell": 2750,
      "Ġexplain": 2751,
      "Ġslow": 2752,
      "Ġcorrect": 2753,
      "Ġselect": 2754,
      "ties": 2755,
      "ĠYork": 2756,
      "Ġsix": 2757,
      "gar": 2758,
      "Ġreview": 2759,
      "Ġuses": 2760,
      "Ġbra": 2761,
      "Ġlove": 2762,
      "Ġshown": 2763,
      "onstr": 2764,
      "ĠMin": 2765,
      "Ġgrowing": 2766,
      "Ġleading": 2767,
      "Ġexc": 2768,
      "Ġetc": 2769,
      "Ġequipment": 2770,
      "ban": 2771,
      "Ġoverall": 2772,
      "ender": 2773,
      "Ġvisit": 2774,
      "ĠBritish": 2775,
      "osition": 2776,
      "Ġcustom": 2777,
      "Ġrout": 2778,
      "Ġaccur": 2779,
      "Ġviol": 2780,
      "lor": 2781,
      "Ġshare": 2782,
      "Ġmicro": 2783,
      "Ġtrue": 2784,
      "Ġdaily": 2785,
      "new": 2786,
      "Ġstop": 2787,
      "Ġcrucial": 2788,
      "set": 2789,
      "ĠHist": 2790,
      "Ġpolicy": 2791,
      ".)": 2792,
      "OR": 2793,
      "duc": 2794,
      "Ġcontinue": 2795,
      "overy": 2796,
      "Ġful": 2797,
      "ror": 2798,
      "Ġcommit": 2799,
      "Ġdistrib": 2800,
      "Ġchallenges": 2801,
      "Ġhyd": 2802,
      "Ġguid": 2803,
      "Ġsex": 2804,
      "Ġattack": 2805,
      "abet": 2806,
      "know": 2807,
      "Ġspeed": 2808,
      "ĠCanad": 2809,
      "osure": 2810,
      "Ġwebs": 2811,
      "Ġpatient": 2812,
      "raft": 2813,
      "ucle": 2814,
      "Ġprep": 2815,
      "rated": 2816,
      "Ġdispl": 2817,
      "dom": 2818,
      "ister": 2819,
      "ellig": 2820,
      "ervation": 2821,
      "Ġveh": 2822,
      "ief": 2823,
      "Ġthing": 2824,
      "Ġeat": 2825,
      "Ġ196": 2826,
      "Ġappl": 2827,
      "rought": 2828,
      "Ġtax": 2829,
      "Ġbasic": 2830,
      "Ġrelative": 2831,
      "Ġprogress": 2832,
      "Ġforms": 2833,
      "ĠPre": 2834,
      "Ġinternational": 2835,
      "Ġaverage": 2836,
      "22": 2837,
      "Ġprior": 2838,
      "ologies": 2839,
      "Ġextreme": 2840,
      "ĠSchool": 2841,
      "ulated": 2842,
      "Ġseem": 2843,
      "vant": 2844,
      "Ġnormal": 2845,
      "ĠPer": 2846,
      "ength": 2847,
      "wh": 2848,
      "Ġsimply": 2849,
      "Ġsometimes": 2850,
      "hens": 2851,
      "na": 2852,
      "Ġappropri": 2853,
      "term": 2854,
      "ĠQu": 2855,
      "Ġimportance": 2856,
      "ĠYour": 2857,
      "irit": 2858,
      "Ġmultiple": 2859,
      "Ġoutside": 2860,
      "Ġcapt": 2861,
      "Ġcommunities": 2862,
      "Ġreflect": 2863,
      "ĠJapan": 2864,
      "Ġdoing": 2865,
      "Ġindustr": 2866,
      "Ġdemonstr": 2867,
      "Ġir": 2868,
      "ĠCons": 2869,
      "Ġcompanies": 2870,
      "Ġeth": 2871,
      "Ġtowards": 2872,
      "Ġtechniques": 2873,
      "Ġprimary": 2874,
      "rim": 2875,
      "ials": 2876,
      "Ġdecision": 2877,
      "Ġserious": 2878,
      "ster": 2879,
      "lands": 2880,
      "Ġbelieve": 2881,
      "Ġgenerally": 2882,
      "Ġcover": 2883,
      "Ġpractices": 2884,
      "Ġox": 2885,
      "ĠJew": 2886,
      "Ġdraw": 2887,
      "Ġindepend": 2888,
      "Ġdigital": 2889,
      "Ġrefer": 2890,
      "Ġcivil": 2891,
      "icine": 2892,
      "Ġorigin": 2893,
      "Ġproced": 2894,
      "Ġmess": 2895,
      "Ġapplications": 2896,
      "room": 2897,
      "Ġfem": 2898,
      "Ġimage": 2899,
      "Ġproviding": 2900,
      "ads": 2901,
      "ground": 2902,
      "Ġcamp": 2903,
      "Ġpoor": 2904,
      "ederal": 2905,
      "Ġeasily": 2906,
      "ension": 2907,
      "IC": 2908,
      "oles": 2909,
      "Ġevalu": 2910,
      "ĠInstit": 2911,
      "Ġple": 2912,
      "Ã©": 2913,
      "Ġlat": 2914,
      "Ġearth": 2915,
      "EN": 2916,
      "fect": 2917,
      "Ġsoftware": 2918,
      "Ġsupply": 2919,
      "Ġaud": 2920,
      "But": 2921,
      "Ġgard": 2922,
      "Ġideas": 2923,
      "izations": 2924,
      "Ġscientists": 2925,
      "rs": 2926,
      "24": 2927,
      "Ġaltern": 2928,
      "Ġrequires": 2929,
      "fort": 2930,
      "asons": 2931,
      "yond": 2932,
      "Ġstay": 2933,
      "Ġwood": 2934,
      "Ġquickly": 2935,
      "Ġlooking": 2936,
      "Ġdevices": 2937,
      "Ġvacc": 2938,
      "Ġtransport": 2939,
      "uge": 2940,
      "Ġexpress": 2941,
      "itude": 2942,
      "erson": 2943,
      "joy": 2944,
      "ached": 2945,
      "Ġinstit": 2946,
      "Ġgetting": 2947,
      "Ġreported": 2948,
      "Ġattempt": 2949,
      "ĠPart": 2950,
      "Ġwritten": 2951,
      "ift": 2952,
      "Ġveget": 2953,
      "Ġsolar": 2954,
      "Ġoriginal": 2955,
      "\".": 2956,
      "ĠRec": 2957,
      "cell": 2958,
      "Ġdiseases": 2959,
      "ĠMany": 2960,
      "Ġvirus": 2961,
      "Ġimmedi": 2962,
      "Ġ/": 2963,
      "Ġtakes": 2964,
      "Ġnight": 2965,
      "idge": 2966,
      "21": 2967,
      "Ġadapt": 2968,
      "Ġdoesn": 2969,
      "Ġfeatures": 2970,
      "Ġdetermine": 2971,
      "ĠBr": 2972,
      "amed": 2973,
      "Ġtur": 2974,
      "Ġadditional": 2975,
      "Ġ24": 2976,
      "part": 2977,
      "Ġtherefore": 2978,
      "Ġcreating": 2979,
      "Ġproduced": 2980,
      "Ġvit": 2981,
      "Ġunc": 2982,
      "Ġexercise": 2983,
      "Ġfram": 2984,
      "Ġsomeone": 2985,
      "ĠPres": 2986,
      "enn": 2987,
      "ha": 2988,
      "Ġprocesses": 2989,
      "Ġdisp": 2990,
      "umb": 2991,
      "rench": 2992,
      "Ġanimal": 2993,
      "itable": 2994,
      "Ġmagn": 2995,
      "Ġeye": 2996,
      "Ġhighly": 2997,
      "Ġinfluence": 2998,
      "Ġcultural": 2999,
      "Ġdifference": 3000,
      "Ġ194": 3001,
      "Ġdirectly": 3002,
      "vention": 3003,
      "Ġfa": 3004,
      "ography": 3005,
      "equ": 3006,
      "ĠAustral": 3007,
      "Ġfeet": 3008,
      "Ġteachers": 3009,
      "Ġpoints": 3010,
      "Ġcompared": 3011,
      "Ġsituation": 3012,
      "Ġdang": 3013,
      "Ġpict": 3014,
      "Ġblock": 3015,
      "Ġvalues": 3016,
      "Ġcross": 3017,
      "tery": 3018,
      "One": 3019,
      "hel": 3020,
      "Ġstra": 3021,
      "ĠÂ": 3022,
      "ĠKing": 3023,
      "ana": 3024,
      "Ġnegative": 3025,
      "Ġnumbers": 3026,
      "Ġkids": 3027,
      "Ġincluded": 3028,
      "Ġdry": 3029,
      "Ġtypically": 3030,
      "Ġelements": 3031,
      "Ġlate": 3032,
      "Ġconcent": 3033,
      "Ġbab": 3034,
      "Ġwaste": 3035,
      "ĠUs": 3036,
      "Ġsqu": 3037,
      "ĠNe": 3038,
      "ancy": 3039,
      "oes": 3040,
      "Ġautom": 3041,
      "anks": 3042,
      "care": 3043,
      "Ġprotection": 3044,
      "Ġbroad": 3045,
      "ĠMore": 3046,
      "Ġlimited": 3047,
      "Ġtree": 3048,
      "iot": 3049,
      "orpor": 3050,
      "Ġquant": 3051,
      "Ġprofessional": 3052,
      "Ġsevere": 3053,
      "Ġcosts": 3054,
      "Ġdefin": 3055,
      "23": 3056,
      "Ġapplication": 3057,
      "Ġdecre": 3058,
      "itch": 3059,
      "Ġestablished": 3060,
      "Ġwarm": 3061,
      "ĠScience": 3062,
      "Ġcommand": 3063,
      "Ġsold": 3064,
      "icated": 3065,
      "Ġtend": 3066,
      "Ġsil": 3067,
      "Ġlarger": 3068,
      "formation": 3069,
      "Ġoperations": 3070,
      "Ġreve": 3071,
      "ying": 3072,
      "Ġwall": 3073,
      "oming": 3074,
      "Ġprojects": 3075,
      "Ġthus": 3076,
      "Ġstarted": 3077,
      "iers": 3078,
      "Ġactive": 3079,
      "ceed": 3080,
      "Ġextra": 3081,
      "Ġdemand": 3082,
      "uth": 3083,
      "Ġinstead": 3084,
      "Ġseries": 3085,
      "Ġadvant": 3086,
      "Ġdou": 3087,
      "Ġforest": 3088,
      "Ġforces": 3089,
      "Ġinvestig": 3090,
      "izes": 3091,
      "Ġinside": 3092,
      "Ġhar": 3093,
      "Ġfav": 3094,
      "just": 3095,
      "arr": 3096,
      "Ġtrees": 3097,
      "Ġdiv": 3098,
      "Ġpack": 3099,
      "Ġenjoy": 3100,
      "Ġfoot": 3101,
      "Ġpurpose": 3102,
      "Ġbehind": 3103,
      "Ġnation": 3104,
      "king": 3105,
      "AC": 3106,
      "Ġdocument": 3107,
      "Ġadded": 3108,
      "Ġestablish": 3109,
      "Ġpage": 3110,
      "ls": 3111,
      "ĠArt": 3112,
      "Ġadop": 3113,
      "Ġcapac": 3114,
      "Ġhumans": 3115,
      "Ġsea": 3116,
      "ecause": 3117,
      "Ġcit": 3118,
      "Ġtiss": 3119,
      "Ġimpl": 3120,
      "Ġsymb": 3121,
      "rition": 3122,
      "Ġcolon": 3123,
      "ounds": 3124,
      "Ġscientific": 3125,
      "mar": 3126,
      "ĠHere": 3127,
      "Ġconnect": 3128,
      "uries": 3129,
      "aly": 3130,
      "ĠBo": 3131,
      "Ġefforts": 3132,
      "Ġ40": 3133,
      "where": 3134,
      "abilities": 3135,
      "Ġinnov": 3136,
      "lection": 3137,
      "Ġfront": 3138,
      "rew": 3139,
      "ellow": 3140,
      "On": 3141,
      "Ġearl": 3142,
      "ED": 3143,
      "ĠWill": 3144,
      "isms": 3145,
      "ĠEduc": 3146,
      "Ġheld": 3147,
      "Ġcentral": 3148,
      "Ġtheory": 3149,
      "Ġestim": 3150,
      "abetes": 3151,
      "come": 3152,
      "Ġconflic": 3153,
      "inks": 3154,
      "Ġstrength": 3155,
      "Ġexpect": 3156,
      "ĠJan": 3157,
      "Ġinstall": 3158,
      "ino": 3159,
      "uous": 3160,
      "Ġoptim": 3161,
      "ĠHar": 3162,
      "EC": 3163,
      "Ġcard": 3164,
      "Ġfit": 3165,
      "den": 3166,
      "Ġcred": 3167,
      "Ġobtain": 3168,
      "Ġinfection": 3169,
      "Ġquite": 3170,
      "Ġshall": 3171,
      "Ġappropriate": 3172,
      "Ġmother": 3173,
      "ĠEuropean": 3174,
      "elt": 3175,
      "ĠRuss": 3176,
      "Ġmeasures": 3177,
      "ding": 3178,
      "time": 3179,
      "oly": 3180,
      "Ġbooks": 3181,
      "ĠTechn": 3182,
      "iber": 3183,
      "Ġsolution": 3184,
      "omet": 3185,
      "Ġprobably": 3186,
      "Ġtesting": 3187,
      "Ġspeak": 3188,
      "Ġinfl": 3189,
      "Ġcarry": 3190,
      "IT": 3191,
      "ĠAc": 3192,
      "Ġhost": 3193,
      "ipl": 3194,
      "ĠServ": 3195,
      "Ġthird": 3196,
      "Ġdrink": 3197,
      "ĠGl": 3198,
      "Ġefficient": 3199,
      "Ġrespond": 3200,
      "bor": 3201,
      "ĠTra": 3202,
      "Ġusers": 3203,
      "Ġclin": 3204,
      "cil": 3205,
      "Ġanswer": 3206,
      "Ġthinking": 3207,
      "Ġhor": 3208,
      "Ġbehavi": 3209,
      "Ġfamilies": 3210,
      "fficient": 3211,
      "rate": 3212,
      "Ġwalk": 3213,
      "Ġacid": 3214,
      "Ġones": 3215,
      "ĠKe": 3216,
      "Ġbase": 3217,
      "Ġfast": 3218,
      "inct": 3219,
      "ĠCount": 3220,
      "cean": 3221,
      "Ġmom": 3222,
      "ĠMost": 3223,
      "Ġunit": 3224,
      "Ġuseful": 3225,
      "irm": 3226,
      "omb": 3227,
      "Ġadminist": 3228,
      "idents": 3229,
      "Ġtherapy": 3230,
      "Ġresponsible": 3231,
      "ĠAug": 3232,
      "Ġreach": 3233,
      "ĠSm": 3234,
      "pe": 3235,
      "Ġthous": 3236,
      "ields": 3237,
      "Ġstru": 3238,
      "Ġago": 3239,
      "Ġlegal": 3240,
      "Ġfight": 3241,
      "Ġgame": 3242,
      "imin": 3243,
      "Ġsect": 3244,
      "Ġstrategies": 3245,
      "Ġvari": 3246,
      "ĠNot": 3247,
      "Ġstri": 3248,
      "Ġmount": 3249,
      "Ġgoal": 3250,
      "Ġuser": 3251,
      "Ġinterp": 3252,
      "Ġconstruction": 3253,
      "itect": 3254,
      "Ġorganization": 3255,
      "vest": 3256,
      "ĠEd": 3257,
      "Ġdoctor": 3258,
      "Ġprotein": 3259,
      "Ġbreat": 3260,
      "haps": 3261,
      "Ġult": 3262,
      "ĠOf": 3263,
      "Ġpromot": 3264,
      "Ġsou": 3265,
      "Ġprivate": 3266,
      "Ġrapid": 3267,
      "istry": 3268,
      "Ġminutes": 3269,
      "Ġbecomes": 3270,
      "Ġtri": 3271,
      "Ġremains": 3272,
      "olar": 3273,
      "Ġbeaut": 3274,
      "Ġagricult": 3275,
      "Ġsearch": 3276,
      "rie": 3277,
      "Ġhands": 3278,
      "Ġteaching": 3279,
      "iring": 3280,
      "Ġbit": 3281,
      "inese": 3282,
      "Ġsection": 3283,
      "Ġteeth": 3284,
      "ĠSystem": 3285,
      "olec": 3286,
      "cks": 3287,
      "ius": 3288,
      "Ġlabor": 3289,
      "axim": 3290,
      "Ġvideo": 3291,
      "ĠFrom": 3292,
      "Ġnucle": 3293,
      "Ġrates": 3294,
      "Ġrequirements": 3295,
      "back": 3296,
      "Ġcool": 3297,
      "Ġinsp": 3298,
      "Ġtown": 3299,
      "Ġsoon": 3300,
      "Ġbad": 3301,
      "Ġancient": 3302,
      "Ġhot": 3303,
      "uary": 3304,
      "Ġhabit": 3305,
      "ĠOther": 3306,
      "Ġbeyond": 3307,
      "Ġleaves": 3308,
      "illing": 3309,
      "ided": 3310,
      "ĠCenter": 3311,
      "rogen": 3312,
      "Ġbirth": 3313,
      "Ġsn": 3314,
      "Ġstage": 3315,
      "Ġworkers": 3316,
      "Ġpan": 3317,
      "ners": 3318,
      "ĠJu": 3319,
      "ashing": 3320,
      "coh": 3321,
      "While": 3322,
      "apter": 3323,
      "ĠAfrica": 3324,
      "rehens": 3325,
      "Ġrob": 3326,
      "Ġsurround": 3327,
      "ille": 3328,
      "Ġfuel": 3329,
      "Ġagree": 3330,
      "Ġcra": 3331,
      "odies": 3332,
      "Ġang": 3333,
      "con": 3334,
      "oud": 3335,
      "gn": 3336,
      "ĠInstitute": 3337,
      "Ġoffers": 3338,
      "asks": 3339,
      "ception": 3340,
      "Ġmodels": 3341,
      "iles": 3342,
      "Ġtests": 3343,
      "Ġdecl": 3344,
      "itis": 3345,
      "useum": 3346,
      "su": 3347,
      "So": 3348,
      "Ġord": 3349,
      "mission": 3350,
      "www": 3351,
      "Ġvisual": 3352,
      "AL": 3353,
      "ĠEl": 3354,
      "resh": 3355,
      "Ġjud": 3356,
      "Ġsteps": 3357,
      "Ġcapital": 3358,
      "Ġdark": 3359,
      "By": 3360,
      "Ġalthough": 3361,
      "Ġi": 3362,
      "Ġmix": 3363,
      "Ġtrack": 3364,
      "uman": 3365,
      "Ġplat": 3366,
      "ĠDepartment": 3367,
      "âĢ¢": 3368,
      "ĠFrench": 3369,
      "iforn": 3370,
      "Ġlines": 3371,
      "Ġexplore": 3372,
      "Ġbacteria": 3373,
      "Ġseason": 3374,
      "These": 3375,
      "ĠDef": 3376,
      "âĢĿ.": 3377,
      "Ġyourself": 3378,
      "Ġsignificantly": 3379,
      "Ġcomponents": 3380,
      "bit": 3381,
      "Ġwrite": 3382,
      "Ġwebsite": 3383,
      "Ġdepend": 3384,
      "Ġcontains": 3385,
      "icate": 3386,
      "Ġlength": 3387,
      "Ġopportunities": 3388,
      "encies": 3389,
      "undred": 3390,
      "Ġnews": 3391,
      "Ġexact": 3392,
      "elligence": 3393,
      "rig": 3394,
      "Ġreceived": 3395,
      "Ex": 3396,
      "Ġcele": 3397,
      "Ġproperty": 3398,
      "Ġbeginning": 3399,
      "ĠJes": 3400,
      "Ġdevice": 3401,
      "ests": 3402,
      "ĠMon": 3403,
      "Ġtrade": 3404,
      "wise": 3405,
      "Ġchoose": 3406,
      "amic": 3407,
      "Ġbenefit": 3408,
      "cles": 3409,
      "Ġspirit": 3410,
      "He": 3411,
      "Ġmob": 3412,
      "Ġutil": 3413,
      "iples": 3414,
      "oke": 3415,
      "Ġimages": 3416,
      "ĠWest": 3417,
      "ĠAlthough": 3418,
      "Ġ,": 3419,
      "ĠInternational": 3420,
      "ĠChild": 3421,
      "Ġund": 3422,
      "Ġrecommend": 3423,
      "Ġwa": 3424,
      "Ġstandards": 3425,
      "Ġtechnologies": 3426,
      "pril": 3427,
      "ĠOct": 3428,
      "head": 3429,
      "Ġlost": 3430,
      "Ġadults": 3431,
      "phas": 3432,
      "ription": 3433,
      "thern": 3434,
      "hest": 3435,
      "Ġlocated": 3436,
      "Ġemp": 3437,
      "ĠSw": 3438,
      "Ġbalance": 3439,
      "sec": 3440,
      "Ġreasons": 3441,
      "emy": 3442,
      "Ġmemory": 3443,
      "Ġweeks": 3444,
      "Ġsugar": 3445,
      "sect": 3446,
      "Ġweather": 3447,
      "ĠAfrican": 3448,
      "ifornia": 3449,
      "life": 3450,
      "ilos": 3451,
      "Ġeyes": 3452,
      "Ġcollabor": 3453,
      "Ġaffected": 3454,
      "Ġnutri": 3455,
      "hern": 3456,
      "Ġanx": 3457,
      "urg": 3458,
      "Ġoptions": 3459,
      "Ġtable": 3460,
      "Ġasse": 3461,
      "ffect": 3462,
      "ĠChar": 3463,
      "isation": 3464,
      "Ġeating": 3465,
      "Ġfriends": 3466,
      "pper": 3467,
      "Ġcode": 3468,
      "Ġplaces": 3469,
      "enge": 3470,
      "ĠAnt": 3471,
      "ĠChinese": 3472,
      "Ġlocation": 3473,
      "Ġconsequ": 3474,
      "Ġpatterns": 3475,
      "Ġcontroll": 3476,
      "Ġinvolves": 3477,
      "Ġfinal": 3478,
      "Ġopportunity": 3479,
      "Ġmention": 3480,
      "Ġreceive": 3481,
      "Ġlargest": 3482,
      "Ġexpected": 3483,
      "Ġprin": 3484,
      "estic": 3485,
      "ĠLear": 3486,
      "iece": 3487,
      "Ġbrought": 3488,
      "Ġiniti": 3489,
      "rag": 3490,
      "Ġegg": 3491,
      "ari": 3492,
      "Ġeconomy": 3493,
      "ĠHer": 3494,
      "Ġdeal": 3495,
      "Ġexposure": 3496,
      "ĠFirst": 3497,
      "rical": 3498,
      "ĠMus": 3499,
      "Ġsuccessful": 3500,
      "Ġwhose": 3501,
      "Ġmachine": 3502,
      "Ġcold": 3503,
      "Ġcrop": 3504,
      "Ġanti": 3505,
      "ĠInc": 3506,
      "Ġcam": 3507,
      "Ġshape": 3508,
      "used": 3509,
      "Ġplanning": 3510,
      "Ġwent": 3511,
      "Ġpowerful": 3512,
      "ructure": 3513,
      "ĠDevelop": 3514,
      "Ġseems": 3515,
      "Ġrich": 3516,
      "ĠMarch": 3517,
      "Ġgoals": 3518,
      "Ġexamples": 3519,
      "ĠDay": 3520,
      "uments": 3521,
      "iar": 3522,
      "Ġ21": 3523,
      "Ġexperiences": 3524,
      "Ġcontext": 3525,
      "Ġmill": 3526,
      "Ġactions": 3527,
      "ĠCommun": 3528,
      "arian": 3529,
      "Ġweb": 3530,
      "ĠGerman": 3531,
      "water": 3532,
      "Ġreducing": 3533,
      "eal": 3534,
      "'re": 3535,
      "Ġexec": 3536,
      "cohol": 3537,
      "Ġbasis": 3538,
      "lim": 3539,
      "ĠDis": 3540,
      "Ġdecisions": 3541,
      "ĠInst": 3542,
      "Ġgradu": 3543,
      "Ġx": 3544,
      "Ġreligious": 3545,
      "Ġrare": 3546,
      "Ġsymbol": 3547,
      "rael": 3548,
      "ĠĠ": 3549,
      "ran": 3550,
      "ĠGovern": 3551,
      "rec": 3552,
      "IV": 3553,
      "ancing": 3554,
      "60": 3555,
      "iter": 3556,
      "ype": 3557,
      "right": 3558,
      "Ġelse": 3559,
      "ĠMod": 3560,
      "Ġsigns": 3561,
      "Ad": 3562,
      "Ġgives": 3563,
      "unch": 3564,
      "Ġtransl": 3565,
      "Ġeveryone": 3566,
      "Ġeffectively": 3567,
      "orthern": 3568,
      "Ġvict": 3569,
      "ees": 3570,
      "Ġep": 3571,
      "Ġjoin": 3572,
      "Ġconstant": 3573,
      "ĠMy": 3574,
      "Ġeffort": 3575,
      "airs": 3576,
      "Ġcapacity": 3577,
      "Ġ--": 3578,
      "ĠTrans": 3579,
      "ĠCalifornia": 3580,
      "osy": 3581,
      "Ġsett": 3582,
      "Ġpet": 3583,
      "40": 3584,
      "Ġexisting": 3585,
      "atur": 3586,
      "With": 3587,
      "At": 3588,
      "Ġpen": 3589,
      "load": 3590,
      "iance": 3591,
      "Ġproperties": 3592,
      "ĠHigh": 3593,
      "Ġtask": 3594,
      "Ġnearly": 3595,
      "Ġrise": 3596,
      "Ġfear": 3597,
      "Ġessay": 3598,
      "Ġsolutions": 3599,
      "Ġroom": 3600,
      "Ġcommonly": 3601,
      "Ġlimit": 3602,
      "Ġscreen": 3603,
      "standing": 3604,
      "ĠGree": 3605,
      "Ġvirt": 3606,
      "aid": 3607,
      "Ġforward": 3608,
      "oration": 3609,
      "And": 3610,
      "Ġrisks": 3611,
      "Ġorganizations": 3612,
      "Ġpurch": 3613,
      "Ġimag": 3614,
      "Ġpeace": 3615,
      "ensity": 3616,
      "Ġcenter": 3617,
      "Ġreduced": 3618,
      "Ġmiss": 3619,
      "Ġhous": 3620,
      "Ġinstru": 3621,
      "Ġeverything": 3622,
      "Ġdescribed": 3623,
      "Ġsummer": 3624,
      "Ġaspects": 3625,
      "Ġhundred": 3626,
      "Ġenhance": 3627,
      "Ġchoice": 3628,
      "Ġsites": 3629,
      "ĠTw": 3630,
      "Ġcitiz": 3631,
      "Ġcateg": 3632,
      "rote": 3633,
      "ira": 3634,
      "ĠSept": 3635,
      "ĠUse": 3636,
      "craft": 3637,
      "Ġscale": 3638,
      "more": 3639,
      "Ġgot": 3640,
      "Ġdegree": 3641,
      "Ġefficiency": 3642,
      "ĠJesus": 3643,
      "Ġhistorical": 3644,
      "ĠJune": 3645,
      "ternal": 3646,
      "80": 3647,
      "Ġsmaller": 3648,
      "Ġpresence": 3649,
      "Ġmaxim": 3650,
      "Ġcou": 3651,
      "Ġvia": 3652,
      "Ġhope": 3653,
      "vert": 3654,
      "ĠCor": 3655,
      "ony": 3656,
      "ĠArmy": 3657,
      "Ġdead": 3658,
      "istan": 3659,
      "iveness": 3660,
      "Ġcry": 3661,
      "EM": 3662,
      "ĠProg": 3663,
      "mosp": 3664,
      "year": 3665,
      "att": 3666,
      "Ġbul": 3667,
      "Ġacqu": 3668,
      "Ġdiabetes": 3669,
      "Ġsustainable": 3670,
      "Ġfollowed": 3671,
      "AP": 3672,
      "Ġobjects": 3673,
      "ĠAre": 3674,
      "Ġguide": 3675,
      "force": 3676,
      "ĠBar": 3677,
      "Ġrules": 3678,
      "Ġbott": 3679,
      "Ġacad": 3680,
      "ĠAir": 3681,
      "orage": 3682,
      "ĠRiver": 3683,
      "ĠSim": 3684,
      "irection": 3685,
      "ĠRed": 3686,
      "Ġplatform": 3687,
      "Ġperfect": 3688,
      "uk": 3689,
      "Ġswe": 3690,
      "ula": 3691,
      "ĠAugust": 3692,
      "Ġoccurs": 3693,
      "Ġassist": 3694,
      "Ġimmune": 3695,
      "Ġhyp": 3696,
      "Ġ2010": 3697,
      "Ġmis": 3698,
      "Ġstrugg": 3699,
      "ocks": 3700,
      "Ġleave": 3701,
      "gy": 3702,
      "Ġrain": 3703,
      "tenance": 3704,
      "wide": 3705,
      "Ġdifferences": 3706,
      "ĠOur": 3707,
      "ĠEc": 3708,
      "rupt": 3709,
      "Ġdate": 3710,
      "Ġemphas": 3711,
      "Ġroad": 3712,
      "Ġpregn": 3713,
      "Ġlaws": 3714,
      "Ġemissions": 3715,
      "Ġfully": 3716,
      "amb": 3717,
      "ĠHistory": 3718,
      "Ġten": 3719,
      "ĠDuring": 3720,
      "ĠAssoci": 3721,
      "Ġpow": 3722,
      "ĠApril": 3723,
      "Ġcurrently": 3724,
      "Ġcontract": 3725,
      "Ġborn": 3726,
      "Ġsaw": 3727,
      "Ġmolec": 3728,
      "Ġtold": 3729,
      "see": 3730,
      "Ġder": 3731,
      "ibrary": 3732,
      "Ġdisplay": 3733,
      "ĠSch": 3734,
      "ĠCanada": 3735,
      "Ġball": 3736,
      "Ġolder": 3737,
      "ĠAccording": 3738,
      "Ġconsumption": 3739,
      "mitted": 3740,
      "Ġcoast": 3741,
      "ST": 3742,
      "Ġisn": 3743,
      "ĠEducation": 3744,
      "ĠVal": 3745,
      "Ġapplied": 3746,
      "Ġcollection": 3747,
      "Ġcommerc": 3748,
      "Ġalone": 3749,
      "Ġfunctions": 3750,
      "Ġteacher": 3751,
      "Ġdat": 3752,
      "Ġarchitect": 3753,
      "Ġrock": 3754,
      "Pro": 3755,
      "Ġ2012": 3756,
      "ĠGra": 3757,
      "Ġdyn": 3758,
      "Ġcook": 3759,
      "Ġeducational": 3760,
      "ought": 3761,
      "Ġcompletely": 3762,
      "ĠAmericans": 3763,
      "aught": 3764,
      "Ġanything": 3765,
      "rees": 3766,
      "CO": 3767,
      "Ġnorth": 3768,
      "Ġsequ": 3769,
      "ĠIsrael": 3770,
      "Ġroot": 3771,
      "Ġmiddle": 3772,
      "Ġplaced": 3773,
      "Ġhimself": 3774,
      "Ġstaff": 3775,
      "ĠJuly": 3776,
      "Ġstatus": 3777,
      "Ġinstance": 3778,
      "Ġing": 3779,
      "Ġbirds": 3780,
      "Ġhosp": 3781,
      "ocol": 3782,
      "Ġmid": 3783,
      "ĠPresident": 3784,
      "Ġcomprehens": 3785,
      "aste": 3786,
      "Ġapprox": 3787,
      "Ġrecently": 3788,
      "ĠChristian": 3789,
      "ĠEven": 3790,
      "Ġgarden": 3791,
      "oe": 3792,
      "Ġenter": 3793,
      "Ġice": 3794,
      "Ġdetect": 3795,
      "Ġidentified": 3796,
      "##": 3797,
      "AD": 3798,
      "Ġ60": 3799,
      "ilit": 3800,
      "related": 3801,
      "Ġqual": 3802,
      "Ġemotional": 3803,
      "Ġtit": 3804,
      "ĠEngland": 3805,
      "ords": 3806,
      "fl": 3807,
      "ament": 3808,
      "ION": 3809,
      "Ġincreases": 3810,
      "Ġasked": 3811,
      "bre": 3812,
      "Ġwinter": 3813,
      "Ġfather": 3814,
      "Ġbelief": 3815,
      "Ġvision": 3816,
      "à¤": 3817,
      "Ġgoes": 3818,
      "Ġneigh": 3819,
      "ev": 3820,
      "Ġhon": 3821,
      "Ġconvers": 3822,
      "ĠFin": 3823,
      "Ġtrying": 3824,
      "Ġhttp": 3825,
      "ĠDav": 3826,
      "Ġnote": 3827,
      "Ġconstit": 3828,
      "Ġitems": 3829,
      "oday": 3830,
      "ĠCour": 3831,
      "26": 3832,
      "ogen": 3833,
      "Ġfactor": 3834,
      "Ġtrust": 3835,
      "Ġjour": 3836,
      "ĠPress": 3837,
      "Ġfile": 3838,
      "Ġgenetic": 3839,
      "Ġcontribute": 3840,
      "Ġwon": 3841,
      "Ġexcess": 3842,
      "Ġmanage": 3843,
      "Ġtasks": 3844,
      "ĠPark": 3845,
      "Ġstim": 3846,
      "ĠGeneral": 3847,
      "Ġ23": 3848,
      "Ġassign": 3849,
      "ĠIS": 3850,
      "Ġtou": 3851,
      "Ġallowed": 3852,
      "Ġnothing": 3853,
      "Ġdrugs": 3854,
      "ibly": 3855,
      "itor": 3856,
      "igen": 3857,
      "Ġfruit": 3858,
      "Ġ2011": 3859,
      "Ġsouth": 3860,
      "Ġfair": 3861,
      "ĠSur": 3862,
      "ĠTheir": 3863,
      "Ġinstruct": 3864,
      "Ġking": 3865,
      "Ġresistance": 3866,
      "cious": 3867,
      "Ġfresh": 3868,
      "Ġplanet": 3869,
      "Ġadjust": 3870,
      "Ġexpand": 3871,
      "ĠCom": 3872,
      "Ġtox": 3873,
      "Ġdetails": 3874,
      "Ġvary": 3875,
      "ama": 3876,
      "cember": 3877,
      "Ġearlier": 3878,
      "Ġmal": 3879,
      "Ġremember": 3880,
      "odes": 3881,
      "off": 3882,
      "pective": 3883,
      "eech": 3884,
      "Ġbillion": 3885,
      "Ġtransfer": 3886,
      "Ġwond": 3887,
      "Ġbaby": 3888,
      "ĠMc": 3889,
      "icip": 3890,
      "ĠPol": 3891,
      "Ġoccup": 3892,
      "Ġfederal": 3893,
      "isl": 3894,
      "Ġstyle": 3895,
      "uild": 3896,
      "ashington": 3897,
      "Ġhair": 3898,
      "Ġdied": 3899,
      "Some": 3900,
      "Ġprice": 3901,
      "ĠAut": 3902,
      "ĠUnder": 3903,
      "gery": 3904,
      "Ġabsor": 3905,
      "Ġnav": 3906,
      "ĠRet": 3907,
      "Ġconstruct": 3908,
      "Ġvital": 3909,
      "ondon": 3910,
      "ocr": 3911,
      "Ġillness": 3912,
      "Ġhealthcare": 3913,
      "Ġmoment": 3914,
      "Ġshap": 3915,
      "ditionally": 3916,
      "lin": 3917,
      "ĠBlack": 3918,
      "Ġcelebr": 3919,
      "Ġanxiety": 3920,
      "rick": 3921,
      "aled": 3922,
      "Ġmember": 3923,
      "ĠChurch": 3924,
      "Ġmouth": 3925,
      "ingu": 3926,
      "ĠWater": 3927,
      "Ġmo": 3928,
      "Ġincorpor": 3929,
      "Ġ2013": 3930,
      "Ġpoly": 3931,
      "Ġletter": 3932,
      "works": 3933,
      "Ġforeign": 3934,
      "edom": 3935,
      "Ġstructures": 3936,
      "Ġson": 3937,
      "Ġmoving": 3938,
      "Ġcarried": 3939,
      "Ġtransform": 3940,
      "ĠCoun": 3941,
      "Ġplans": 3942,
      "ĠEast": 3943,
      "inated": 3944,
      "Ġstories": 3945,
      "Ġcontinued": 3946,
      "ico": 3947,
      "ET": 3948,
      "Ġgold": 3949,
      "ica": 3950,
      "Ġattract": 3951,
      "iding": 3952,
      "Ġteach": 3953,
      "Ġmig": 3954,
      "aul": 3955,
      "Ġatmosp": 3956,
      "Ġleaders": 3957,
      "ifically": 3958,
      "men": 3959,
      "being": 3960,
      "Ġworth": 3961,
      "ĠProf": 3962,
      "Ġmuscle": 3963,
      "ford": 3964,
      "Ġrat": 3965,
      "ĠSeptember": 3966,
      "Ġallowing": 3967,
      "Ġchallenge": 3968,
      "Ġrule": 3969,
      "Ġadvanced": 3970,
      "ĠFeb": 3971,
      "Ġbound": 3972,
      "Ġeasier": 3973,
      "Ġdirection": 3974,
      "ses": 3975,
      "Ġplastic": 3976,
      "Ġweak": 3977,
      "Ġlandsc": 3978,
      "ĠGreat": 3979,
      "Ġmiles": 3980,
      "27": 3981,
      "ĠOver": 3982,
      "ero": 3983,
      "ĠPat": 3984,
      "Ġregions": 3985,
      "Ġcoming": 3986,
      "ham": 3987,
      "Ġmajority": 3988,
      "gin": 3989,
      "Ġcompar": 3990,
      "aur": 3991,
      "Is": 3992,
      "Ġwoman": 3993,
      "ĠCong": 3994,
      "iest": 3995,
      "ovember": 3996,
      "Ġsuppl": 3997,
      "Ġrecommended": 3998,
      "rief": 3999,
      "uff": 4000,
      "anish": 4001,
      "ĠWilliam": 4002,
      "Ġurban": 4003,
      "Ġalcohol": 4004,
      "nds": 4005,
      "ĠUK": 4006,
      "ĠRead": 4007,
      "Ġdestro": 4008,
      "Ġsch": 4009,
      "book": 4010,
      "Ġfert": 4011,
      "Ġpromote": 4012,
      "Ġrot": 4013,
      "ĠCity": 4014,
      "Ġden": 4015,
      "ĠThen": 4016,
      "Ġrelationships": 4017,
      "que": 4018,
      "Ġvo": 4019,
      "ygen": 4020,
      "ĠProt": 4021,
      "Ġcities": 4022,
      "Ġfriend": 4023,
      "iate": 4024,
      "Ġinteresting": 4025,
      "Ġserve": 4026,
      "elines": 4027,
      "ĠSince": 4028,
      "Ġpolicies": 4029,
      "ulner": 4030,
      "Ġdistance": 4031,
      "PA": 4032,
      "Ġalg": 4033,
      "ĠJanuary": 4034,
      "---": 4035,
      "hab": 4036,
      "ara": 4037,
      "Ġconducted": 4038,
      "33": 4039,
      "Ġgiving": 4040,
      "ĠOctober": 4041,
      "known": 4042,
      "rastructure": 4043,
      "ĠBra": 4044,
      "Ġfix": 4045,
      "Ġmission": 4046,
      "Ġresource": 4047,
      "II": 4048,
      "Ġprofession": 4049,
      "Ġapply": 4050,
      "ognitive": 4051,
      "Ġcourt": 4052,
      "Ġrelatively": 4053,
      "Ġbox": 4054,
      "Ġwid": 4055,
      "Ġunits": 4056,
      "Ar": 4057,
      "house": 4058,
      "icial": 4059,
      "Ġindustrial": 4060,
      "Ġpiece": 4061,
      "Ġdiscovered": 4062,
      "Ġ2015": 4063,
      "Ġevolution": 4064,
      "ching": 4065,
      "____": 4066,
      "ĠInter": 4067,
      "ĠConf": 4068,
      "ĠAv": 4069,
      "Ġformer": 4070,
      "Ġremove": 4071,
      "can": 4072,
      "Ġtissue": 4073,
      "Ġ2014": 4074,
      "Ġfeature": 4075,
      "aign": 4076,
      "Ġregarding": 4077,
      "urance": 4078,
      "ĠEach": 4079,
      "Ġformed": 4080,
      "iful": 4081,
      "ste": 4082,
      "Ġantib": 4083,
      "enty": 4084,
      "Ġnamed": 4085,
      "AM": 4086,
      "ĠVir": 4087,
      "bal": 4088,
      "Ġcounter": 4089,
      "Ġadvance": 4090,
      "Ġchanged": 4091,
      "Ġstorage": 4092,
      "ously": 4093,
      "ĠDec": 4094,
      "ares": 4095,
      "90": 4096,
      "Ġrunning": 4097,
      "ession": 4098,
      "Ġillust": 4099,
      "aters": 4100,
      "clusion": 4101,
      "Ġwrote": 4102,
      "Ġelement": 4103,
      "ĠPeople": 4104,
      "change": 4105,
      "eding": 4106,
      "Ġphilos": 4107,
      "nel": 4108,
      "Ġconcerns": 4109,
      "Ġconnection": 4110,
      "ĠInf": 4111,
      "Ġnutrition": 4112,
      "ĠRo": 4113,
      "RE": 4114,
      "hemat": 4115,
      "ĠBi": 4116,
      "bl": 4117,
      "ĠAD": 4118,
      "ĠWashington": 4119,
      "Ġgeneration": 4120,
      "Ġstrategy": 4121,
      "Ġnumerous": 4122,
      "PS": 4123,
      "Ġmut": 4124,
      "yd": 4125,
      "resp": 4126,
      "lev": 4127,
      "Ġfindings": 4128,
      "ĠJournal": 4129,
      "Ġincome": 4130,
      "Ġded": 4131,
      "ĠChe": 4132,
      "Ġshowed": 4133,
      "Ġvalu": 4134,
      "Ġmetal": 4135,
      "ĠUN": 4136,
      "ĠDes": 4137,
      "Ġspect": 4138,
      "ĠManagement": 4139,
      "Ġeight": 4140,
      "Ġreports": 4141,
      "reet": 4142,
      "Ġexpert": 4143,
      "Ġast": 4144,
      "Ġcycle": 4145,
      "Ġbecoming": 4146,
      "Ġcomfort": 4147,
      "Ġcommercial": 4148,
      "Ġheavy": 4149,
      "Ġalternative": 4150,
      "Ġconflict": 4151,
      "ĠBecause": 4152,
      "Ġrelevant": 4153,
      "Ġrepe": 4154,
      "ogle": 4155,
      "erences": 4156,
      "ĠJust": 4157,
      "Ġsetting": 4158,
      "Ġreality": 4159,
      "iences": 4160,
      "Ġevol": 4161,
      "iny": 4162,
      "Ġ22": 4163,
      "Ġversion": 4164,
      "ĠOrgan": 4165,
      "osystem": 4166,
      "ĠAlso": 4167,
      "ĠEnvironment": 4168,
      "Ġglass": 4169,
      "Ġblue": 4170,
      "lege": 4171,
      "ĠTherefore": 4172,
      "ulum": 4173,
      "Ġdogs": 4174,
      "Ġchance": 4175,
      "Ġcharacteristics": 4176,
      "Ġmotiv": 4177,
      "Ġinternal": 4178,
      "Ġtrig": 4179,
      "Ġdisorder": 4180,
      "Ġnuclear": 4181,
      "ĠLaw": 4182,
      "ĠDNA": 4183,
      "Ġdepression": 4184,
      "era": 4185,
      "char": 4186,
      "Ġoption": 4187,
      "Ġobserved": 4188,
      "Ġ2009": 4189,
      "Ġinflamm": 4190,
      "Ġdefined": 4191,
      "ĠPlan": 4192,
      "Ġinsect": 4193,
      "ĠDecember": 4194,
      "ĠSpec": 4195,
      "Ġelectricity": 4196,
      "Ġagg": 4197,
      "Ġtemperatures": 4198,
      "ĠLondon": 4199,
      "70": 4200,
      "unction": 4201,
      "ĠLet": 4202,
      "Ġliqu": 4203,
      "ĠNet": 4204,
      "Ġupd": 4205,
      "ĠMex": 4206,
      "Ġfemale": 4207,
      "ĠAustralia": 4208,
      "Ġchanging": 4209,
      "Ġinvolve": 4210,
      "othes": 4211,
      "Ġimmediately": 4212,
      "Ġtopic": 4213,
      "rab": 4214,
      "ĠTest": 4215,
      "Ġstream": 4216,
      "Ġresulting": 4217,
      "Ġprinciples": 4218,
      "Ġhuge": 4219,
      "Ġexhib": 4220,
      "Ġprepar": 4221,
      "Ġscen": 4222,
      "Ġcausing": 4223,
      "Ġconnected": 4224,
      "Ġoperation": 4225,
      "Ġbelieved": 4226,
      "Ġsuggests": 4227,
      "ĠRoman": 4228,
      "ĠSan": 4229,
      "porary": 4230,
      "Ġtooth": 4231,
      "Ġgir": 4232,
      "Ġ26": 4233,
      "Ġworked": 4234,
      "Ġsurvey": 4235,
      "Ġequal": 4236,
      "Ġsave": 4237,
      "rome": 4238,
      "Ġload": 4239,
      "ĠNow": 4240,
      "Ġextremely": 4241,
      "SA": 4242,
      "Ġiron": 4243,
      "cast": 4244,
      "Ġcombination": 4245,
      "Ġjoint": 4246,
      "Ġflex": 4247,
      "Ġintelligence": 4248,
      "alt": 4249,
      "ĠFl": 4250,
      "Ġoffice": 4251,
      "Un": 4252,
      "tical": 4253,
      "ĠRel": 4254,
      "Ġawareness": 4255,
      "Ġgave": 4256,
      "zz": 4257,
      "28": 4258,
      "order": 4259,
      "Ġ2008": 4260,
      "Ġvill": 4261,
      "Ġnames": 4262,
      "Ġ2016": 4263,
      "Ġbud": 4264,
      "âĢĿ,": 4265,
      "Ġassessment": 4266,
      "Ġdivid": 4267,
      "Ġdecades": 4268,
      "Ġappears": 4269,
      "Ġdepending": 4270,
      "ruary": 4271,
      "Ġbed": 4272,
      "Ġspring": 4273,
      "Ġchurch": 4274,
      "Ġdrive": 4275,
      "Ġbank": 4276,
      "Ġprocessing": 4277,
      "Ġfavor": 4278,
      "Ġ+": 4279,
      "Ġwatch": 4280,
      "ĠCounty": 4281,
      "Ġensuring": 4282,
      "Ġperhaps": 4283,
      "ĠUnion": 4284,
      "Ġfrequently": 4285,
      "Ġmaintenance": 4286,
      "Ġboard": 4287,
      "RO": 4288,
      "Ġrelease": 4289,
      "Ġmilk": 4290,
      "urt": 4291,
      "29": 4292,
      "Ġmap": 4293,
      "Ġdri": 4294,
      "Ġtim": 4295,
      "Ġstar": 4296,
      "Ġvulner": 4297,
      "Ġbone": 4298,
      "Ġparticipants": 4299,
      "Ġcitizens": 4300,
      "eces": 4301,
      "Ġclinical": 4302,
      "Ġprefer": 4303,
      "Ġbodies": 4304,
      "Ġdistribution": 4305,
      "Ġfields": 4306,
      "Ġdidn": 4307,
      "ĠST": 4308,
      "son": 4309,
      "Ġwrong": 4310,
      "Ġpicture": 4311,
      "Ġwidely": 4312,
      "Ġencourage": 4313,
      "Ġassum": 4314,
      "Ġproperly": 4315,
      "Ġdisorders": 4316,
      "Ġtrib": 4317,
      "Ġpick": 4318,
      "wards": 4319,
      "Ġtreated": 4320,
      "Ġap": 4321,
      "Ġ28": 4322,
      "Ġmedicine": 4323,
      "Ġthousands": 4324,
      "Ġseparate": 4325,
      "Ġconsult": 4326,
      "Ġpredict": 4327,
      "Ġneu": 4328,
      "pris": 4329,
      "Ġorganic": 4330,
      "Ġhighest": 4331,
      "ĠWestern": 4332,
      "Ġcand": 4333,
      "ulating": 4334,
      "Ġinitial": 4335,
      "ĠNovember": 4336,
      "asion": 4337,
      "ĠArch": 4338,
      "anging": 4339,
      "Ġexcell": 4340,
      "Ġnative": 4341,
      "Ġsector": 4342,
      "Ġimproved": 4343,
      "Ġlayer": 4344,
      "Ġphen": 4345,
      "Ġpassed": 4346,
      "ih": 4347,
      "ĠSub": 4348,
      "HE": 4349,
      "35": 4350,
      "raw": 4351,
      "Ġbattle": 4352,
      "Ġchronic": 4353,
      "comes": 4354,
      "amental": 4355,
      "Ġapproximately": 4356,
      "edia": 4357,
      "Ġoxygen": 4358,
      "Ġhappen": 4359,
      "Ġhelping": 4360,
      "Ġcris": 4361,
      "Ġgames": 4362,
      "ĠRem": 4363,
      "uration": 4364,
      "Ġclassroom": 4365,
      "Ġreplace": 4366,
      "Ġriver": 4367,
      "All": 4368,
      "ube": 4369,
      "However": 4370,
      "Ġdistinct": 4371,
      "ressive": 4372,
      "Ġstore": 4373,
      "Ġperformed": 4374,
      "Ġ27": 4375,
      "ager": 4376,
      "cont": 4377,
      "Ġready": 4378,
      "ĠDevelopment": 4379,
      "ĠGermany": 4380,
      "Ġfailure": 4381,
      "Ġexperim": 4382,
      "Ġexcept": 4383,
      "Ġcore": 4384,
      "Ġtechnique": 4385,
      "hetic": 4386,
      "Ġinfrastructure": 4387,
      "Ġsac": 4388,
      "After": 4389,
      "Ġweap": 4390,
      "ĠWork": 4391,
      "gypt": 4392,
      "imens": 4393,
      "Ġcontrast": 4394,
      "Ġdesp": 4395,
      "ĠHouse": 4396,
      "ographic": 4397,
      "Ġsituations": 4398,
      "ĠCollege": 4399,
      "Ġintroduced": 4400,
      "Ġopin": 4401,
      "Ġexperts": 4402,
      "Ġeventually": 4403,
      "Ġstarting": 4404,
      "Ġmanufacture": 4405,
      "Ġbuildings": 4406,
      "Ġtour": 4407,
      "Ġbusinesses": 4408,
      "pped": 4409,
      "met": 4410,
      "ĠData": 4411,
      "Ġvaluable": 4412,
      "Ġhomes": 4413,
      "ken": 4414,
      "ĠThus": 4415,
      "Ġjournal": 4416,
      "ishing": 4417,
      "Ġbreast": 4418,
      "Ġseek": 4419,
      "che": 4420,
      "Ġleadership": 4421,
      "Ġpul": 4422,
      "place": 4423,
      "Ġ195": 4424,
      "Ġbuy": 4425,
      "ifying": 4426,
      "Ġesc": 4427,
      "Ġactual": 4428,
      "Ġmonitoring": 4429,
      "Ġadvantage": 4430,
      "hors": 4431,
      "Ġhorm": 4432,
      "uses": 4433,
      "Ġacademic": 4434,
      "Ġfigure": 4435,
      "efore": 4436,
      "uting": 4437,
      "iant": 4438,
      "Ġslight": 4439,
      ");": 4440,
      "Im": 4441,
      "Ġlearned": 4442,
      "ky": 4443,
      "orge": 4444,
      "Ġemail": 4445,
      "erate": 4446,
      "Ġkid": 4447,
      "Ġinfections": 4448,
      "ĠIts": 4449,
      "Ġfaith": 4450,
      "ĠPublic": 4451,
      "ĠFrance": 4452,
      "anch": 4453,
      "Ġinput": 4454,
      "Ġign": 4455,
      "ĠSociety": 4456,
      "Ġinfluen": 4457,
      "Ġsav": 4458,
      "Ġfeeling": 4459,
      "ificial": 4460,
      "Ġspeech": 4461,
      "They": 4462,
      "Ġves": 4463,
      "bed": 4464,
      "Ġpractical": 4465,
      "Ġsample": 4466,
      "udd": 4467,
      "Ġcontinues": 4468,
      "Ġthr": 4469,
      "Ġgraph": 4470,
      "ĠAssociation": 4471,
      "Ġconcepts": 4472,
      "Ġexperienced": 4473,
      "clus": 4474,
      "uit": 4475,
      "Ġpresented": 4476,
      "Ġrecords": 4477,
      "oma": 4478,
      "Ġcoord": 4479,
      "ĠOF": 4480,
      "Ġcreation": 4481,
      "apers": 4482,
      "Ġliterature": 4483,
      "roup": 4484,
      "Ġinjury": 4485,
      "Â°": 4486,
      "onds": 4487,
      "ĠOff": 4488,
      "Ġtruth": 4489,
      "olid": 4490,
      "Ġnovel": 4491,
      "Ġleads": 4492,
      "Ġindependent": 4493,
      "Ġoutput": 4494,
      "ĠRef": 4495,
      "Ġvitamin": 4496,
      "rum": 4497,
      "Ġbackground": 4498,
      "ĠPal": 4499,
      "rant": 4500,
      "Ġtechnical": 4501,
      "ocal": 4502,
      "Ġradio": 4503,
      "atically": 4504,
      "ĠLat": 4505,
      "Con": 4506,
      "mal": 4507,
      "Ġpopulations": 4508,
      "Ġterrit": 4509,
      "DA": 4510,
      "Ġvehicle": 4511,
      "ĠInternet": 4512,
      "Ġ80": 4513,
      "Ġsecure": 4514,
      "Ġseven": 4515,
      "do": 4516,
      "Ġarm": 4517,
      "ĠSocial": 4518,
      "Ġfig": 4519,
      "ĠDon": 4520,
      "Ġdrop": 4521,
      "Ġ:---": 4522,
      "Ġelimin": 4523,
      "Ġisol": 4524,
      "Ġpric": 4525,
      "riculum": 4526,
      "ĠAng": 4527,
      "Ġexperiment": 4528,
      "Ġcircum": 4529,
      "Ġhom": 4530,
      "ĠGovernment": 4531,
      "Ġengineering": 4532,
      "Ġecosystem": 4533,
      "Ġclearly": 4534,
      "Ġhousehold": 4535,
      "Ġviolence": 4536,
      "ĠGreen": 4537,
      "Ġideal": 4538,
      "Ġparty": 4539,
      "Ġ2017": 4540,
      "ieties": 4541,
      "zing": 4542,
      "Ġmale": 4543,
      "ander": 4544,
      "Ġcampaign": 4545,
      "Ġseeds": 4546,
      "Ġburn": 4547,
      "Ġprepared": 4548,
      "Ġsexual": 4549,
      "ĠJewish": 4550,
      "ĠDirect": 4551,
      "ĠEgypt": 4552,
      "ĠOnce": 4553,
      "Ġfamous": 4554,
      "ologist": 4555,
      "Ġtro": 4556,
      "ss": 4557,
      "Ġpip": 4558,
      "Ġflood": 4559,
      "ĠProgram": 4560,
      "ĠPhil": 4561,
      "Ġcomprehensive": 4562,
      "Ġsurgery": 4563,
      "leg": 4564,
      "Ġ2007": 4565,
      "ĠProject": 4566,
      "ĠLord": 4567,
      "Ġcovered": 4568,
      "ophy": 4569,
      "Ġrevolution": 4570,
      "Ġdiverse": 4571,
      "Ġmag": 4572,
      "hi": 4573,
      "going": 4574,
      "Ġjourney": 4575,
      "Ġunivers": 4576,
      "ingly": 4577,
      "Ġstatement": 4578,
      "Ġreference": 4579,
      "Ġrenew": 4580,
      "ĠStr": 4581,
      "ĠMat": 4582,
      "Ġthick": 4583,
      "Ġaid": 4584,
      "ND": 4585,
      "aint": 4586,
      "ias": 4587,
      "ping": 4588,
      "Ġelectrical": 4589,
      "ĠCur": 4590,
      "199": 4591,
      "Ġhttps": 4592,
      "Ġsignal": 4593,
      "ĠRev": 4594,
      "Ġshared": 4595,
      "Ġdangerous": 4596,
      "Ġdiss": 4597,
      "Ġsolid": 4598,
      "Ġlegisl": 4599,
      "ault": 4600,
      "ios": 4601,
      "Ġphase": 4602,
      "Ġâ": 4603,
      "Ġnutrients": 4604,
      "Ġtrad": 4605,
      "ĠFebruary": 4606,
      "omas": 4607,
      "Ġpollution": 4608,
      "Ġ2000": 4609,
      "opy": 4610,
      "Ġfinding": 4611,
      "raction": 4612,
      "Ġreferred": 4613,
      "Ġ2020": 4614,
      "ieces": 4615,
      "Ġcert": 4616,
      "rep": 4617,
      "Ġgets": 4618,
      "Ġconservation": 4619,
      "ĠAsia": 4620,
      "Ph": 4621,
      "Ġmessage": 4622,
      "Ġmic": 4623,
      "Ġlinked": 4624,
      "Ġmotor": 4625,
      "ĠJapanese": 4626,
      "Ġvessel": 4627,
      "36": 4628,
      "Ġprocedure": 4629,
      "Ġanyone": 4630,
      "Ġreleased": 4631,
      "Ġdestroy": 4632,
      "Ġdetailed": 4633,
      "Ġnotes": 4634,
      "Ġamounts": 4635,
      "tee": 4636,
      "Ġformation": 4637,
      "Ġmentioned": 4638,
      "ĠHuman": 4639,
      "acing": 4640,
      "Ġrecy": 4641,
      "Ġfilm": 4642,
      "Ġattacks": 4643,
      "ulf": 4644,
      "Ġfollows": 4645,
      "Ġsmart": 4646,
      "Ġmaintaining": 4647,
      "Sh": 4648,
      "Ġmist": 4649,
      "Ġminor": 4650,
      "ij": 4651,
      "ĠSupp": 4652,
      "Ġoperating": 4653,
      "ĠFood": 4654,
      "Ġaccurate": 4655,
      "rows": 4656,
      "Ġfreedom": 4657,
      "onomic": 4658,
      "Ġfacilit": 4659,
      "Ġdiscussion": 4660,
      "ING": 4661,
      "EL": 4662,
      "Ġvehicles": 4663,
      "Ġestimated": 4664,
      "ework": 4665,
      "Ġinstitutions": 4666,
      "espite": 4667,
      "Why": 4668,
      "Ġbottom": 4669,
      "nes": 4670,
      "inate": 4671,
      "Ġresponsibility": 4672,
      "rence": 4673,
      "Ġmoved": 4674,
      "Ġhappens": 4675,
      "Ġtreatments": 4676,
      "Ġimpacts": 4677,
      "Ġunf": 4678,
      "Sp": 4679,
      "ologists": 4680,
      "ĠCouncil": 4681,
      "Ġappe": 4682,
      "Ġfine": 4683,
      "Ġconcern": 4684,
      "Ġcopy": 4685,
      "According": 4686,
      "Ġmeeting": 4687,
      "Ġmoist": 4688,
      "Ġspot": 4689,
      "rest": 4690,
      "co": 4691,
      "Ġtrou": 4692,
      "ald": 4693,
      "Ġgender": 4694,
      "ĠChildren": 4695,
      "Ġcontinuous": 4696,
      "Ġinvestment": 4697,
      "Ġtail": 4698,
      "Ġleader": 4699,
      "tered": 4700,
      "antic": 4701,
      "ĠCongress": 4702,
      "Res": 4703,
      "Ġremoved": 4704,
      "Ġsynt": 4705,
      "Ġmanner": 4706,
      "rieved": 4707,
      "Ġoutcomes": 4708,
      "Ġpurposes": 4709,
      "\",": 4710,
      "Ġprimarily": 4711,
      "Ġsuitable": 4712,
      "Ġdatab": 4713,
      "tion": 4714,
      "Here": 4715,
      "Ġcredit": 4716,
      "Ġocean": 4717,
      "Ġrecovery": 4718,
      "Ġexposed": 4719,
      "key": 4720,
      "Ġinterpret": 4721,
      "Ġdigest": 4722,
      "Ġsand": 4723,
      "board": 4724,
      "Ġdefic": 4725,
      "Ġdegrees": 4726,
      "Ġattrib": 4727,
      "Ġexternal": 4728,
      "Ġdoub": 4729,
      "Ġcognitive": 4730,
      "Ġkeeping": 4731,
      "45": 4732,
      "Ġvegetables": 4733,
      "Ġvolume": 4734,
      "ĠOb": 4735,
      "Ġpresc": 4736,
      "Ġidentity": 4737,
      "rete": 4738,
      "OS": 4739,
      "Ġconsequences": 4740,
      "ĠService": 4741,
      "Ġfrequency": 4742,
      "Ġtips": 4743,
      "Ġbelong": 4744,
      "Ġcareer": 4745,
      "orith": 4746,
      "CC": 4747,
      "Ġpal": 4748,
      "ample": 4749,
      "Ġreprodu": 4750,
      "Ġbeautiful": 4751,
      "enses": 4752,
      "Ġseed": 4753,
      "essor": 4754,
      "Ġdiscover": 4755,
      "Ġinterests": 4756,
      "onic": 4757,
      "Ġinvent": 4758,
      "Ġfocused": 4759,
      "Ġhelped": 4760,
      "Ġnotice": 4761,
      "Ġclasses": 4762,
      "vironments": 4763,
      "Ġupper": 4764,
      "Ġexactly": 4765,
      "Ġmit": 4766,
      "ĠFore": 4767,
      "ped": 4768,
      "alysis": 4769,
      "ĠMil": 4770,
      "Ġincreasingly": 4771,
      "Ġextensive": 4772,
      "ĠMary": 4773,
      "Ġreduction": 4774,
      "38": 4775,
      "Ġcollege": 4776,
      "Ġimproving": 4777,
      "Ġpotentially": 4778,
      "Ġexpression": 4779,
      "ĠVol": 4780,
      "ida": 4781,
      "Ġther": 4782,
      "Ġcharge": 4783,
      "Ġmeat": 4784,
      "Ġnoted": 4785,
      "mark": 4786,
      "ĠMor": 4787,
      "Ġhearing": 4788,
      "Ġkept": 4789,
      "ams": 4790,
      "Ġhear": 4791,
      "Ġplays": 4792,
      "Ġmostly": 4793,
      "Ġannual": 4794,
      "ortunately": 4795,
      "Ġchemicals": 4796,
      "Ġsche": 4797,
      "Ġwanted": 4798,
      "Ġwealth": 4799,
      "Ġcomponent": 4800,
      "Ġpresident": 4801,
      "ĠFurther": 4802,
      "Ġmanufacturing": 4803,
      "Ġgrass": 4804,
      "Ġsatis": 4805,
      "enth": 4806,
      "Ġlung": 4807,
      "Ġdetermined": 4808,
      "Ġfarmers": 4809,
      "Ġship": 4810,
      "ĠFound": 4811,
      "Ġbattery": 4812,
      "igation": 4813,
      "ux": 4814,
      "Ġ90": 4815,
      "Ġeggs": 4816,
      "Ġdiagnosis": 4817,
      "ĠTur": 4818,
      "Ġradiation": 4819,
      "Ġreaction": 4820,
      "Ġclick": 4821,
      "Ġrefers": 4822,
      "cers": 4823,
      "Ġgrant": 4824,
      "mat": 4825,
      "OT": 4826,
      "Ġvictim": 4827,
      "Ġgene": 4828,
      "Ġrein": 4829,
      "ooth": 4830,
      "Ġfol": 4831,
      "oking": 4832,
      "Ġcompleted": 4833,
      "Ġheight": 4834,
      "Ġauthors": 4835,
      "rapy": 4836,
      "orial": 4837,
      "eters": 4838,
      "Ġemergency": 4839,
      "ĠSer": 4840,
      "rog": 4841,
      "ressed": 4842,
      "oyal": 4843,
      "Ġconver": 4844,
      "Ġplease": 4845,
      "ĠBat": 4846,
      "Ġpreviously": 4847,
      "teries": 4848,
      "Ġspecifically": 4849,
      "Many": 4850,
      "MS": 4851,
      "ĠMark": 4852,
      "Ġboost": 4853,
      "icians": 4854,
      "ĠMich": 4855,
      "iling": 4856,
      "Ġfaster": 4857,
      "uing": 4858,
      "Ġauthority": 4859,
      "Ġturned": 4860,
      "Ġ**": 4861,
      "ĠControl": 4862,
      "ĠCourt": 4863,
      "Ġreb": 4864,
      "Ġreserv": 4865,
      "Ġconv": 4866,
      "Ġfacilities": 4867,
      "Ġadvice": 4868,
      "ndrome": 4869,
      "Ġhaz": 4870,
      "Ġrace": 4871,
      "Ġmaster": 4872,
      "Ġsem": 4873,
      "Ġinterested": 4874,
      "Ġatmosphere": 4875,
      "active": 4876,
      "ĠHel": 4877,
      "ball": 4878,
      "Ġmel": 4879,
      "ĠJames": 4880,
      "Ġ2018": 4881,
      "eline": 4882,
      "Ġexcellent": 4883,
      "Our": 4884,
      "anges": 4885,
      "Ġlived": 4886,
      "ĠCentral": 4887,
      "ointed": 4888,
      "Ġlanguages": 4889,
      "39": 4890,
      "ĠGreek": 4891,
      "umn": 4892,
      "37": 4893,
      "ĠSee": 4894,
      "Ġclos": 4895,
      "igenous": 4896,
      "Ġmuscles": 4897,
      "ĠPhys": 4898,
      "Ġincl": 4899,
      "Ġengage": 4900,
      "VID": 4901,
      "Ġvast": 4902,
      "eria": 4903,
      "Ġtum": 4904,
      "ĠWeb": 4905,
      "Ġfib": 4906,
      "akers": 4907,
      "Ġinternet": 4908,
      "Ġaffects": 4909,
      "Ġ70": 4910,
      "Ġemployees": 4911,
      "ĠTechnology": 4912,
      "ya": 4913,
      "ĠElect": 4914,
      "Ġnations": 4915,
      "Ġadequ": 4916,
      "Ġsyn": 4917,
      "Ġprocedures": 4918,
      "ĠWhy": 4919,
      "Ġpp": 4920,
      "Ġfundamental": 4921,
      "ĠAdditionally": 4922,
      "ĠDel": 4923,
      "Ġdram": 4924,
      "Ġ29": 4925,
      "Ġenvironments": 4926,
      "akistan": 4927,
      "Ġnetworks": 4928,
      "down": 4929,
      "Ġrul": 4930,
      "lick": 4931,
      "Ġ2006": 4932,
      "Ġlandscape": 4933,
      "ĠDavid": 4934,
      "Ġdental": 4935,
      "vis": 4936,
      "Ġindicate": 4937,
      "Ġgoods": 4938,
      "ipped": 4939,
      "Ġkilled": 4940,
      "Ġoral": 4941,
      "roph": 4942,
      "Ġserved": 4943,
      "TS": 4944,
      "Ġintended": 4945,
      "Ġfeelings": 4946,
      "ĠRepublic": 4947,
      "Ġsufficient": 4948,
      "ĠIsl": 4949,
      "Ġregularly": 4950,
      "ĠSpanish": 4951,
      "Ġprofessionals": 4952,
      "ĠNav": 4953,
      "ĠSun": 4954,
      "ĠLa": 4955,
      "rates": 4956,
      "Ġpieces": 4957,
      "ormal": 4958,
      "Ġvalid": 4959,
      "ĠCle": 4960,
      "Ġpun": 4961,
      "Ġround": 4962,
      "Ġmathemat": 4963,
      "ventional": 4964,
      "riage": 4965,
      "Ġmaximum": 4966,
      "Ġhighlight": 4967,
      "Ġperspective": 4968,
      "athy": 4969,
      "Ġ#": 4970,
      "road": 4971,
      "Ġdie": 4972,
      "ĠEnergy": 4973,
      "Ġsurrounding": 4974,
      "Ġlifest": 4975,
      "Ġofficial": 4976,
      "Ġmainly": 4977,
      "ĠMuseum": 4978,
      "Ġsupported": 4979,
      "Ġstraight": 4980,
      "Ġdeliver": 4981,
      "Ġyellow": 4982,
      "Ġwel": 4983,
      "iverse": 4984,
      "Ġperiods": 4985,
      "34": 4986,
      "Ġaircraft": 4987,
      "Ġgun": 4988,
      "Ġdepends": 4989,
      "Ġcoal": 4990,
      "Ġpros": 4991,
      "Ġwear": 4992,
      "ĠEvery": 4993,
      "ĠBel": 4994,
      "ĠMal": 4995,
      "Ġdescribe": 4996,
      "ĠLearning": 4997,
      "rich": 4998,
      "Ġheard": 4999,
      "Ind": 5000,
      "stitution": 5001,
      "Ġarticles": 5002,
      "Ġsort": 5003,
      "Ġliquid": 5004,
      "och": 5005,
      "rans": 5006,
      "Ġalgorith": 5007,
      "RI": 5008,
      "ĠEngine": 5009,
      "Ġmath": 5010,
      "rosc": 5011,
      "Ġlov": 5012,
      "rier": 5013,
      "oper": 5014,
      "Ġcombined": 5015,
      "kin": 5016,
      "ĠMount": 5017,
      "rust": 5018,
      "Ġdecided": 5019,
      "Ġsusp": 5020,
      "ta": 5021,
      "Ġnor": 5022,
      "Ġstation": 5023,
      "Ġvaccine": 5024,
      "ibilities": 5025,
      "tes": 5026,
      "ĠDem": 5027,
      "Ġmeant": 5028,
      "Ġjobs": 5029,
      "ĠIN": 5030,
      "Ġflowers": 5031,
      "lease": 5032,
      "Ġhour": 5033,
      "ags": 5034,
      "Ġroutine": 5035,
      "Ġreligion": 5036,
      "cling": 5037,
      "Ġfost": 5038,
      "Ġsong": 5039,
      "Ġbird": 5040,
      "Ġcast": 5041,
      "Ġdepth": 5042,
      "umin": 5043,
      "Ġyouth": 5044,
      "Ġproposed": 5045,
      "Ġcere": 5046,
      "Ġdespite": 5047,
      "Ġvent": 5048,
      "ey": 5049,
      "ĠPort": 5050,
      "Ġparam": 5051,
      "Ġthoughts": 5052,
      "pen": 5053,
      "US": 5054,
      "ishes": 5055,
      "Ġisland": 5056,
      "nic": 5057,
      "Ġchain": 5058,
      "Ġconclud": 5059,
      "Ġvolunt": 5060,
      "Ġcrisis": 5061,
      "Ġphenomen": 5062,
      "gra": 5063,
      "Ġlic": 5064,
      "inent": 5065,
      "aturally": 5066,
      "Ġinflammation": 5067,
      "alle": 5068,
      "Ġgod": 5069,
      "ĠBen": 5070,
      "Ġspiritual": 5071,
      "Ġdrinking": 5072,
      "Ġspent": 5073,
      "Ġapproaches": 5074,
      "Ġallerg": 5075,
      "Ġdriving": 5076,
      "acters": 5077,
      "Another": 5078,
      "Ġmedications": 5079,
      "Ġ2005": 5080,
      "ĠTex": 5081,
      "Ġbegins": 5082,
      "Ġhospital": 5083,
      "osite": 5084,
      "Ġgenes": 5085,
      "othing": 5086,
      "Ġchann": 5087,
      "arrow": 5088,
      "Ġbright": 5089,
      "ĠInformation": 5090,
      "Ġfruits": 5091,
      "Ġwhom": 5092,
      "Ġtoxic": 5093,
      "ded": 5094,
      "Ġroll": 5095,
      "ĠEv": 5096,
      "Ġwet": 5097,
      "ĠStudents": 5098,
      "Ġ190": 5099,
      "Ġbrief": 5100,
      "Ġgar": 5101,
      "Ġshar": 5102,
      "astern": 5103,
      "itness": 5104,
      "otic": 5105,
      "itc": 5106,
      "Ġmobile": 5107,
      "Ġsaying": 5108,
      "Ġdefinition": 5109,
      "Ġmer": 5110,
      "ĠClass": 5111,
      "inding": 5112,
      "ĠBas": 5113,
      "Ġkill": 5114,
      "Ġcorresp": 5115,
      "Ġdut": 5116,
      "raining": 5117,
      "Ġtopics": 5118,
      "ĠDi": 5119,
      "Now": 5120,
      "Ġmort": 5121,
      "Ġcenturies": 5122,
      "Ġextent": 5123,
      "Ġreached": 5124,
      "hether": 5125,
      "Ġperman": 5126,
      "Ġsensitive": 5127,
      "ears": 5128,
      "Ġcurriculum": 5129,
      "Ġlooks": 5130,
      "Ġ---": 5131,
      "with": 5132,
      "Ġpref": 5133,
      "ĠSing": 5134,
      "Ġelev": 5135,
      "Although": 5136,
      "Ġgrade": 5137,
      "bi": 5138,
      "Ġvot": 5139,
      "itage": 5140,
      "Ġhop": 5141,
      "pass": 5142,
      "ĠRetrieved": 5143,
      "Ġsatell": 5144,
      "Ġpark": 5145,
      "Ġvoice": 5146,
      "Ġclim": 5147,
      "ĠPower": 5148,
      "Ġmetab": 5149,
      "Ġbeneficial": 5150,
      "celer": 5151,
      "Ġhelpful": 5152,
      "Ġrequest": 5153,
      "Ġofficers": 5154,
      "Ġoffered": 5155,
      "ĠUsing": 5156,
      "Cl": 5157,
      "75": 5158,
      "ixt": 5159,
      "ĠGeorge": 5160,
      "Ġspend": 5161,
      "ĠSaf": 5162,
      "Ġobvious": 5163,
      "wood": 5164,
      "Ġagricultural": 5165,
      "ĠSpace": 5166,
      "resents": 5167,
      "Ġlesson": 5168,
      "Ġ35": 5169,
      "Pl": 5170,
      "Ġcollected": 5171,
      "Ġban": 5172,
      "That": 5173,
      "Ġsquare": 5174,
      "Ġblog": 5175,
      "ompl": 5176,
      "Ġsen": 5177,
      "acific": 5178,
      "Ġhit": 5179,
      "Ġroots": 5180,
      "Ġalign": 5181,
      "ĠâĢ¦": 5182,
      "Ġstorm": 5183,
      "alled": 5184,
      "Ġfamiliar": 5185,
      "Ġsecret": 5186,
      "field": 5187,
      "ĠPaul": 5188,
      "Ġdiam": 5189,
      "Ġfluid": 5190,
      "Ġfacts": 5191,
      "ĠPakistan": 5192,
      "ĠCD": 5193,
      "iated": 5194,
      "Ġenemy": 5195,
      "Ġsamples": 5196,
      "Te": 5197,
      "Ġparticles": 5198,
      "Ġdro": 5199,
      "ĠOut": 5200,
      "Ġsubstant": 5201,
      "100": 5202,
      "ĠFre": 5203,
      "Ġingred": 5204,
      "Ġcontrolled": 5205,
      "mp": 5206,
      "Ġlargely": 5207,
      "Ġrecorded": 5208,
      "Ġmovements": 5209,
      "ĠDist": 5210,
      "Ġcyber": 5211,
      "osen": 5212,
      "Ġarmy": 5213,
      "Ġfelt": 5214,
      "Ġlatest": 5215,
      "Ġplayed": 5216,
      "aks": 5217,
      "Ġlib": 5218,
      "Ġapprec": 5219,
      "Ġfoss": 5220,
      "ĠCath": 5221,
      "Ġswitch": 5222,
      "Ġresist": 5223,
      "Ġraised": 5224,
      "Ġsubsequ": 5225,
      "Ġemotions": 5226,
      "Ġenable": 5227,
      "ĠMain": 5228,
      "ĠRussia": 5229,
      "Ġsounds": 5230,
      "Ġnerv": 5231,
      "ĠMet": 5232,
      "Ġ*": 5233,
      "abric": 5234,
      "Ġplaying": 5235,
      "isher": 5236,
      "Ġhyper": 5237,
      "Ġcolors": 5238,
      "ria": 5239,
      "Ġliver": 5240,
      "za": 5241,
      "Ġsubjects": 5242,
      "Ġnarr": 5243,
      "Ġconsists": 5244,
      "uls": 5245,
      "Ġsimpl": 5246,
      "Ġharmful": 5247,
      "Ġmorning": 5248,
      "Ġregulations": 5249,
      "Ġpages": 5250,
      "gment": 5251,
      "ĠArab": 5252,
      "Ġcoin": 5253,
      "Ġdiversity": 5254,
      "Ġwonder": 5255,
      "ĠIsland": 5256,
      "Ġbudget": 5257,
      "ossible": 5258,
      "Ġkn": 5259,
      "ician": 5260,
      "78": 5261,
      "Ġtraffic": 5262,
      "Ġshowing": 5263,
      "Ġpret": 5264,
      "aughter": 5265,
      "well": 5266,
      "ĠWhite": 5267,
      "struct": 5268,
      "Ġcharacters": 5269,
      "Ġsteel": 5270,
      "ek": 5271,
      "Ġ2019": 5272,
      "Ġfort": 5273,
      "oughly": 5274,
      "igate": 5275,
      "Ġpush": 5276,
      "Ġguidelines": 5277,
      "Ġminimum": 5278,
      "Ġprecise": 5279,
      "Ġgenerate": 5280,
      "Ġrepresents": 5281,
      "Ġsalt": 5282,
      "Ġinstrument": 5283,
      "ĠBoth": 5284,
      "Ġappearance": 5285,
      "ounced": 5286,
      "'ll": 5287,
      "aker": 5288,
      "Ġstock": 5289,
      "Ġconcerned": 5290,
      "IL": 5291,
      "inder": 5292,
      "Ġprofessor": 5293,
      "free": 5294,
      "ĠRober": 5295,
      "New": 5296,
      "uilding": 5297,
      "Ġgovernments": 5298,
      "Ġneut": 5299,
      "Ġconsid": 5300,
      "umber": 5301,
      "Ġrapidly": 5302,
      "atric": 5303,
      "Ġsan": 5304,
      "Ġcreative": 5305,
      "Ġadding": 5306,
      "Ġsus": 5307,
      "ĠUp": 5308,
      "32": 5309,
      "Ġstages": 5310,
      "Ġkinds": 5311,
      "Ġnorthern": 5312,
      "65": 5313,
      "Ġcircumst": 5314,
      "ĠSen": 5315,
      "ails": 5316,
      "Ġlessons": 5317,
      "Ġonto": 5318,
      "Ġsouthern": 5319,
      "Ġtrain": 5320,
      "roke": 5321,
      "Ġfirm": 5322,
      "Ġpil": 5323,
      "ĠTreat": 5324,
      "Ġprices": 5325,
      "Ġtaught": 5326,
      "ĠAS": 5327,
      "ĠStand": 5328,
      "Ġdial": 5329,
      "ago": 5330,
      "arant": 5331,
      "Ġrecognize": 5332,
      "Ġexistence": 5333,
      "ĠNAS": 5334,
      "eper": 5335,
      "âĢĻ.": 5336,
      "ypes": 5337,
      "Ġcardi": 5338,
      "Ġwire": 5339,
      "Ġpu": 5340,
      "olute": 5341,
      "ĠAcad": 5342,
      "olars": 5343,
      "Ġexchange": 5344,
      "Ġaren": 5345,
      "ras": 5346,
      "Ġforced": 5347,
      "ĠMiss": 5348,
      "iced": 5349,
      "Ġmere": 5350,
      "ĠCivil": 5351,
      "ĠMars": 5352,
      "Ġformat": 5353,
      "bing": 5354,
      "Ġwaters": 5355,
      "ĠCOVID": 5356,
      "From": 5357,
      "Ġclosely": 5358,
      "ĠDisc": 5359,
      "roid": 5360,
      "Ġmotion": 5361,
      "ache": 5362,
      "Most": 5363,
      "ĠMexico": 5364,
      "Ġcapable": 5365,
      "Ġremained": 5366,
      "Ġpump": 5367,
      "ĠMedical": 5368,
      "oxide": 5369,
      "Ġharvest": 5370,
      "Ġchoices": 5371,
      "Ġassemb": 5372,
      "Ġfinally": 5373,
      "More": 5374,
      "Ġinterview": 5375,
      "Ġdouble": 5376,
      "ĠCommission": 5377,
      "No": 5378,
      "Ġadvoc": 5379,
      "Ġproteins": 5380,
      "ĠSecond": 5381,
      "ĠThrough": 5382,
      "Ã¡": 5383,
      "Ġlose": 5384,
      "which": 5385,
      "onomy": 5386,
      "Ġfing": 5387,
      "imal": 5388,
      "Ġthin": 5389,
      "Ġbehaviour": 5390,
      "Ġcrops": 5391,
      "Ġprotected": 5392,
      "Ġchallenging": 5393,
      "ĠMake": 5394,
      "Ġhandle": 5395,
      "Ġpregnancy": 5396,
      "Ġdoll": 5397,
      "Us": 5398,
      "Ġmedium": 5399,
      "Ġotherwise": 5400,
      "Be": 5401,
      "Ġstone": 5402,
      "Ġphone": 5403,
      "Ġlik": 5404,
      "Ġtransition": 5405,
      "Ġregional": 5406,
      "Ġcontem": 5407,
      "Ġslightly": 5408,
      "Ġsets": 5409,
      "Ġcertainly": 5410,
      "Ġsports": 5411,
      "rations": 5412,
      "Ġnit": 5413,
      "berg": 5414,
      "CE": 5415,
      "stood": 5416,
      "Ġlifestyle": 5417,
      "roc": 5418,
      "ascular": 5419,
      "flow": 5420,
      "Ġflav": 5421,
      "Ġjustice": 5422,
      "Ġachieved": 5423,
      "ĠRich": 5424,
      "ĠLife": 5425,
      "ĠSam": 5426,
      "Ġextract": 5427,
      "inations": 5428,
      "Ġsnow": 5429,
      "Ġpaint": 5430,
      "Ġmonitor": 5431,
      "gal": 5432,
      "CS": 5433,
      "ĠDise": 5434,
      "making": 5435,
      "des": 5436,
      "CT": 5437,
      "Ġhabitat": 5438,
      "quar": 5439,
      "Ġoccurred": 5440,
      "Ġdecrease": 5441,
      "Ġmeasured": 5442,
      "Ġframework": 5443,
      "itz": 5444,
      "Ġtypical": 5445,
      "unk": 5446,
      "inant": 5447,
      "Ġcapabilities": 5448,
      "Ġaccompl": 5449,
      "Ġworldwide": 5450,
      "Ġdeploy": 5451,
      "Ġselected": 5452,
      "Ġtested": 5453,
      "Ġbow": 5454,
      "Ġbiological": 5455,
      "Ġrecognized": 5456,
      "ĠJews": 5457,
      "Ġindustries": 5458,
      "Ġfertil": 5459,
      "Ġelectronic": 5460,
      "ĠOper": 5461,
      "fall": 5462,
      "inn": 5463,
      "ĠMuslim": 5464,
      "utive": 5465,
      "ĠPen": 5466,
      "Ġcourses": 5467,
      "ĠProv": 5468,
      "Ġconscious": 5469,
      "Ġinterf": 5470,
      "Ġdiscussed": 5471,
      "Ġskill": 5472,
      "ĠToday": 5473,
      "ĠSecurity": 5474,
      "Ġbrother": 5475,
      "ĠTexas": 5476,
      "Ġstrategic": 5477,
      "ĠHIV": 5478,
      "Ġ...": 5479,
      "Ġlinks": 5480,
      ".;": 5481,
      "Ġexplains": 5482,
      "Ġparties": 5483,
      "col": 5484,
      "Ġsend": 5485,
      "Ġdocuments": 5486,
      "Ġgrown": 5487,
      "Ġletters": 5488,
      "ulin": 5489,
      "Ġconsistent": 5490,
      "Ġremote": 5491,
      "Ġsettle": 5492,
      "Ġexplained": 5493,
      "Ġagriculture": 5494,
      "Ġdivided": 5495,
      "ĠSom": 5496,
      "Ġobtained": 5497,
      "ifications": 5498,
      "Ġrural": 5499,
      "Ġprepare": 5500,
      "Ġvisible": 5501,
      "inating": 5502,
      "osal": 5503,
      "Ġkil": 5504,
      "li": 5505,
      "ĠHen": 5506,
      "Ġenab": 5507,
      "indu": 5508,
      "Ġwalls": 5509,
      "asure": 5510,
      "ĠBritain": 5511,
      "Ġwest": 5512,
      "Ġju": 5513,
      "Ġdomestic": 5514,
      "isp": 5515,
      "Ġconcentration": 5516,
      "Ġshel": 5517,
      "Ġfiles": 5518,
      "Ġsuggested": 5519,
      "Ġassistance": 5520,
      "Ġcoff": 5521,
      "Ġtouch": 5522,
      "ĠOld": 5523,
      "Ġabuse": 5524,
      "ĠInstead": 5525,
      "Ġbill": 5526,
      "Ġflat": 5527,
      "Ġnaturally": 5528,
      "Ġpolice": 5529,
      "ĠSal": 5530,
      "ĠGoogle": 5531,
      "ĠIr": 5532,
      "ague": 5533,
      "ĠMac": 5534,
      "Do": 5535,
      "Ġoffering": 5536,
      "dr": 5537,
      "Ġimplementation": 5538,
      "Ġprevention": 5539,
      "Ġprinciple": 5540,
      "Ġfle": 5541,
      "Ġdu": 5542,
      "Ġfoundation": 5543,
      "Ġprint": 5544,
      "Ġmedication": 5545,
      "Ġsupporting": 5546,
      "ario": 5547,
      "Ġexpensive": 5548,
      "win": 5549,
      "Ġstret": 5550,
      "CH": 5551,
      "gl": 5552,
      "Ġintake": 5553,
      "Ġviews": 5554,
      "Ġsignificance": 5555,
      "Ġcultiv": 5556,
      "Ġcloud": 5557,
      "Ġresidents": 5558,
      "ĠMo": 5559,
      "Ab": 5560,
      "Ġtroops": 5561,
      "ĠDet": 5562,
      "ĠHol": 5563,
      "ifies": 5564,
      "ĠJer": 5565,
      "rors": 5566,
      "agers": 5567,
      "31": 5568,
      "Ġgather": 5569,
      "Ġera": 5570,
      "Ġpossess": 5571,
      "ado": 5572,
      "Ġrecon": 5573,
      "Gen": 5574,
      "ĠPost": 5575,
      "rolog": 5576,
      "Ġinstruction": 5577,
      "Ġinformed": 5578,
      "Ġleaving": 5579,
      "ĠAtt": 5580,
      "Ġtrial": 5581,
      "ĠKnow": 5582,
      "Ġsin": 5583,
      "ĠMart": 5584,
      "ĠExpl": 5585,
      "ĠSea": 5586,
      "omy": 5587,
      "ĠSuch": 5588,
      "Ġamb": 5589,
      "Ġimmun": 5590,
      "ĠStudies": 5591,
      "osc": 5592,
      "Ġraise": 5593,
      "Ġinjuries": 5594,
      "ĠDiv": 5595,
      "Ġstem": 5596,
      "Ġcreates": 5597,
      "ĠTwo": 5598,
      "icted": 5599,
      "pping": 5600,
      "ĠDesign": 5601,
      "ĠRussian": 5602,
      "Ġselection": 5603,
      "Ġintroduction": 5604,
      "erals": 5605,
      "ĠKore": 5606,
      "long": 5607,
      "Ġfunding": 5608,
      "Ġalt": 5609,
      "ĠGroup": 5610,
      "ĠJe": 5611,
      "Ġconclusion": 5612,
      "ĠVirgin": 5613,
      "En": 5614,
      "Ġportion": 5615,
      "Ġband": 5616,
      "tage": 5617,
      "Ġsuffering": 5618,
      "Ġstated": 5619,
      "lar": 5620,
      "icks": 5621,
      "ĠÃ": 5622,
      "lements": 5623,
      "Ġfeedback": 5624,
      "Ġthor": 5625,
      "ĠMr": 5626,
      "ĠAnother": 5627,
      "Ġresponses": 5628,
      "ĠNASA": 5629,
      "Ġ2004": 5630,
      "ĠLand": 5631,
      "Ġagencies": 5632,
      "Ġrail": 5633,
      "verty": 5634,
      "48": 5635,
      "ivery": 5636,
      "Ġproport": 5637,
      "Ġshift": 5638,
      "Ġkm": 5639,
      "Ġstudied": 5640,
      "Ġprem": 5641,
      "state": 5642,
      "ĠMedicine": 5643,
      "Ġpoverty": 5644,
      "aser": 5645,
      "otal": 5646,
      "Ġguidance": 5647,
      "ĠLou": 5648,
      "Ġsurpris": 5649,
      "Ġexplan": 5650,
      "Ġcorpor": 5651,
      "Ġsoldiers": 5652,
      "Ġconfidence": 5653,
      "Ġimmig": 5654,
      "Ġimmediate": 5655,
      "99": 5656,
      "Ġartificial": 5657,
      "Ġfrag": 5658,
      "ĠCam": 5659,
      "Ġrestrict": 5660,
      "band": 5661,
      "la": 5662,
      "rid": 5663,
      "what": 5664,
      "ĠPC": 5665,
      "ĠBay": 5666,
      "Äģ": 5667,
      "ellect": 5668,
      "iability": 5669,
      "osa": 5670,
      "Ġspl": 5671,
      "Ġcutting": 5672,
      "rian": 5673,
      "Ġeffectiveness": 5674,
      "Ġmoral": 5675,
      "Ġhorse": 5676,
      "dent": 5677,
      "ĠNews": 5678,
      "ĠLatin": 5679,
      "chers": 5680,
      "Ġpig": 5681,
      "ĠCare": 5682,
      "Ġsubstance": 5683,
      "ums": 5684,
      "Ġintegr": 5685,
      "Ġafford": 5686,
      "Ġresol": 5687,
      "Ġcontaining": 5688,
      "ĠTem": 5689,
      "Ġreform": 5690,
      "ĠThomas": 5691,
      "ĠWind": 5692,
      "Ġglob": 5693,
      "BC": 5694,
      "Ġod": 5695,
      "Ġclaims": 5696,
      "Ġpaid": 5697,
      "Ġaer": 5698,
      "mary": 5699,
      "Ġmillions": 5700,
      "Ġ45": 5701,
      "Ġimper": 5702,
      "Sc": 5703,
      "Ġgreatest": 5704,
      "Ġthreats": 5705,
      "ndom": 5706,
      "erent": 5707,
      "ashion": 5708,
      "idden": 5709,
      "Ġinsights": 5710,
      "Ġgirls": 5711,
      "Ġtransportation": 5712,
      "Ġwife": 5713,
      "stream": 5714,
      "cel": 5715,
      "ĠCy": 5716,
      "oral": 5717,
      "ĠFoundation": 5718,
      "Ġsurvival": 5719,
      "Ġhabits": 5720,
      "?âĢĿ": 5721,
      "itors": 5722,
      "oo": 5723,
      "Ġrecip": 5724,
      "Ġpray": 5725,
      "Ġofficials": 5726,
      "pat": 5727,
      "Ġflight": 5728,
      "Ġrelax": 5729,
      "oviet": 5730,
      "Ġcomment": 5731,
      "Ġeast": 5732,
      "ĠBet": 5733,
      "name": 5734,
      "zy": 5735,
      "Ġcomputers": 5736,
      "Ġfasc": 5737,
      "Ġstored": 5738,
      "Ġ1990": 5739,
      "Ġneighb": 5740,
      "Ġformal": 5741,
      "nership": 5742,
      "ĠAtl": 5743,
      "].": 5744,
      "Ġsides": 5745,
      "Ġfabric": 5746,
      "Ġcircumstances": 5747,
      "Ġcorrespond": 5748,
      "Ġrub": 5749,
      "Ġdiscipl": 5750,
      "Ġpersons": 5751,
      "Ġdisapp": 5752,
      "exp": 5753,
      "anes": 5754,
      "Ġperce": 5755,
      "ensus": 5756,
      "Ġwildlife": 5757,
      "Ġretain": 5758,
      "Ġinteraction": 5759,
      "Ġtransmission": 5760,
      "lers": 5761,
      "UR": 5762,
      "racy": 5763,
      "Ġarms": 5764,
      "Ġacceler": 5765,
      "ĠFranc": 5766,
      "Ġmyth": 5767,
      "ĠBible": 5768,
      "Ġinnovation": 5769,
      "ĠMiddle": 5770,
      "anguage": 5771,
      "Ġregul": 5772,
      "Ġhundreds": 5773,
      "Ġreliable": 5774,
      "Ġproducing": 5775,
      "Ġexercises": 5776,
      "Ġhappened": 5777,
      "Ġstruggle": 5778,
      "Ġprompt": 5779,
      "Ġacts": 5780,
      "Ġdatabase": 5781,
      "Ġinject": 5782,
      "Ġmechanism": 5783,
      "Ġchapter": 5784,
      "Ġhunt": 5785,
      "Ġlocations": 5786,
      "Ġsurf": 5787,
      "Ġadopted": 5788,
      "ĠFam": 5789,
      "Ġmachines": 5790,
      "Ġages": 5791,
      "Ġcarefully": 5792,
      "'ve": 5793,
      "Ġwors": 5794,
      "then": 5795,
      "itative": 5796,
      "Ġcandid": 5797,
      "Ġfloor": 5798,
      "Ġaccounts": 5799,
      "ĠRad": 5800,
      "Ġvirtual": 5801,
      "Ġtal": 5802,
      "Ġnurs": 5803,
      "Ġsyndrome": 5804,
      "Ġdedicated": 5805,
      "Ġoutl": 5806,
      "Ġconsumers": 5807,
      "Ġstars": 5808,
      "ĠEmp": 5809,
      "ĠMass": 5810,
      "Ġ2003": 5811,
      "ĠQue": 5812,
      "Ġdistingu": 5813,
      "dden": 5814,
      "Ġgenerated": 5815,
      "organ": 5816,
      "ĠSou": 5817,
      "ĠTer": 5818,
      "Ġtoler": 5819,
      "Ġsharing": 5820,
      "Ġinteractions": 5821,
      "Ġsignals": 5822,
      "Ġnormally": 5823,
      "During": 5824,
      "ĠBudd": 5825,
      "Ġdiscovery": 5826,
      "Ġfif": 5827,
      "Ġsick": 5828,
      "Ġcultures": 5829,
      "Go": 5830,
      "Ġpreserv": 5831,
      "Ġadministration": 5832,
      "west": 5833,
      "Ġsed": 5834,
      "tering": 5835,
      "Ġble": 5836,
      "De": 5837,
      "ĠBook": 5838,
      "Ġinches": 5839,
      "prise": 5840,
      "Ġsmooth": 5841,
      "ĠBer": 5842,
      "Ġadvantages": 5843,
      "Ġsecondary": 5844,
      "Ġintervention": 5845,
      "ĠJud": 5846,
      "OC": 5847,
      "Ġbehaviors": 5848,
      "rem": 5849,
      "ĠLike": 5850,
      "apping": 5851,
      "atever": 5852,
      "asp": 5853,
      "Ġstick": 5854,
      "Ġfiber": 5855,
      "Ġdiscrim": 5856,
      "riers": 5857,
      "ĠWomen": 5858,
      "ocratic": 5859,
      "Ġdeaths": 5860,
      "Ġapparent": 5861,
      "Ġtraum": 5862,
      "Ġresil": 5863,
      "Ġsupplement": 5864,
      "Ġinfected": 5865,
      "Ġlooked": 5866,
      "icit": 5867,
      "Ġpsychological": 5868,
      "Ġinstructions": 5869,
      "alse": 5870,
      "Ġapart": 5871,
      "Ġconventional": 5872,
      "eck": 5873,
      "Ġdirector": 5874,
      "asive": 5875,
      "Ġcommunicate": 5876,
      "Ġreaders": 5877,
      "ĠPsych": 5878,
      "Ġdream": 5879,
      "Ġcustomers": 5880,
      "44": 5881,
      "van": 5882,
      "ael": 5883,
      "Ġsuffer": 5884,
      "Ġsupports": 5885,
      "uation": 5886,
      "Ġcombat": 5887,
      "ĠStudy": 5888,
      "ĠSum": 5889,
      "Ġwestern": 5890,
      "Ġfill": 5891,
      "ups": 5892,
      "Ġunderlying": 5893,
      "ĠPacific": 5894,
      "Ġtried": 5895,
      "yles": 5896,
      "Ġdent": 5897,
      "Ġmassive": 5898,
      "Dr": 5899,
      "Ġtun": 5900,
      "Ġimprovement": 5901,
      "Ġagreement": 5902,
      "Ġopinion": 5903,
      "ĠFlor": 5904,
      "Ġreturned": 5905,
      "Ġwave": 5906,
      "Ġexplo": 5907,
      "iled": 5908,
      "ht": 5909,
      "Ġoperational": 5910,
      "DF": 5911,
      "Ġquar": 5912,
      "Ġdecline": 5913,
      "Ġrandom": 5914,
      "Ġ186": 5915,
      "Ġstarts": 5916,
      "Ġconnections": 5917,
      "Ġcalls": 5918,
      "Ġplayers": 5919,
      "Ġultimately": 5920,
      "Ġsudden": 5921,
      "Ġaccomp": 5922,
      "Ġcars": 5923,
      "Ġrepair": 5924,
      "Int": 5925,
      "Ġprison": 5926,
      "Ġextended": 5927,
      "omach": 5928,
      "Ġaudience": 5929,
      "Ġmechanisms": 5930,
      "Ġobl": 5931,
      "ĠNor": 5932,
      "Ġlaun": 5933,
      "Ġlabel": 5934,
      "Ġgrand": 5935,
      "icious": 5936,
      "under": 5937,
      "Ġsettings": 5938,
      "Ġargument": 5939,
      "ansion": 5940,
      "Ġbreathing": 5941,
      "Ġseeking": 5942,
      "ĠPract": 5943,
      "Ġongoing": 5944,
      "Ġtank": 5945,
      "ĠCompany": 5946,
      "Ġsolve": 5947,
      "Ġsuccessfully": 5948,
      "riend": 5949,
      "95": 5950,
      "ĠForm": 5951,
      "Ġphr": 5952,
      "Ġdust": 5953,
      "Ġunderstood": 5954,
      "rants": 5955,
      "vity": 5956,
      "Ġfigures": 5957,
      "LE": 5958,
      "Ġreduces": 5959,
      "olester": 5960,
      "ĠEnvironmental": 5961,
      "Ġax": 5962,
      "ĠClin": 5963,
      "ĠWell": 5964,
      "Ġcollaboration": 5965,
      "operation": 5966,
      "Ġprotocol": 5967,
      "ĠMem": 5968,
      "Ġchart": 5969,
      "Ġrecognition": 5970,
      "othe": 5971,
      "Ġpure": 5972,
      "roduction": 5973,
      "Ġentirely": 5974,
      "esity": 5975,
      "ĠCommon": 5976,
      "Ġmarine": 5977,
      "Ġedge": 5978,
      "Ġcoffee": 5979,
      "Ġaccessible": 5980,
      "Ġadequate": 5981,
      "ĠExper": 5982,
      "Ġtow": 5983,
      "Ġsweet": 5984,
      "Ġimpossible": 5985,
      "Ġtransact": 5986,
      "dule": 5987,
      "ĠSte": 5988,
      "cest": 5989,
      "level": 5990,
      "ĠSoviet": 5991,
      "ĠLake": 5992,
      "Ġunlike": 5993,
      "Can": 5994,
      "Ġplate": 5995,
      "Ġwindow": 5996,
      "ĠLeg": 5997,
      "Ġclosed": 5998,
      "IP": 5999,
      "reed": 6000,
      "Ġraw": 6001,
      "Ġrevealed": 6002,
      "ĠAny": 6003,
      "Ġoperate": 6004,
      "Americ": 6005,
      "mas": 6006,
      "ĠTime": 6007,
      "ĠIP": 6008,
      "Ġcatch": 6009,
      "Ġsuc": 6010,
      "Ġspeaking": 6011,
      "Ġtalking": 6012,
      "Ġleaf": 6013,
      "Ġweapons": 6014,
      "Ġappeared": 6015,
      "ventions": 6016,
      "Ġantibiot": 6017,
      "Ġarchitecture": 6018,
      "ye": 6019,
      "Ġnoise": 6020,
      "Ġpossibility": 6021,
      "olesterol": 6022,
      "Ġnarrow": 6023,
      "Ġtitle": 6024,
      "Ġaccuracy": 6025,
      "ĠSk": 6026,
      "rot": 6027,
      "Ġcouple": 6028,
      "ĠRights": 6029,
      "Ġtruly": 6030,
      "Ġunp": 6031,
      "Ġcomposition": 6032,
      "Ġrespir": 6033,
      "Ġ31": 6034,
      "Ġbones": 6035,
      "Ġfunds": 6036,
      "ĠFe": 6037,
      "Ġaccepted": 6038,
      "ava": 6039,
      "Ġindicates": 6040,
      "Ġabsolute": 6041,
      "Ġ2001": 6042,
      "Ġacknow": 6043,
      "HO": 6044,
      "Ġfulf": 6045,
      "Ġbrown": 6046,
      "Ġauthorities": 6047,
      "Ġuns": 6048,
      "Re": 6049,
      "Ġtrained": 6050,
      "urd": 6051,
      "ĠExp": 6052,
      "Ġchief": 6053,
      "Ġvulnerable": 6054,
      "Ġnan": 6055,
      "mic": 6056,
      "ogue": 6057,
      "âĢĻ,": 6058,
      "Ġforests": 6059,
      "ĠMicro": 6060,
      "Ġfilled": 6061,
      "Ġemployment": 6062,
      "spec": 6063,
      "Ġmountain": 6064,
      "Ġpersist": 6065,
      "Ġsight": 6066,
      "Ġcircuit": 6067,
      "Ġremark": 6068,
      "ĠPers": 6069,
      "ĠAdd": 6070,
      "Ġwitness": 6071,
      "76": 6072,
      "Ġhappy": 6073,
      "Ġfixed": 6074,
      "ipping": 6075,
      "ĠDiff": 6076,
      "amics": 6077,
      "ĠGet": 6078,
      "Under": 6079,
      "hemical": 6080,
      "normal": 6081,
      "Ġerror": 6082,
      "ĠIT": 6083,
      "ĠKeep": 6084,
      "Ġgreatly": 6085,
      "Ġmulti": 6086,
      "Ġpreventing": 6087,
      "ĠJose": 6088,
      "Ġmanaged": 6089,
      "aming": 6090,
      "88": 6091,
      "ĠTHE": 6092,
      "ĠEqu": 6093,
      "Ġterror": 6094,
      "Ġstands": 6095,
      "Ġdifficulty": 6096,
      "kes": 6097,
      "ola": 6098,
      "Ġmanaging": 6099,
      "ca": 6100,
      "Ġdelivery": 6101,
      "Ġremaining": 6102,
      "iform": 6103,
      "rus": 6104,
      "Ġsell": 6105,
      "ĠCatholic": 6106,
      "Ġmarked": 6107,
      "Ġspaces": 6108,
      "cript": 6109,
      "ĠNature": 6110,
      "Ġroles": 6111,
      "Ġinsects": 6112,
      "Ġpull": 6113,
      "ĠCult": 6114,
      "Ġabund": 6115,
      "hent": 6116,
      "ĠMont": 6117,
      "Ġstudying": 6118,
      "orrow": 6119,
      "ĠGlobal": 6120,
      "Ġgall": 6121,
      "Ġmoisture": 6122,
      "Ġrepeated": 6123,
      "Ġpoet": 6124,
      "LA": 6125,
      "Ġobjective": 6126,
      "ville": 6127,
      "500": 6128,
      "Ġpand": 6129,
      "hav": 6130,
      "ĠCommit": 6131,
      "Ġknew": 6132,
      "ditional": 6133,
      "wing": 6134,
      "that": 6135,
      "Ġusage": 6136,
      "lets": 6137,
      "Ġundert": 6138,
      "ĠGood": 6139,
      "Ġopening": 6140,
      "orter": 6141,
      "Ġexperiments": 6142,
      "Ġfunctional": 6143,
      "acts": 6144,
      "ffective": 6145,
      "Cont": 6146,
      "Ġintegrated": 6147,
      "Ġlimits": 6148,
      "46": 6149,
      "ĠRobert": 6150,
      "anged": 6151,
      "Ġdescribes": 6152,
      "olf": 6153,
      "IG": 6154,
      "Ġevaluation": 6155,
      "Over": 6156,
      "Ġtransp": 6157,
      "Ġwaves": 6158,
      "war": 6159,
      "Ġlisted": 6160,
      "Ġ2002": 6161,
      "luding": 6162,
      "Ġfu": 6163,
      "ĠSl": 6164,
      "Ġindex": 6165,
      "Ġlibrary": 6166,
      "izer": 6167,
      "Ġsurvive": 6168,
      "ocation": 6169,
      "liam": 6170,
      "Ġroof": 6171,
      "Ġinstitution": 6172,
      "Ġpurchase": 6173,
      "ĠNations": 6174,
      "Ġlies": 6175,
      "inking": 6176,
      "Ġshell": 6177,
      "Ġcats": 6178,
      "Ġdecide": 6179,
      "Ġdoctors": 6180,
      "ĠDefence": 6181,
      "Ġdetection": 6182,
      "agues": 6183,
      "Ġworse": 6184,
      "55": 6185,
      "Ġanswers": 6186,
      "ĠSmith": 6187,
      "Ġtiny": 6188,
      "Ġscholars": 6189,
      "Ġcleaning": 6190,
      "Ġoverl": 6191,
      "ĠOffice": 6192,
      "hips": 6193,
      "Ġdensity": 6194,
      "Ġpromoting": 6195,
      "Ġgenerations": 6196,
      "ĠWild": 6197,
      "Ġsurve": 6198,
      "Ġpermanent": 6199,
      "Ġhouses": 6200,
      "Ġdeeper": 6201,
      "Ġveter": 6202,
      "Ġcapture": 6203,
      "Ġratio": 6204,
      "Ġopened": 6205,
      "Ġvessels": 6206,
      "Ġath": 6207,
      "Ġconcrete": 6208,
      "SS": 6209,
      "Ġaf": 6210,
      "Other": 6211,
      "Ġintellect": 6212,
      "ĠOffic": 6213,
      "Ġunless": 6214,
      "Ġaims": 6215,
      "rin": 6216,
      "Ġaccum": 6217,
      "hand": 6218,
      "Ġstability": 6219,
      "ka": 6220,
      "Ġmild": 6221,
      "Ġproduces": 6222,
      "osph": 6223,
      "ropical": 6224,
      "ota": 6225,
      "ĠStat": 6226,
      "ĠAP": 6227,
      "ĠVis": 6228,
      "inet": 6229,
      "Ġobjectives": 6230,
      "Ġadministr": 6231,
      "ĠCheck": 6232,
      "Ġahead": 6233,
      "Ġwalking": 6234,
      "Ġpossibly": 6235,
      "ifest": 6236,
      "Ġstomach": 6237,
      "ĠHistor": 6238,
      "Ġinsurance": 6239,
      "ĠCap": 6240,
      "Ġcrow": 6241,
      "Ġacids": 6242,
      "Ġstable": 6243,
      "Ġdoor": 6244,
      "Ġorganized": 6245,
      "Ġrenewable": 6246,
      "Ġdesired": 6247,
      "ĠCommand": 6248,
      "Ġtea": 6249,
      "ĠBre": 6250,
      "pet": 6251,
      "ĠÎ": 6252,
      "Ġbroken": 6253,
      "Ġserves": 6254,
      "usiness": 6255,
      "Ġcart": 6256,
      "ait": 6257,
      "Ġdistrict": 6258,
      "DP": 6259,
      "Ġlaunch": 6260,
      "Ġmoon": 6261,
      "Ġchildhood": 6262,
      "Ġslowly": 6263,
      "ĠCarol": 6264,
      "Ġinner": 6265,
      "ctive": 6266,
      "iology": 6267,
      "Ġexpressed": 6268,
      "Ġfossil": 6269,
      "ribed": 6270,
      "Ġ<": 6271,
      "using": 6272,
      "rine": 6273,
      "ĠReview": 6274,
      "Ġyield": 6275,
      "add": 6276,
      "ato": 6277,
      "Ġreject": 6278,
      "Ġuniverse": 6279,
      "rency": 6280,
      "Ġpersonnel": 6281,
      "Ġbeauty": 6282,
      "last": 6283,
      "riting": 6284,
      "ivalent": 6285,
      "ĠUSA": 6286,
      "imer": 6287,
      "Ġcloser": 6288,
      "Ġmac": 6289,
      "Ġmuseum": 6290,
      "Ġdrain": 6291,
      "Ġbeliefs": 6292,
      "ada": 6293,
      "ĠResp": 6294,
      "Ġdesire": 6295,
      "Ġprev": 6296,
      "Ġdepos": 6297,
      "Ġdelay": 6298,
      "Ġwarming": 6299,
      "ĠReport": 6300,
      "Ġfeeding": 6301,
      "IR": 6302,
      "ĠLong": 6303,
      "Not": 6304,
      "Ġseeing": 6305,
      "Ġdecade": 6306,
      "itudes": 6307,
      "47": 6308,
      "hop": 6309,
      "Ġwants": 6310,
      "Ġprogramming": 6311,
      "Ġtwice": 6312,
      "ĠOx": 6313,
      "Ġvillage": 6314,
      "Ġhousing": 6315,
      "ctic": 6316,
      "Ġguarant": 6317,
      "liament": 6318,
      "itivity": 6319,
      "umes": 6320,
      "ĠAp": 6321,
      "Ġmode": 6322,
      "Ġcolour": 6323,
      "ourage": 6324,
      "Ġ500": 6325,
      "irus": 6326,
      "Ġconfir": 6327,
      "Ġowners": 6328,
      "ĠSol": 6329,
      "Ġderived": 6330,
      "yth": 6331,
      "ĠHam": 6332,
      "ona": 6333,
      "ĠScient": 6334,
      "Ġdesigns": 6335,
      "Ġemployed": 6336,
      "ĠAcc": 6337,
      "Ġreactions": 6338,
      "Ġserver": 6339,
      "Ġoriginally": 6340,
      "MP": 6341,
      "Ġpreval": 6342,
      "uke": 6343,
      "Ġissued": 6344,
      "ester": 6345,
      "anda": 6346,
      "alian": 6347,
      "Ġtaste": 6348,
      "Ġinnovative": 6349,
      "oto": 6350,
      "Ġment": 6351,
      "Ġtrends": 6352,
      "ÃŃ": 6353,
      "Ġborder": 6354,
      "word": 6355,
      "ustain": 6356,
      "sts": 6357,
      "ĠConstitution": 6358,
      "Ġengaging": 6359,
      "ston": 6360,
      "ĠProfessor": 6361,
      "Ġmamm": 6362,
      "Ġpictures": 6363,
      "Ġhydrogen": 6364,
      "Ġfailed": 6365,
      "85": 6366,
      "Ġdisrupt": 6367,
      "Ġteams": 6368,
      "ĠOcean": 6369,
      "Ġgap": 6370,
      "Ġfighting": 6371,
      "Ġrecommendations": 6372,
      "Ġancest": 6373,
      "Ġcompetition": 6374,
      "zed": 6375,
      "ĠDirector": 6376,
      "ĠLead": 6377,
      "ĠExt": 6378,
      "Ġsequence": 6379,
      "ĠAbout": 6380,
      "oted": 6381,
      "Ġmolecules": 6382,
      "Ġfrequent": 6383,
      "Ġparticipate": 6384,
      "Ġsod": 6385,
      "Ġconven": 6386,
      "Ġimplications": 6387,
      "Ġchosen": 6388,
      "Ġmarriage": 6389,
      "Ġassets": 6390,
      "Ġmm": 6391,
      "Ġbear": 6392,
      "ĠLibrary": 6393,
      "Read": 6394,
      "Ġdownload": 6395,
      "oding": 6396,
      "phone": 6397,
      "Ġdrawing": 6398,
      "Ġintegration": 6399,
      "Ġmood": 6400,
      "ĠDig": 6401,
      "Ġflo": 6402,
      "Ġmixed": 6403,
      "ĠLab": 6404,
      "Ġbiod": 6405,
      "Ġsupplies": 6406,
      "Ġunable": 6407,
      "ĠHenry": 6408,
      "born": 6409,
      "Ġfewer": 6410,
      "Ġlatter": 6411,
      "ĠAlex": 6412,
      "ĠCharles": 6413,
      "ĠBur": 6414,
      "Ġpowers": 6415,
      "Ġcontamin": 6416,
      "Ġrelief": 6417,
      "Ġcritic": 6418,
      "Ġattend": 6419,
      "ĠStep": 6420,
      "icide": 6421,
      "Bl": 6422,
      "ocracy": 6423,
      "Ġlots": 6424,
      "idity": 6425,
      "Ġbiggest": 6426,
      "Ġconsidering": 6427,
      "Ġcalcium": 6428,
      "Ġsubstances": 6429,
      "ĠServices": 6430,
      "Ġbond": 6431,
      "Se": 6432,
      "ĠMa": 6433,
      "Ġelectron": 6434,
      "Ġnerve": 6435,
      "Ġholds": 6436,
      "Ġpretty": 6437,
      "Ġlisten": 6438,
      "ĠOnly": 6439,
      "Ġunknown": 6440,
      "Ġpup": 6441,
      "abul": 6442,
      "Ġlayers": 6443,
      "stone": 6444,
      "Ġcommitment": 6445,
      "EP": 6446,
      "Ġconsumer": 6447,
      "Ġbio": 6448,
      "86": 6449,
      "gans": 6450,
      "Ġlands": 6451,
      "estion": 6452,
      "gent": 6453,
      "ĠVirginia": 6454,
      "Ġcompounds": 6455,
      "Ġpool": 6456,
      "Ġindependence": 6457,
      "hma": 6458,
      "Ġtele": 6459,
      "Ġsky": 6460,
      "orous": 6461,
      "Ġagency": 6462,
      "Ġcustomer": 6463,
      "Ġattached": 6464,
      "Ġourselves": 6465,
      "Ġeveryday": 6466,
      "Ġcholesterol": 6467,
      "Ġpositions": 6468,
      "Ġfell": 6469,
      "ĠFlorida": 6470,
      "Ġzone": 6471,
      "ĠSign": 6472,
      "Ġdefense": 6473,
      "ained": 6474,
      "Ġtells": 6475,
      "ĠSet": 6476,
      "Ġarrange": 6477,
      "Ġ300": 6478,
      "Ġaccident": 6479,
      "Ġshif": 6480,
      "ĠLouis": 6481,
      "Ġensures": 6482,
      "Ġneck": 6483,
      "ĠKen": 6484,
      "idential": 6485,
      "Ġexcessive": 6486,
      "Let": 6487,
      "Ġmand": 6488,
      "Ġreplaced": 6489,
      "ĠThose": 6490,
      "Ġsustainability": 6491,
      "ĠFederal": 6492,
      "Ġtargets": 6493,
      "ĠAdv": 6494,
      "Ġethnic": 6495,
      "ENT": 6496,
      "zen": 6497,
      "Ġregist": 6498,
      "49": 6499,
      "Ġminerals": 6500,
      "ĠAND": 6501,
      "Ġvoltage": 6502,
      "Ġopposite": 6503,
      "Since": 6504,
      "OL": 6505,
      "Ġfashion": 6506,
      "ĠAR": 6507,
      "gu": 6508,
      "Ġdynamic": 6509,
      "olit": 6510,
      "Ġmarkets": 6511,
      "Ġgal": 6512,
      "Ġinstruments": 6513,
      "ĠLabor": 6514,
      "bert": 6515,
      "isk": 6516,
      "Ġinvolving": 6517,
      "body": 6518,
      "Ġbreath": 6519,
      "arn": 6520,
      "ersonal": 6521,
      "ighter": 6522,
      "ĠAccess": 6523,
      "Ġrely": 6524,
      "espread": 6525,
      "ĠAnalysis": 6526,
      "Ġgut": 6527,
      "âĢĺ": 6528,
      "Pe": 6529,
      "Ġgluc": 6530,
      "Stud": 6531,
      "Ġsucceed": 6532,
      "point": 6533,
      "Ġindeed": 6534,
      "inction": 6535,
      "rons": 6536,
      "ĠAdminist": 6537,
      "ĠCat": 6538,
      "ĠKh": 6539,
      "ishment": 6540,
      "Ġplatforms": 6541,
      "ĠBank": 6542,
      "throp": 6543,
      "Ġvolunte": 6544,
      "ĠDisease": 6545,
      "Ġphilosophy": 6546,
      "Ġrhy": 6547,
      "Ġmining": 6548,
      "Rec": 6549,
      ":**": 6550,
      "CD": 6551,
      "Ġresolution": 6552,
      "Ġfly": 6553,
      "App": 6554,
      "ĠForce": 6555,
      "ĠGold": 6556,
      "Ġwilling": 6557,
      "Comp": 6558,
      "Ġ2021": 6559,
      "ny": 6560,
      "ront": 6561,
      "Ġexamine": 6562,
      "ĠYet": 6563,
      "Ġrising": 6564,
      "Ġgreenhouse": 6565,
      "ĠParis": 6566,
      "Ġethical": 6567,
      "Ġdemands": 6568,
      "amins": 6569,
      "inter": 6570,
      "Ġstanding": 6571,
      "Ġwish": 6572,
      "struction": 6573,
      "chain": 6574,
      "weight": 6575,
      "Ġcomparison": 6576,
      "Ġcarb": 6577,
      "tic": 6578,
      "Ġdemonstrate": 6579,
      "Ġzero": 6580,
      "nect": 6581,
      "ĠBro": 6582,
      "burg": 6583,
      "Ġhoriz": 6584,
      "Ġreven": 6585,
      "Ġvs": 6586,
      "agon": 6587,
      "Ġhypothes": 6588,
      "Ġsentence": 6589,
      "ĠEss": 6590,
      "ĠCanadian": 6591,
      "Ġnecessarily": 6592,
      ".âĢĻ": 6593,
      "elled": 6594,
      "Ġaward": 6595,
      "Ġvoc": 6596,
      "ME": 6597,
      "Ġentry": 6598,
      "Ġmatters": 6599,
      "ĠVict": 6600,
      "IA": 6601,
      "Ġterritory": 6602,
      "Ġpartners": 6603,
      "hist": 6604,
      "Ġtechnological": 6605,
      "Ġwhereas": 6606,
      "Ġlaboratory": 6607,
      "ĠAustralian": 6608,
      "anches": 6609,
      "Ġdebate": 6610,
      "forcement": 6611,
      "aped": 6612,
      "Ġresulted": 6613,
      "Ġstake": 6614,
      "Ġpapers": 6615,
      "Ġdoubt": 6616,
      "eless": 6617,
      "Ġshop": 6618,
      "Ġdebt": 6619,
      "Ġbrings": 6620,
      "Ġparticipation": 6621,
      "Ġsmoking": 6622,
      "Ġmagnetic": 6623,
      "Ġ1980": 6624,
      "Ġexists": 6625,
      "Ġscan": 6626,
      "gs": 6627,
      "Ġpercentage": 6628,
      "Ġmechanical": 6629,
      "holders": 6630,
      "Ġpreparation": 6631,
      "Ġembra": 6632,
      "Ġyounger": 6633,
      "Ġclar": 6634,
      "Ġrid": 6635,
      "cons": 6636,
      "Ġinhib": 6637,
      "Ġingredients": 6638,
      "Ġbridge": 6639,
      "ini": 6640,
      "Ġends": 6641,
      "Ġrig": 6642,
      "Ġcovers": 6643,
      "Ġcamera": 6644,
      "Ġelectro": 6645,
      "ican": 6646,
      "ĠNatural": 6647,
      "umps": 6648,
      "ena": 6649,
      "Ġcos": 6650,
      "ĠAnn": 6651,
      "ribe": 6652,
      "irt": 6653,
      "scale": 6654,
      "Ġtrials": 6655,
      "Ġswim": 6656,
      "Ġsole": 6657,
      "Ġcontrols": 6658,
      "Ġenables": 6659,
      "Ġcomfortable": 6660,
      "ĠCommittee": 6661,
      "ĠFurthermore": 6662,
      "Ġfocuses": 6663,
      "Ġpron": 6664,
      "ading": 6665,
      "Ġrepresented": 6666,
      "ĠStrateg": 6667,
      "herent": 6668,
      "RA": 6669,
      "Ġspending": 6670,
      "Ġexpansion": 6671,
      "Ġtrend": 6672,
      "Ġchick": 6673,
      "uter": 6674,
      "89": 6675,
      "ua": 6676,
      "ĠPolic": 6677,
      "icon": 6678,
      "erior": 6679,
      "Ġships": 6680,
      "77": 6681,
      "Ġreader": 6682,
      "Ġinfluenced": 6683,
      "orses": 6684,
      "earchers": 6685,
      "Ġdistur": 6686,
      "ommod": 6687,
      "Ġdamaged": 6688,
      "Ġneighbor": 6689,
      "UT": 6690,
      "Ġofficer": 6691,
      "Ġevaluate": 6692,
      "ĠTor": 6693,
      "Ġuniversity": 6694,
      "ĠNorthern": 6695,
      "fare": 6696,
      "Ġcategories": 6697,
      "agraph": 6698,
      "Ġwidespread": 6699,
      "azing": 6700,
      "Ġtight": 6701,
      "Ġmatch": 6702,
      "ĠHome": 6703,
      "no": 6704,
      "Ġpartner": 6705,
      "Ġdemonstrated": 6706,
      "ĠTake": 6707,
      "fortunately": 6708,
      "ritis": 6709,
      "Ġhealing": 6710,
      "asters": 6711,
      "Ġdescription": 6712,
      "Ġsurfaces": 6713,
      "Ġunus": 6714,
      "Ġcommitted": 6715,
      "Ġimplemented": 6716,
      "Ġlaunched": 6717,
      "Ġinhab": 6718,
      "earing": 6719,
      "Ġprincip": 6720,
      "Ġlegs": 6721,
      "Ġpolitics": 6722,
      "such": 6723,
      "ĠIll": 6724,
      "aria": 6725,
      "Your": 6726,
      "Ġfalse": 6727,
      "Figure": 6728,
      "ĠChapter": 6729,
      "top": 6730,
      "Ġfract": 6731,
      "Ġparalle": 6732,
      "ĠClimate": 6733,
      "ĠMoreover": 6734,
      "comm": 6735,
      "ĠHaw": 6736,
      "Ġmold": 6737,
      "ĠIns": 6738,
      "oned": 6739,
      "Ġanalyze": 6740,
      "Ġmedic": 6741,
      "Ġartists": 6742,
      "Ġmeal": 6743,
      "Ġconstantly": 6744,
      "Ġtex": 6745,
      "riendly": 6746,
      "Ġ1970": 6747,
      "Ġidentifying": 6748,
      "iration": 6749,
      "zil": 6750,
      "Ġdomain": 6751,
      "Ġmeters": 6752,
      "ĠRob": 6753,
      "hesis": 6754,
      "ĠHall": 6755,
      "sis": 6756,
      "ults": 6757,
      "Ġdioxide": 6758,
      "Ġconstitution": 6759,
      "aud": 6760,
      "Ġengagement": 6761,
      "Ġnine": 6762,
      "Ġinstalled": 6763,
      "Ġsubs": 6764,
      "Ġdefine": 6765,
      "Ġsensors": 6766,
      "Ġeld": 6767,
      "Ġwriter": 6768,
      "wo": 6769,
      "BS": 6770,
      "Ġhero": 6771,
      "Ġshut": 6772,
      "BN": 6773,
      "rooms": 6774,
      "Ġcorn": 6775,
      "Ġdin": 6776,
      "ora": 6777,
      "Ġprovider": 6778,
      "Ġhus": 6779,
      "iox": 6780,
      "Ġintense": 6781,
      "Ġbread": 6782,
      "Ġnewsp": 6783,
      "Ġpartnership": 6784,
      "ĠBC": 6785,
      "ĠBoard": 6786,
      "Ġclust": 6787,
      "Ġcolleagues": 6788,
      "Ġ36": 6789,
      "Ġblocks": 6790,
      "Ġwww": 6791,
      "ĠEth": 6792,
      "inity": 6793,
      "Ġuncertain": 6794,
      "Ġmanip": 6795,
      "osion": 6796,
      "ĠHead": 6797,
      "Ġvac": 6798,
      "Ġavailability": 6799,
      "how": 6800,
      "Ġfacing": 6801,
      "reland": 6802,
      "Ġturns": 6803,
      "ĠSouthern": 6804,
      "Ġrank": 6805,
      "essions": 6806,
      "Comm": 6807,
      "usal": 6808,
      "gers": 6809,
      "irds": 6810,
      "Ġschedule": 6811,
      "Ġroute": 6812,
      "ĠIII": 6813,
      "Ġoccasion": 6814,
      "Ġobesity": 6815,
      "Ġvariable": 6816,
      "Ġtissues": 6817,
      "Ġtall": 6818,
      "ĠColumb": 6819,
      "ĠRevolution": 6820,
      "uality": 6821,
      "fit": 6822,
      "Ġtact": 6823,
      "Ġloved": 6824,
      "fish": 6825,
      "urrent": 6826,
      "ĠFrank": 6827,
      "ether": 6828,
      "ĠJoseph": 6829,
      "ĠCa": 6830,
      "ATION": 6831,
      "Ġfaced": 6832,
      "heast": 6833,
      "Lear": 6834,
      "ĠRome": 6835,
      "ĠMad": 6836,
      "Ġpandemic": 6837,
      "Ġteen": 6838,
      "Ġnegot": 6839,
      "Ġstrict": 6840,
      "Ġstores": 6841,
      "ki": 6842,
      "Ġoptimal": 6843,
      "ĠPan": 6844,
      "icing": 6845,
      "Once": 6846,
      "gien": 6847,
      "Ġproductivity": 6848,
      "Ġgone": 6849,
      "Qu": 6850,
      "ĠWhether": 6851,
      "Ġbalanced": 6852,
      "Ġstroke": 6853,
      "isters": 6854,
      "Ġcrime": 6855,
      "plant": 6856,
      "Ġsmoke": 6857,
      "but": 6858,
      "Ġsections": 6859,
      "ĠPeter": 6860,
      "Ġcenters": 6861,
      "Ġholding": 6862,
      "Ġfarming": 6863,
      "Ġorganisms": 6864,
      "Ġengaged": 6865,
      "Ġcareful": 6866,
      "ĠSpecial": 6867,
      "hered": 6868,
      "stract": 6869,
      "ĠStreet": 6870,
      "ented": 6871,
      "MA": 6872,
      "ctor": 6873,
      "Ġabilities": 6874,
      "tra": 6875,
      "Ġpharm": 6876,
      "Ġsatellite": 6877,
      "Ġdiagnosed": 6878,
      "Ġincred": 6879,
      "Ġclothing": 6880,
      "Ġirrit": 6881,
      "Ġthy": 6882,
      "Ġdestroyed": 6883,
      "Ġfurn": 6884,
      "Me": 6885,
      "ĠWorks": 6886,
      "Ġcriteria": 6887,
      "Ġpainting": 6888,
      "Ġcontemporary": 6889,
      "Ġnearby": 6890,
      "Ġ75": 6891,
      "Ġ1999": 6892,
      "ĠOpen": 6893,
      "ĠIndust": 6894,
      "ĠNon": 6895,
      "ĠCentre": 6896,
      "Ġequivalent": 6897,
      "ĠEarly": 6898,
      "Ġarrived": 6899,
      "Ġworry": 6900,
      "Ġauthent": 6901,
      "DS": 6902,
      "My": 6903,
      "Ġreceiving": 6904,
      "utch": 6905,
      "Ġframe": 6906,
      "Ġfer": 6907,
      "ĠâĢ¢": 6908,
      "ĠDan": 6909,
      "ĠDespite": 6910,
      "Ġturning": 6911,
      "ĠImp": 6912,
      "05": 6913,
      "UN": 6914,
      "while": 6915,
      "Ġcav": 6916,
      "Ġrefuge": 6917,
      "rovers": 6918,
      "ĠEnd": 6919,
      "Ġmaps": 6920,
      "Ġkne": 6921,
      "Ġprove": 6922,
      "ĠEU": 6923,
      "everal": 6924,
      "Ġbot": 6925,
      "Ġgradually": 6926,
      "rene": 6927,
      "Ġmeth": 6928,
      "Ġrespiratory": 6929,
      "Ġwithd": 6930,
      "ita": 6931,
      "ione": 6932,
      "Ġcm": 6933,
      "Ġfunctioning": 6934,
      "Ġsheet": 6935,
      "istical": 6936,
      "Ġtraditions": 6937,
      "Ġobservations": 6938,
      "Ġdepartment": 6939,
      "Ġlearners": 6940,
      "ocy": 6941,
      "Ġphotograph": 6942,
      "charge": 6943,
      "Ġmeasurement": 6944,
      "arsh": 6945,
      "42": 6946,
      "ĠIreland": 6947,
      "Ġapproved": 6948,
      "iture": 6949,
      "Ġheating": 6950,
      "irty": 6951,
      "Ġpair": 6952,
      "Ġoutcome": 6953,
      "itt": 6954,
      "Ġfounded": 6955,
      "Ġcharacterized": 6956,
      "Ġputting": 6957,
      "Ġmessages": 6958,
      "cher": 6959,
      "Ġthousand": 6960,
      "ĠSafety": 6961,
      "Ġstimul": 6962,
      "Ġdanger": 6963,
      "Ġdaughter": 6964,
      "eli": 6965,
      "ĠChange": 6966,
      "Ġrice": 6967,
      "Ġserving": 6968,
      "ĠCamp": 6969,
      "nam": 6970,
      "Med": 6971,
      "Ġstrengthen": 6972,
      "Ġspectrum": 6973,
      "ĠItaly": 6974,
      "rd": 6975,
      "Ġkidney": 6976,
      "ĠCreat": 6977,
      "Ġrelation": 6978,
      "Ġbath": 6979,
      "sey": 6980,
      "Ġencoun": 6981,
      "stein": 6982,
      "itamin": 6983,
      "Ġshapes": 6984,
      "ĠCre": 6985,
      "Ġped": 6986,
      "Ġmembr": 6987,
      "ovascular": 6988,
      "Ġscene": 6989,
      "ĠBefore": 6990,
      "ĠGuide": 6991,
      "ĠWhere": 6992,
      "Ġproviders": 6993,
      "inally": 6994,
      "Ġpeak": 6995,
      "Ġbatteries": 6996,
      "Ġfacility": 6997,
      "omic": 6998,
      "sue": 6999,
      "Ġhole": 7000,
      "Ġmaintained": 7001,
      "First": 7002,
      "bur": 7003,
      "Ġnest": 7004,
      "ĠEmpire": 7005,
      "Ġfever": 7006,
      "Ġpresentation": 7007,
      "ella": 7008,
      "ĠNetwork": 7009,
      "Ġholid": 7010,
      "Ġdealing": 7011,
      "ĠEst": 7012,
      "Ġinsulin": 7013,
      "Ġreward": 7014,
      "mes": 7015,
      "Ġstrain": 7016,
      "oga": 7017,
      "Ġrecept": 7018,
      "coming": 7019,
      "bra": 7020,
      "Ġmos": 7021,
      "abil": 7022,
      "Ġovercome": 7023,
      "health": 7024,
      "Ġforget": 7025,
      "Ġbanks": 7026,
      "Ġcrypt": 7027,
      "Ġremoval": 7028,
      "Ġcontained": 7029,
      "from": 7030,
      "Ġru": 7031,
      "Ġ>": 7032,
      "Ġdrawn": 7033,
      "01": 7034,
      "ĠColor": 7035,
      "Ġknows": 7036,
      "CA": 7037,
      "amination": 7038,
      "isdom": 7039,
      "Ġcategory": 7040,
      "ala": 7041,
      "Ġcommunications": 7042,
      "Ġearn": 7043,
      "See": 7044,
      "ĠEastern": 7045,
      "aning": 7046,
      "Ġille": 7047,
      "ĠValley": 7048,
      "orders": 7049,
      "Ġorgans": 7050,
      "Ġcryst": 7051,
      "Ġrow": 7052,
      "Ġsubsequent": 7053,
      "Ġgrew": 7054,
      "Ġdepart": 7055,
      "Ġprotecting": 7056,
      "Ġdistributed": 7057,
      "Ã¼": 7058,
      "rial": 7059,
      "Ġbrand": 7060,
      "Ġerrors": 7061,
      "ĠMag": 7062,
      "ymph": 7063,
      "Ġwhatever": 7064,
      "Ġjoined": 7065,
      "inson": 7066,
      "ĠFree": 7067,
      "Ġcentre": 7068,
      "Ġpoison": 7069,
      "ĠAcademy": 7070,
      "Ġvariables": 7071,
      "Ġmarried": 7072,
      "door": 7073,
      "Ġorient": 7074,
      "Ġexpertise": 7075,
      "Ġangle": 7076,
      "Ġgrid": 7077,
      "Ġexamination": 7078,
      "Ġepid": 7079,
      "Ġ1960": 7080,
      "Ġhem": 7081,
      "Ġsunlight": 7082,
      "ĠMS": 7083,
      "ĠDG": 7084,
      "agram": 7085,
      "alls": 7086,
      "Ġcarrying": 7087,
      "Ġdefence": 7088,
      "Ġcards": 7089,
      "opic": 7090,
      "qa": 7091,
      "Ġcooking": 7092,
      "ruption": 7093,
      "ulty": 7094,
      "Ġdys": 7095,
      "Ġbutter": 7096,
      "een": 7097,
      "oven": 7098,
      "ĠPub": 7099,
      "fulness": 7100,
      "ushed": 7101,
      "net": 7102,
      "ilation": 7103,
      "ĠGard": 7104,
      "Ġgained": 7105,
      "Ġstructural": 7106,
      "Ġsenior": 7107,
      "Ġdestruction": 7108,
      "Ġfilter": 7109,
      "Ġestimates": 7110,
      "ĠScot": 7111,
      "ĠHy": 7112,
      "ultane": 7113,
      "Ġaccommod": 7114,
      "Ġring": 7115,
      "Ġoutbre": 7116,
      "td": 7117,
      "ĠPlant": 7118,
      "utrition": 7119,
      "ĠAsian": 7120,
      "Ġstronger": 7121,
      "ĠMethod": 7122,
      "Ġplanned": 7123,
      "Ġcomplications": 7124,
      "rowing": 7125,
      "lights": 7126,
      "Ġagreed": 7127,
      "Ġcorrectly": 7128,
      "called": 7129,
      "Ġcompare": 7130,
      "Ġcas": 7131,
      "Ġsought": 7132,
      "iii": 7133,
      "Ġpresents": 7134,
      "Ġmissing": 7135,
      "Ġcash": 7136,
      "Ġcrim": 7137,
      "%.": 7138,
      "Ġdefect": 7139,
      "Ġburning": 7140,
      "Ġshot": 7141,
      "Ġremed": 7142,
      "igue": 7143,
      "Ġchrom": 7144,
      "ĠAgricult": 7145,
      "ugh": 7146,
      "Ġscript": 7147,
      "Ġ189": 7148,
      "Ġstring": 7149,
      "mun": 7150,
      "itely": 7151,
      "Ġintellectual": 7152,
      "ĠTimes": 7153,
      "Ġsales": 7154,
      "requ": 7155,
      "Ġdefe": 7156,
      "aph": 7157,
      "Ġappoint": 7158,
      "Ġpra": 7159,
      "ĠProp": 7160,
      "Ġconversation": 7161,
      "Ġmeasurements": 7162,
      "ĠWood": 7163,
      "abulary": 7164,
      "Ġindicated": 7165,
      "ĠIran": 7166,
      "ĠNative": 7167,
      "cture": 7168,
      "Ġexperiencing": 7169,
      "Ġconsideration": 7170,
      "Ġlegislation": 7171,
      "Ġdivision": 7172,
      "Ġeastern": 7173,
      "rite": 7174,
      "Ġpanel": 7175,
      "Ġprinting": 7176,
      "car": 7177,
      "Ġ32": 7178,
      "Ġplenty": 7179,
      "Ġlights": 7180,
      "Ġlaid": 7181,
      "ĠCancer": 7182,
      "Ġ150": 7183,
      "Ġdifficulties": 7184,
      "Ġhandling": 7185,
      "Ġbringing": 7186,
      "Ġrivers": 7187,
      "Ġviruses": 7188,
      "Ġcup": 7189,
      "ureau": 7190,
      "icago": 7191,
      "ĠRoyal": 7192,
      "Ġaffecting": 7193,
      "Ġpanels": 7194,
      "uts": 7195,
      "ĠLanguage": 7196,
      "HD": 7197,
      "Ġnervous": 7198,
      "Ġastr": 7199,
      "Ġcomprom": 7200,
      "Ġglucose": 7201,
      "Ġmetabol": 7202,
      "TER": 7203,
      "Ġassociation": 7204,
      "outs": 7205,
      "Ġvote": 7206,
      "ĠHave": 7207,
      "Ġdependent": 7208,
      "Ġphenomenon": 7209,
      "ĠPM": 7210,
      "thritis": 7211,
      "Ġsubstantial": 7212,
      "ioxid": 7213,
      "ĠSat": 7214,
      "Ġconfig": 7215,
      "Ġmice": 7216,
      "ĠSpain": 7217,
      "onia": 7218,
      "Ġpin": 7219,
      "mm": 7220,
      "Ġblow": 7221,
      "....": 7222,
      "41": 7223,
      "cul": 7224,
      "Ġaddressing": 7225,
      "ediatric": 7226,
      "Ġtwenty": 7227,
      "Ġadvert": 7228,
      "Ġfold": 7229,
      "ĠOh": 7230,
      "87": 7231,
      "Ġwait": 7232,
      "Ġspok": 7233,
      "Ġcomments": 7234,
      "Ġoverw": 7235,
      "Ġtrip": 7236,
      "Ġexploration": 7237,
      "Ġtube": 7238,
      "aren": 7239,
      "Ġmoves": 7240,
      "ĠCP": 7241,
      "Ġtreating": 7242,
      "airy": 7243,
      "Ġvisitors": 7244,
      "Ġbrush": 7245,
      "Ġruns": 7246,
      "Ġunw": 7247,
      "teen": 7248,
      "ĠYear": 7249,
      "ĠGal": 7250,
      "Ġ1998": 7251,
      "Su": 7252,
      "AF": 7253,
      "Ġtheories": 7254,
      "ĠSciences": 7255,
      "anta": 7256,
      "Col": 7257,
      "ĠStart": 7258,
      "Ġwasn": 7259,
      "Ġanalys": 7260,
      "Ġevolved": 7261,
      "Ġperception": 7262,
      "Ġsacr": 7263,
      "Ġproven": 7264,
      "ML": 7265,
      "Ġnose": 7266,
      "Ġcalories": 7267,
      "ĠTraining": 7268,
      "Ġscore": 7269,
      "Even": 7270,
      "Ġboundaries": 7271,
      "Ġfro": 7272,
      "ortion": 7273,
      "Ġcooling": 7274,
      "Ġtexts": 7275,
      "43": 7276,
      "Ġgram": 7277,
      "ĠMult": 7278,
      "ivered": 7279,
      "bridge": 7280,
      "Ġfocusing": 7281,
      "Ġcrew": 7282,
      "ĠJohns": 7283,
      "ĠCho": 7284,
      "Ġcompris": 7285,
      "ani": 7286,
      "Ġasking": 7287,
      "Ġthereby": 7288,
      "ĠLow": 7289,
      "Of": 7290,
      "ĠLo": 7291,
      "Ġsupposed": 7292,
      "Ġflag": 7293,
      "Ġknowing": 7294,
      "Ġpassage": 7295,
      "AB": 7296,
      "Ġagents": 7297,
      "ĠCase": 7298,
      "Ġsession": 7299,
      "66": 7300,
      "Ġheritage": 7301,
      "Ġblind": 7302,
      "otton": 7303,
      "Ġhazard": 7304,
      "Ġdiscrimination": 7305,
      "Ġcooperation": 7306,
      "Ġvibr": 7307,
      "Ġemerging": 7308,
      "Ġtub": 7309,
      "Ġprotective": 7310,
      "inf": 7311,
      "Ġneur": 7312,
      "itter": 7313,
      "Ġshock": 7314,
      "ĠList": 7315,
      "Ġowner": 7316,
      "quit": 7317,
      "Ġcopper": 7318,
      "Ġbreeding": 7319,
      "Ġinteractive": 7320,
      "Ġabsence": 7321,
      "Ġvitamins": 7322,
      "Ġarts": 7323,
      "Ġtheore": 7324,
      "Ġconsume": 7325,
      "Ġrequirement": 7326,
      "ĠDev": 7327,
      "Ġinitiatives": 7328,
      "Ġmeals": 7329,
      "haust": 7330,
      "ĠSimilar": 7331,
      "ĠFollow": 7332,
      "ĠCR": 7333,
      "ĠBrazil": 7334,
      "Ġblo": 7335,
      "Ġintent": 7336,
      "Ġeliminate": 7337,
      "Ġadverse": 7338,
      "Ġhistoric": 7339,
      "Ġconstructed": 7340,
      "uh": 7341,
      "Ġguard": 7342,
      "Ġestimate": 7343,
      "Ġcolumn": 7344,
      "Ġfacilitate": 7345,
      "Ġcoastal": 7346,
      "Ġtons": 7347,
      "Ġaqu": 7348,
      "Ġwarning": 7349,
      "Ġfavorite": 7350,
      "Ġhardware": 7351,
      "Ġdisaster": 7352,
      "iological": 7353,
      "Ġphysics": 7354,
      "Ġdriven": 7355,
      "Ġvarieties": 7356,
      "Ġcomplicated": 7357,
      "Ġnutrient": 7358,
      "Ġcreativity": 7359,
      "htm": 7360,
      "itals": 7361,
      "Ġbranches": 7362,
      "Ġadds": 7363,
      "she": 7364,
      "ĠAge": 7365,
      "Ġbabies": 7366,
      "Ġsharp": 7367,
      "ĠFire": 7368,
      "ĠMill": 7369,
      "%)": 7370,
      "Ġthanks": 7371,
      "Ġturb": 7372,
      "Ġsport": 7373,
      "Ġtract": 7374,
      "ptions": 7375,
      "Ġsatisf": 7376,
      "Ġstrongly": 7377,
      "ĠBab": 7378,
      "Ġfest": 7379,
      "American": 7380,
      "erb": 7381,
      "bles": 7382,
      "Ġthermal": 7383,
      "ĠDoes": 7384,
      "aired": 7385,
      "79": 7386,
      "ĠSystems": 7387,
      "Ġvictims": 7388,
      "Ġseconds": 7389,
      "Ġworkshe": 7390,
      "apse": 7391,
      "Ġalgorithms": 7392,
      "Ġinfect": 7393,
      "medi": 7394,
      "roat": 7395,
      "ĠSil": 7396,
      "Ġadj": 7397,
      "Ġhun": 7398,
      "ixture": 7399,
      "Ġproceed": 7400,
      "azine": 7401,
      "ohyd": 7402,
      "Ġannounced": 7403,
      "occ": 7404,
      "otes": 7405,
      "Ġencouraged": 7406,
      "etics": 7407,
      "Or": 7408,
      "Ġske": 7409,
      "Ġadvent": 7410,
      "hus": 7411,
      "Ġ185": 7412,
      "Ġcomputing": 7413,
      "Ġpregnant": 7414,
      "Ġarmed": 7415,
      "Ġsigned": 7416,
      "Ġabnormal": 7417,
      "Ġcoverage": 7418,
      "ihqa": 7419,
      "Ġattempts": 7420,
      "Ġtrouble": 7421,
      "Ref": 7422,
      "ĠType": 7423,
      "Ġhormone": 7424,
      "ĠScott": 7425,
      "esides": 7426,
      "Ġproof": 7427,
      "Ġflexibility": 7428,
      "elfare": 7429,
      "Ġrealize": 7430,
      "Ġ65": 7431,
      "Ġprofound": 7432,
      "ibl": 7433,
      "Ġmanifest": 7434,
      "Ġbreed": 7435,
      "Ġmerely": 7436,
      "Ġwound": 7437,
      "pling": 7438,
      "quality": 7439,
      "ĠCarolina": 7440,
      "Ã³": 7441,
      "aked": 7442,
      "Ġdeclared": 7443,
      "Don": 7444,
      "Ġcomposed": 7445,
      "oples": 7446,
      "Ġexplanation": 7447,
      "Ġlistening": 7448,
      "ĠBig": 7449,
      "hyd": 7450,
      "Ġhonor": 7451,
      "Ġathlet": 7452,
      "Ġdietary": 7453,
      "Ġstreet": 7454,
      "ĠSupport": 7455,
      "Ġentered": 7456,
      "Ġparas": 7457,
      "Ġengineers": 7458,
      "Ġnarrative": 7459,
      "NS": 7460,
      "Ġrecover": 7461,
      "Ġtheme": 7462,
      "ĠRichard": 7463,
      "ĠParty": 7464,
      "gov": 7465,
      "Ġindigenous": 7466,
      "Ġregulation": 7467,
      "Ġforth": 7468,
      "ĠAgency": 7469,
      "Ġidentification": 7470,
      "pan": 7471,
      "Ġinfant": 7472,
      "ogether": 7473,
      "Ġroads": 7474,
      "Ġaimed": 7475,
      "Ġjump": 7476,
      "Ġprocessed": 7477,
      "ĠEngineering": 7478,
      "BT": 7479,
      "yal": 7480,
      "fts": 7481,
      "Ġescape": 7482,
      "amine": 7483,
      "ĠFund": 7484,
      "Ġheavily": 7485,
      "Ġdecor": 7486,
      "Ġended": 7487,
      "Ġplayer": 7488,
      "Ġcaptured": 7489,
      "ĠUnderstanding": 7490,
      "opes": 7491,
      "Ġtut": 7492,
      "ĠIdent": 7493,
      "Ġstead": 7494,
      "Ġhorses": 7495,
      "Ġmanufacturers": 7496,
      "Ã¶": 7497,
      "ooking": 7498,
      "ĠCommunity": 7499,
      "Ġcapability": 7500,
      "Ġparameters": 7501,
      "ĠKingdom": 7502,
      "Ġinitially": 7503,
      "ittle": 7504,
      "Ġcommission": 7505,
      "Ġcontrovers": 7506,
      "ĠVictor": 7507,
      "iah": 7508,
      "levision": 7509,
      "ailed": 7510,
      "Ġstyles": 7511,
      "Ġelection": 7512,
      "Ġintest": 7513,
      "Ġcriminal": 7514,
      "Ġintensity": 7515,
      "Ġcompens": 7516,
      "Ġprivacy": 7517,
      "Ġitem": 7518,
      "Ġaband": 7519,
      "Ġparallel": 7520,
      "Ġprominent": 7521,
      "usive": 7522,
      "Ġexploring": 7523,
      "Ġquantum": 7524,
      "Ġrespectively": 7525,
      "Ġartist": 7526,
      "Ġextend": 7527,
      "Ġexceed": 7528,
      "ĠPolicy": 7529,
      "Ġscope": 7530,
      "Ġpassing": 7531,
      "Ġstre": 7532,
      "itarian": 7533,
      "ĠResources": 7534,
      "Ġmicrob": 7535,
      "esh": 7536,
      "Ġsuperior": 7537,
      "ĠMichael": 7538,
      "Ġobserve": 7539,
      "Ġaddressed": 7540,
      "Every": 7541,
      "Ġweakness": 7542,
      "ĠVe": 7543,
      "Ġmarks": 7544,
      "Ġoverwhel": 7545,
      "Ġequally": 7546,
      "ĠThough": 7547,
      "Ġdelivered": 7548,
      "eness": 7549,
      "orph": 7550,
      "Ġorders": 7551,
      "Ġdriver": 7552,
      "ĠHoly": 7553,
      "friendly": 7554,
      "CP": 7555,
      "Ġforg": 7556,
      "Ġliteracy": 7557,
      "Ġcham": 7558,
      "pes": 7559,
      "eut": 7560,
      "ĠFamily": 7561,
      "ĠTV": 7562,
      "Ġemphasis": 7563,
      "Ġfalls": 7564,
      "eren": 7565,
      "Ġremind": 7566,
      "elesc": 7567,
      "Ġnone": 7568,
      "Ġminimize": 7569,
      "Ġclient": 7570,
      "aying": 7571,
      "ĠSup": 7572,
      "Ġrecycling": 7573,
      "Ġcorner": 7574,
      "Ġarchae": 7575,
      "esis": 7576,
      "ĠAT": 7577,
      "Ġvideos": 7578,
      "Ġflexible": 7579,
      "ĠWord": 7580,
      "Ġflower": 7581,
      "Ġconsiderable": 7582,
      "Ġinterventions": 7583,
      "Ġnob": 7584,
      "rane": 7585,
      "asts": 7586,
      "Ġconserv": 7587,
      "icity": 7588,
      "ĠItalian": 7589,
      "Ġregardless": 7590,
      "ĠLim": 7591,
      "Step": 7592,
      "ĠViet": 7593,
      "Ġfung": 7594,
      "Ġchances": 7595,
      "ĠIrish": 7596,
      "eenth": 7597,
      "Ġmineral": 7598,
      "Ġrobust": 7599,
      "Ġuniversal": 7600,
      "ĠAvoid": 7601,
      "Ġcorrel": 7602,
      "Ġpublication": 7603,
      "Ġproportion": 7604,
      "Ġneither": 7605,
      "Ġsilver": 7606,
      "ĠAuthor": 7607,
      "Ġflour": 7608,
      "ostic": 7609,
      "ĠHQ": 7610,
      "Ġreporting": 7611,
      "ĊĠĠ": 7612,
      "ictionary": 7613,
      "ady": 7614,
      "brid": 7615,
      "omatic": 7616,
      "adder": 7617,
      "Ġautomatically": 7618,
      "eping": 7619,
      "Ġstations": 7620,
      "etime": 7621,
      "rary": 7622,
      "olesc": 7623,
      "ĠSometimes": 7624,
      "IF": 7625,
      "Ġlaser": 7626,
      "ĠFace": 7627,
      "Ġinn": 7628,
      "Ġpursu": 7629,
      "Ġspecialized": 7630,
      "Ġformula": 7631,
      "Ġholes": 7632,
      "Ġease": 7633,
      "Ġbeings": 7634,
      "Ġstatements": 7635,
      "Ġwheel": 7636,
      "ĠGeorg": 7637,
      "Ġexpectations": 7638,
      "Ġfishing": 7639,
      "Ġtap": 7640,
      "Ġexclus": 7641,
      "amples": 7642,
      "iral": 7643,
      "acco": 7644,
      "Ġchest": 7645,
      "ĠFort": 7646,
      "aded": 7647,
      "Ġecosystems": 7648,
      "Ġcompound": 7649,
      "Ġinsert": 7650,
      "Ġessentially": 7651,
      "Ġaddiction": 7652,
      "Ġouter": 7653,
      "Ġlimitations": 7654,
      "giene": 7655,
      "Ġchlor": 7656,
      "Ġrocks": 7657,
      "Ġgro": 7658,
      "asty": 7659,
      "Ġinsight": 7660,
      "itual": 7661,
      "Ġplanting": 7662,
      "ĠProcess": 7663,
      "lishing": 7664,
      "ĠMinister": 7665,
      "Ġphoto": 7666,
      "urric": 7667,
      "Ġdose": 7668,
      "ĠChicago": 7669,
      "Ġsuscept": 7670,
      "Ġdollars": 7671,
      "Ġparagraph": 7672,
      "heimer": 7673,
      "Ġduty": 7674,
      "rey": 7675,
      "Ġprohib": 7676,
      "ĠHosp": 7677,
      "AV": 7678,
      "Ġsched": 7679,
      "ĠPet": 7680,
      "Ġstatistics": 7681,
      "Ġassigned": 7682,
      "ĠSecret": 7683,
      "Ġdipl": 7684,
      "lines": 7685,
      "Ġid": 7686,
      "Ġbranch": 7687,
      "semb": 7688,
      "Because": 7689,
      "ĠISBN": 7690,
      "OP": 7691,
      "Ġsimultane": 7692,
      "Ġinterpre": 7693,
      "mers": 7694,
      "ĠLight": 7695,
      "Ġcontributing": 7696,
      "ĠIslam": 7697,
      "Today": 7698,
      "ĠInit": 7699,
      "Ġradical": 7700,
      "Ġinterpretation": 7701,
      ".|": 7702,
      "Ġarrest": 7703,
      "GS": 7704,
      "Ġsupplements": 7705,
      "Ġlock": 7706,
      "ĠBrown": 7707,
      "oured": 7708,
      "Ġconvey": 7709,
      "Ġov": 7710,
      "power": 7711,
      "IM": 7712,
      "iary": 7713,
      "oir": 7714,
      "Ġplus": 7715,
      "Ġacute": 7716,
      "Ġpounds": 7717,
      "Ġdoi": 7718,
      "Ġreaching": 7719,
      "ontal": 7720,
      "Ġboys": 7721,
      "emia": 7722,
      "ECT": 7723,
      "ogs": 7724,
      "Ġconfirmed": 7725,
      "ĠCapt": 7726,
      "Ġdecreased": 7727,
      "Ġneutral": 7728,
      "onal": 7729,
      "tles": 7730,
      "har": 7731,
      "Ġmeasuring": 7732,
      "Ġampl": 7733,
      "ĠBusiness": 7734,
      "Ġsensitivity": 7735,
      "Ġlighting": 7736,
      "Ġboy": 7737,
      "Ġachieving": 7738,
      "Ġeducators": 7739,
      "Ġhappening": 7740,
      "Ġdefend": 7741,
      "itting": 7742,
      "Ġalter": 7743,
      "Ġempt": 7744,
      "ĠColl": 7745,
      "Ġhoney": 7746,
      "ĠAC": 7747,
      "Ġvolcan": 7748,
      "Ġfemales": 7749,
      "Ġobst": 7750,
      "Am": 7751,
      "Ġasp": 7752,
      "Pre": 7753,
      "Ġwindows": 7754,
      "Ġsizes": 7755,
      "Ġsomewhat": 7756,
      "ĠFinally": 7757,
      "Ġrepresentation": 7758,
      "Ġnitrogen": 7759,
      "Ġrestric": 7760,
      "Ġmales": 7761,
      "Ġcounty": 7762,
      "rox": 7763,
      "Ġactively": 7764,
      "Ġchoosing": 7765,
      "Ġhidden": 7766,
      "osh": 7767,
      "Ġresilience": 7768,
      "Ġtrauma": 7769,
      "cycl": 7770,
      "Ġmortality": 7771,
      "ĠAdministration": 7772,
      "Ġanywhere": 7773,
      "Ġwebsites": 7774,
      "sm": 7775,
      "Ġexciting": 7776,
      "ĠImpro": 7777,
      "Ġjudge": 7778,
      "ĠLib": 7779,
      "Ġefficiently": 7780,
      "Ġnewly": 7781,
      "Ġracial": 7782,
      "Ġarray": 7783,
      "Ġchannel": 7784,
      "Ġconcerning": 7785,
      "Ġinvestigation": 7786,
      "Ġreput": 7787,
      "Ġinitiative": 7788,
      "Le": 7789,
      "Ġmotivation": 7790,
      "advant": 7791,
      "greg": 7792,
      "Ġantioxid": 7793,
      "Ġduration": 7794,
      "Ġobservation": 7795,
      "class": 7796,
      "ghan": 7797,
      "Ġspin": 7798,
      "Ġcardiovascular": 7799,
      "Ġmolecular": 7800,
      "Ġmanual": 7801,
      "Ġprofit": 7802,
      "ecess": 7803,
      "atively": 7804,
      "ĠChristmas": 7805,
      "Ġrarely": 7806,
      "ĠMer": 7807,
      "ĠSuper": 7808,
      "Ġ1997": 7809,
      "Ġtrigger": 7810,
      "Ġsensor": 7811,
      "Ġcompost": 7812,
      "produ": 7813,
      "rous": 7814,
      "Ġadvis": 7815,
      "Cons": 7816,
      "Ġcab": 7817,
      "ocial": 7818,
      "Ġasthma": 7819,
      "heric": 7820,
      "ĠBal": 7821,
      "Ġcircle": 7822,
      "ĠPop": 7823,
      "Ġenabling": 7824,
      "illa": 7825,
      "Ġquantity": 7826,
      "71": 7827,
      "Ġuniform": 7828,
      "Ġfourth": 7829,
      "including": 7830,
      "ĠNavy": 7831,
      "reated": 7832,
      "Ġdates": 7833,
      "theless": 7834,
      "Ġinher": 7835,
      "ĠAtlantic": 7836,
      "Ġunusual": 7837,
      "ĠZeal": 7838,
      "ruit": 7839,
      "ĠHand": 7840,
      "Ġpersonality": 7841,
      "Ġscreening": 7842,
      "ĠFigure": 7843,
      "Ġtemple": 7844,
      "oys": 7845,
      "Ġmarketing": 7846,
      "rat": 7847,
      "Ġhusband": 7848,
      "Ġbarriers": 7849,
      "Ġsessions": 7850,
      "ĠLearn": 7851,
      "ployment": 7852,
      "ĠAmong": 7853,
      "ĠTable": 7854,
      "Ġimprovements": 7855,
      "ĠProtection": 7856,
      "igan": 7857,
      "ĠTeac": 7858,
      "ounce": 7859,
      "atial": 7860,
      "ested": 7861,
      "Ġautism": 7862,
      "Co": 7863,
      "Ġbiology": 7864,
      "Ġexhaust": 7865,
      "Ġrobot": 7866,
      "onym": 7867,
      "ĠEffect": 7868,
      "ĠIV": 7869,
      "ĠOrganization": 7870,
      "ĠJul": 7871,
      "Ġ2022": 7872,
      "Ġrelie": 7873,
      "Ġdeeply": 7874,
      "Ġremarkable": 7875,
      "Ġdur": 7876,
      "ressing": 7877,
      "Ġrab": 7878,
      "Ġseemed": 7879,
      "ĠSS": 7880,
      "Ġ400": 7881,
      "AI": 7882,
      "kins": 7883,
      "ĠFact": 7884,
      "ĠPot": 7885,
      "Ġfairly": 7886,
      "Ġimplementing": 7887,
      "Ġearthqu": 7888,
      "Ġwriters": 7889,
      "Ġmeaningful": 7890,
      "Ġexamined": 7891,
      "ano": 7892,
      "Ġbiodiversity": 7893,
      "Ġlie": 7894,
      "avery": 7895,
      "Ġmodified": 7896,
      "Ġpestic": 7897,
      "Ġimaging": 7898,
      "Ġphotos": 7899,
      "Ġfed": 7900,
      "Ġincident": 7901,
      "asant": 7902,
      "ĠConsider": 7903,
      "Ġcovering": 7904,
      "Ġcounsel": 7905,
      "ĠIndians": 7906,
      "Ġenhancing": 7907,
      "ĠLevel": 7908,
      "etary": 7909,
      "Ġdetected": 7910,
      "icy": 7911,
      "72": 7912,
      "Ġfatigue": 7913,
      "ĠAssess": 7914,
      "Ġbrows": 7915,
      "EE": 7916,
      "OD": 7917,
      "Ġsafely": 7918,
      "Ġphosph": 7919,
      "Ġprogramme": 7920,
      "Ġprincipal": 7921,
      "def": 7922,
      "Ġbees": 7923,
      "Ġdiameter": 7924,
      "Ġinspired": 7925,
      "Ġadm": 7926,
      "Ġbigger": 7927,
      "Ġlosses": 7928,
      "Ġtack": 7929,
      "rav": 7930,
      "reek": 7931,
      "Ġbiom": 7932,
      "Ġinterface": 7933,
      "ĠZealand": 7934,
      "ĠÐ": 7935,
      "Ġfriendly": 7936,
      "Ġintegrity": 7937,
      "Ġopposed": 7938,
      "Ġreveal": 7939,
      "Ġprinted": 7940,
      "Ġinequ": 7941,
      "Ġpriority": 7942,
      "Ġconj": 7943,
      "Ġimagine": 7944,
      "Ġdisabilities": 7945,
      "Ġscar": 7946,
      "Ġproved": 7947,
      "Ġcontributed": 7948,
      "Ġexception": 7949,
      "soft": 7950,
      "ĠRock": 7951,
      "ĠMot": 7952,
      "Ġentertain": 7953,
      "ĠModern": 7954,
      "Ġhence": 7955,
      "ĠDistrict": 7956,
      "ĠMach": 7957,
      "quir": 7958,
      "Ġperm": 7959,
      "Ġpreserve": 7960,
      "Ġwine": 7961,
      "aining": 7962,
      "Ġemerged": 7963,
      "print": 7964,
      "Ġvocabulary": 7965,
      "ographical": 7966,
      "Ġminute": 7967,
      "Ġrhyth": 7968,
      "Ġislands": 7969,
      "df": 7970,
      "ĠBang": 7971,
      "Ġroughly": 7972,
      "ĠWithout": 7973,
      "mentation": 7974,
      "uten": 7975,
      "Ġorbit": 7976,
      "ĠCH": 7977,
      "Ġgrows": 7978,
      "Ġneighborhood": 7979,
      "Ġaccompan": 7980,
      "ĠMartin": 7981,
      "Ġassume": 7982,
      "example": 7983,
      "ĠYoung": 7984,
      "Ġsurge": 7985,
      "arents": 7986,
      "rance": 7987,
      "Ġfinished": 7988,
      "Ġfra": 7989,
      "Ġpriorit": 7990,
      "ĠRom": 7991,
      "Ġflows": 7992,
      "world": 7993,
      "Ġusual": 7994,
      "ĠArticle": 7995,
      "Ġupdated": 7996,
      "Ġfatty": 7997,
      "ĠDar": 7998,
      "Ġcomplexity": 7999,
      "Ġenhanced": 8000,
      "Ġdirected": 8001,
      "Ġbutton": 8002,
      "Ġdrivers": 8003,
      "Part": 8004,
      "Ġwisdom": 8005,
      "Ġtick": 8006,
      "Ġconfirm": 8007,
      "Ġintroduce": 8008,
      "Ġtropical": 8009,
      "Ġbomb": 8010,
      "ĠLar": 8011,
      "ĠWik": 8012,
      "Ġmusical": 8013,
      "Ġconflicts": 8014,
      "Ġcompetitive": 8015,
      "ĠWho": 8016,
      "Ġvertical": 8017,
      "sell": 8018,
      "Ġmoderate": 8019,
      "Ġapplying": 8020,
      "Ġtargeted": 8021,
      "rays": 8022,
      "Ġkilomet": 8023,
      "ĠMel": 8024,
      "bar": 8025,
      "Ġvariations": 8026,
      "ĠCurrent": 8027,
      "Ġremoving": 8028,
      "EF": 8029,
      "plete": 8030,
      "ĠKey": 8031,
      "Ġclaimed": 8032,
      "Per": 8033,
      "Ġfats": 8034,
      "ourse": 8035,
      "Ġorganis": 8036,
      "Ġtowns": 8037,
      "Ġ1996": 8038,
      "Ġmathematics": 8039,
      "Ġenthus": 8040,
      "Ġvaccines": 8041,
      "iations": 8042,
      "ĠWindows": 8043,
      "Ġdiscussions": 8044,
      "Ġattitude": 8045,
      "Ġviewed": 8046,
      "Ġgranted": 8047,
      "Ġdetermining": 8048,
      "riz": 8049,
      "unicip": 8050,
      "lock": 8051,
      "rating": 8052,
      "alities": 8053,
      "Ġcontainer": 8054,
      "ĠNaz": 8055,
      "Are": 8056,
      "Ġdimens": 8057,
      "ĠDivision": 8058,
      "Ġcontribution": 8059,
      "Ġslavery": 8060,
      "ateral": 8061,
      "ĠHill": 8062,
      "Ġmir": 8063,
      "Ġforming": 8064,
      "Ġceremon": 8065,
      "Ġperforming": 8066,
      "archy": 8067,
      "security": 8068,
      "People": 8069,
      "ĠNov": 8070,
      "Ġfuels": 8071,
      "Ġshed": 8072,
      "Ġ1950": 8073,
      "83": 8074,
      "Ġevil": 8075,
      "Ġclients": 8076,
      "Ġ33": 8077,
      "Ġisolated": 8078,
      "Ġconce": 8079,
      "84": 8080,
      "zheimer": 8081,
      "Ġsatisfact": 8082,
      "Ġdigestive": 8083,
      "Ġsummary": 8084,
      "ĠRoad": 8085,
      "Ġmicrosc": 8086,
      "ĠIncre": 8087,
      "Ġconstrain": 8088,
      "ĠTre": 8089,
      "Before": 8090,
      "Ġplane": 8091,
      "peror": 8092,
      "Ġcort": 8093,
      "Ġtemporary": 8094,
      "Ġbacterial": 8095,
      "ĠNever": 8096,
      "Ġgases": 8097,
      "pectives": 8098,
      "ograp": 8099,
      "Ġsmell": 8100,
      "mented": 8101,
      "isted": 8102,
      "ĠMah": 8103,
      "Ġcreatures": 8104,
      "Ġlake": 8105,
      "Ġsuffered": 8106,
      "Ġsitting": 8107,
      "neys": 8108,
      "Ġcollective": 8109,
      "Ġamazing": 8110,
      "Â·": 8111,
      "Ġaudio": 8112,
      "Ġtaxes": 8113,
      "iat": 8114,
      "Ġworkplace": 8115,
      "ĠSection": 8116,
      "Ġestablishment": 8117,
      "ĠSwed": 8118,
      "Ġtransmit": 8119,
      "Ġvariation": 8120,
      "ĠUt": 8121,
      "Ġquiet": 8122,
      "Ġritual": 8123,
      "oids": 8124,
      "Ġkeeps": 8125,
      "ette": 8126,
      "Ġsavings": 8127,
      "Ġclassified": 8128,
      "otherapy": 8129,
      "Ġlens": 8130,
      "ĠKar": 8131,
      "Ġantibiotics": 8132,
      "Ġpropag": 8133,
      "81": 8134,
      "ĠOnline": 8135,
      "Ġbehavioral": 8136,
      "73": 8137,
      "Ġplot": 8138,
      "Ġcontributions": 8139,
      "ĠDen": 8140,
      "Ġnutritional": 8141,
      "Ġearliest": 8142,
      "ĠModel": 8143,
      "Ġgrain": 8144,
      "ĠMoon": 8145,
      "Ġcoc": 8146,
      "cking": 8147,
      "Ġgalax": 8148,
      "olving": 8149,
      "ĠBill": 8150,
      "eries": 8151,
      "Ġconcluded": 8152,
      "Ġedition": 8153,
      "ĠCorps": 8154,
      "Ġdrought": 8155,
      "ĠOxford": 8156,
      "rection": 8157,
      "ĠCell": 8158,
      "PT": 8159,
      "Ġcoron": 8160,
      "aws": 8161,
      "Ġcul": 8162,
      "raine": 8163,
      "illance": 8164,
      "Ġtranslation": 8165,
      "Ġoccurring": 8166,
      "Ġrose": 8167,
      "Ġappeal": 8168,
      "quarters": 8169,
      "Ġattach": 8170,
      "ĠMD": 8171,
      "Ġecological": 8172,
      "ao": 8173,
      "ĠMen": 8174,
      "ĠDou": 8175,
      "Ġmetals": 8176,
      "Ġflying": 8177,
      "ĠSupreme": 8178,
      "Ġexperimental": 8179,
      "Ġdegrad": 8180,
      "oric": 8181,
      "Ġordered": 8182,
      "Ġsoul": 8183,
      "rypt": 8184,
      "Ġconsumed": 8185,
      "night": 8186,
      "ega": 8187,
      "ĠTO": 8188,
      "Ġagent": 8189,
      "Ġepis": 8190,
      "Ġscientist": 8191,
      "Ġmixture": 8192,
      "Ġaccurately": 8193,
      "ĠpH": 8194,
      "Ġassembly": 8195,
      "Ġranging": 8196,
      "ĠAM": 8197,
      "Ġevident": 8198,
      "istant": 8199,
      "AG": 8200,
      "ĠNeed": 8201,
      "Ġacquired": 8202,
      "Ġphysically": 8203,
      "Ġpoem": 8204,
      "Ġcolonial": 8205,
      "Ġdance": 8206,
      "Ġillegal": 8207,
      "Ġcaught": 8208,
      "CR": 8209,
      "ĠMinistry": 8210,
      "ĠInteg": 8211,
      "Ġresid": 8212,
      "Reg": 8213,
      "Ġfalling": 8214,
      "iana": 8215,
      "Ġwider": 8216,
      "ĠKorea": 8217,
      "Ġ1995": 8218,
      "Ġperceived": 8219,
      "rison": 8220,
      "Ġsoph": 8221,
      "Ear": 8222,
      "Ġtot": 8223,
      "ĠFind": 8224,
      "ener": 8225,
      "Ġdisability": 8226,
      "74": 8227,
      "Ġsectors": 8228,
      "Ġhealthier": 8229,
      "Ġfaces": 8230,
      "Ġfinds": 8231,
      "Ġol": 8232,
      "ĠDigital": 8233,
      "Ġmaybe": 8234,
      "Ġenorm": 8235,
      "rolled": 8236,
      "Ġrac": 8237,
      "compass": 8238,
      "Ġmine": 8239,
      "Ġtelevision": 8240,
      "Get": 8241,
      "Note": 8242,
      "Ġemotion": 8243,
      "ĠUr": 8244,
      "Ġgrains": 8245,
      "oli": 8246,
      "ĠInvest": 8247,
      "Ġheads": 8248,
      "Ġanticip": 8249,
      "orted": 8250,
      "ĠVer": 8251,
      "uum": 8252,
      "allow": 8253,
      "Ġpla": 8254,
      "Ġdeficiency": 8255,
      "agnetic": 8256,
      "Ġargue": 8257,
      "Ġphysician": 8258,
      "Ġhumanity": 8259,
      "words": 8260,
      "ude": 8261,
      "Ġrect": 8262,
      "Ġsubt": 8263,
      "eting": 8264,
      "Ġinstant": 8265,
      "Ġshaped": 8266,
      "Ġbroader": 8267,
      "ĠCost": 8268,
      "Ġachievement": 8269,
      "ailable": 8270,
      "Ġbag": 8271,
      "issance": 8272,
      "mod": 8273,
      "Ġharder": 8274,
      "lete": 8275,
      "Ġmountains": 8276,
      "ĠObs": 8277,
      "ĠPlease": 8278,
      "Table": 8279,
      "ĠThree": 8280,
      "ĠBack": 8281,
      "Ġdemocracy": 8282,
      "itory": 8283,
      "Ġsup": 8284,
      "ĠLess": 8285,
      "vision": 8286,
      "HS": 8287,
      "ema": 8288,
      "Ġsurg": 8289,
      "ĠGrand": 8290,
      "Ġconqu": 8291,
      "Ġfascinating": 8292,
      "Ġvel": 8293,
      "Ġtables": 8294,
      "ali": 8295,
      "efits": 8296,
      "uity": 8297,
      "96": 8298,
      "Ġcord": 8299,
      "otype": 8300,
      "Ġmigration": 8301,
      "icular": 8302,
      "Ġirrig": 8303,
      "ĠAngel": 8304,
      "htt": 8305,
      "Ġgent": 8306,
      "Ġaged": 8307,
      "Ġpassion": 8308,
      "azon": 8309,
      "Ġ55": 8310,
      "abeth": 8311,
      "Ġworship": 8312,
      "oston": 8313,
      "Ġoutdoor": 8314,
      "aska": 8315,
      "ĠCross": 8316,
      "Ġcompliance": 8317,
      "ĠPrevention": 8318,
      "ĠCoast": 8319,
      "ĠEp": 8320,
      "Ġseat": 8321,
      "iments": 8322,
      "Ġminimal": 8323,
      "Ġpsychology": 8324,
      "Ġmanager": 8325,
      "Ġelected": 8326,
      "Despite": 8327,
      "Ġphrase": 8328,
      "pled": 8329,
      "ĠRam": 8330,
      "She": 8331,
      "Ġsocieties": 8332,
      "Ġprecision": 8333,
      "rix": 8334,
      "Ġeditor": 8335,
      "ĠBehav": 8336,
      "Ġlungs": 8337,
      "ĠFour": 8338,
      "ĠCode": 8339,
      "Ġmathematical": 8340,
      "Ġfinger": 8341,
      "flamm": 8342,
      "ĠDom": 8343,
      "Ġpace": 8344,
      "Ġgum": 8345,
      "Ġtens": 8346,
      "Ġmosquit": 8347,
      "Ġexhibit": 8348,
      "Ġtraits": 8349,
      "82": 8350,
      "Ġexpanded": 8351,
      "Ġrequiring": 8352,
      "Ġcarbohyd": 8353,
      "ieval": 8354,
      "ĠAlzheimer": 8355,
      "ĠContin": 8356,
      "angered": 8357,
      "athered": 8358,
      "ĠChief": 8359,
      "Ġengines": 8360,
      "Ġinstallation": 8361,
      "Ġton": 8362,
      "acent": 8363,
      "Ġpreferred": 8364,
      "Ġinfluences": 8365,
      "Ġhighlights": 8366,
      "owered": 8367,
      "Ġthrive": 8368,
      "Ġgast": 8369,
      "Ġfeels": 8370,
      "Ġspecified": 8371,
      "EO": 8372,
      "Ġshoot": 8373,
      "apor": 8374,
      "Ġcalculated": 8375,
      "'m": 8376,
      "ĠLiter": 8377,
      "ket": 8378,
      "ĠBattle": 8379,
      "anger": 8380,
      "ĠEconomic": 8381,
      "Ġhol": 8382,
      "Ġobstac": 8383,
      "ura": 8384,
      "ĠSund": 8385,
      "Ġworst": 8386,
      "Ġstuff": 8387,
      "Ġmg": 8388,
      "AA": 8389,
      "Ġcann": 8390,
      "ulpt": 8391,
      "ĠSurvey": 8392,
      "Ġjoy": 8393,
      "izational": 8394,
      "ĠCast": 8395,
      "Ġcharacteristic": 8396,
      "Ġurine": 8397,
      "Ġregulatory": 8398,
      "Ġscenario": 8399,
      "ĠSP": 8400,
      "Ġhunting": 8401,
      "Ġdynamics": 8402,
      "amps": 8403,
      "Ġhabitats": 8404,
      "ĠTim": 8405,
      "Ġrational": 8406,
      "ildren": 8407,
      "Ġsuit": 8408,
      "Ġfarms": 8409,
      "Ġapps": 8410,
      "Using": 8411,
      "oln": 8412,
      "alm": 8413,
      "Ġnom": 8414,
      "Ġraising": 8415,
      "Ġdim": 8416,
      "IDS": 8417,
      "Ġstones": 8418,
      "Ġelder": 8419,
      "ĠVar": 8420,
      "Ġdevelopments": 8421,
      "Ġdecay": 8422,
      "estions": 8423,
      "Ġpilot": 8424,
      "Ġ95": 8425,
      "ĠID": 8426,
      "Ġdesert": 8427,
      "arios": 8428,
      "Ġpayment": 8429,
      "disc": 8430,
      "oves": 8431,
      "Ġhormones": 8432,
      "books": 8433,
      "ĠArea": 8434,
      "Ġstrike": 8435,
      "Ġye": 8436,
      "Ġversions": 8437,
      "iva": 8438,
      "edu": 8439,
      "Ġforecast": 8440,
      "Ġjoints": 8441,
      "egu": 8442,
      "Ġpossibilities": 8443,
      "Ġtor": 8444,
      "borne": 8445,
      "unning": 8446,
      "Ġsymbols": 8447,
      "ĠForest": 8448,
      "Ġinvolvement": 8449,
      "ylvan": 8450,
      "ĠIslamic": 8451,
      "Ġconference": 8452,
      "Ġcotton": 8453,
      "ĠSir": 8454,
      "Ġlymph": 8455,
      "ĠDC": 8456,
      "Ġwithdraw": 8457,
      "Ġpeoples": 8458,
      "Ed": 8459,
      "isition": 8460,
      "Ġtransformation": 8461,
      "Ġtension": 8462,
      "Ġoldest": 8463,
      "Ġinhabit": 8464,
      "enger": 8465,
      "Ġresearcher": 8466,
      "Understanding": 8467,
      "Ġcalling": 8468,
      "Ġhygiene": 8469,
      "ĠAfghan": 8470,
      "real": 8471,
      "Ġgiant": 8472,
      "ĠTop": 8473,
      "ĠStar": 8474,
      "ounder": 8475,
      "apes": 8476,
      "ĠEr": 8477,
      "ipedia": 8478,
      "Ġspray": 8479,
      "ĠUnit": 8480,
      "ipe": 8481,
      "SP": 8482,
      "________": 8483,
      "à¥": 8484,
      "Ġpolar": 8485,
      "Ġsaving": 8486,
      "ĠUV": 8487,
      "Ġprofile": 8488,
      "Ġnavigate": 8489,
      "erts": 8490,
      "Ġdescript": 8491,
      "Ġcontrolling": 8492,
      "hea": 8493,
      "Ġpets": 8494,
      "Ġdevelopers": 8495,
      "02": 8496,
      "Ġom": 8497,
      "56": 8498,
      "ĠPo": 8499,
      "ĠUk": 8500,
      "yer": 8501,
      "Ġdirections": 8502,
      "ĠHeart": 8503,
      "Ġsubstit": 8504,
      "Where": 8505,
      "Ġarise": 8506,
      "06": 8507,
      "Ġspots": 8508,
      "ĠHospital": 8509,
      "Ġintellig": 8510,
      "Ġpreced": 8511,
      "ailing": 8512,
      "Ġentering": 8513,
      "Ġreplacement": 8514,
      "ĠHeb": 8515,
      "ĠSustain": 8516,
      "va": 8517,
      "Ġempower": 8518,
      "Ġstakeholders": 8519,
      "Ġscores": 8520,
      "Ġcharged": 8521,
      "ĠNote": 8522,
      "mentia": 8523,
      "Ġpromise": 8524,
      "asy": 8525,
      "Ġreverse": 8526,
      "Ġherb": 8527,
      "HA": 8528,
      "oster": 8529,
      "Ġalph": 8530,
      "vol": 8531,
      "Ġsteam": 8532,
      "Ġthemes": 8533,
      "LS": 8534,
      "Ġchemistry": 8535,
      "ucky": 8536,
      "ĠChristians": 8537,
      "Ġtong": 8538,
      "Ġweapon": 8539,
      "Ġasc": 8540,
      "Ġequipped": 8541,
      "Ġwaiting": 8542,
      "Art": 8543,
      "box": 8544,
      "Ġprox": 8545,
      "adow": 8546,
      "ĠAsk": 8547,
      "Ġtracking": 8548,
      "through": 8549,
      "Ġseparated": 8550,
      "Ġhypothesis": 8551,
      "Ġwelfare": 8552,
      "Ġquarter": 8553,
      "Ġequality": 8554,
      "Ġdiscom": 8555,
      "Ġminds": 8556,
      "ĠWall": 8557,
      "vin": 8558,
      "ĠTry": 8559,
      "izers": 8560,
      "Ġrestore": 8561,
      "Ġlip": 8562,
      "ĠVen": 8563,
      "Ġqualities": 8564,
      "ĠScotland": 8565,
      "Ġwheat": 8566,
      "ĠJac": 8567,
      "Ġcure": 8568,
      "Ġthread": 8569,
      "raq": 8570,
      "ĠJohnson": 8571,
      "Ġregarded": 8572,
      "ipher": 8573,
      "Ġliterary": 8574,
      "ricts": 8575,
      "Ġacknowled": 8576,
      "Ġunn": 8577,
      "Ġessays": 8578,
      "MC": 8579,
      "igare": 8580,
      "Ġwarfare": 8581,
      "ivest": 8582,
      "century": 8583,
      "urning": 8584,
      "ependent": 8585,
      "una": 8586,
      "Ġconsciousness": 8587,
      "Ġproc": 8588,
      "Ġalternatives": 8589,
      "ĠLine": 8590,
      "Ġdiffer": 8591,
      "omer": 8592,
      "ĠSar": 8593,
      "Ġprey": 8594,
      "vard": 8595,
      "Ġfur": 8596,
      "obile": 8597,
      "ĠPur": 8598,
      "Ġunion": 8599,
      "Ġaddresses": 8600,
      "Ġcirculation": 8601,
      "Ġwars": 8602,
      "ĠReading": 8603,
      "About": 8604,
      "Ġcalm": 8605,
      "ĠImport": 8606,
      "uro": 8607,
      "Ġtransactions": 8608,
      "awn": 8609,
      "Ġmur": 8610,
      "Ġgeomet": 8611,
      "ĠForces": 8612,
      "ĠColumbia": 8613,
      "Ġwearing": 8614,
      "Ġvisited": 8615,
      "Ġmarg": 8616,
      "Ġresponsibilities": 8617,
      "erally": 8618,
      "anted": 8619,
      "ĠMilitary": 8620,
      "Ġfo": 8621,
      "Ġcompass": 8622,
      "Ġcelebrated": 8623,
      "ĠTit": 8624,
      "Ġpopularity": 8625,
      "Ġpit": 8626,
      "Ġincorporate": 8627,
      "Ġaging": 8628,
      "eutic": 8629,
      "ogenic": 8630,
      "Ġbreaking": 8631,
      "Ġwrites": 8632,
      "zym": 8633,
      "Ġdil": 8634,
      "ĠPalest": 8635,
      "ĠHim": 8636,
      "Ġreasonable": 8637,
      "angle": 8638,
      "Ġabsorb": 8639,
      "Ġcattle": 8640,
      "Car": 8641,
      "Ġincent": 8642,
      "Ġestablishing": 8643,
      "Ġpy": 8644,
      "Ġpreparing": 8645,
      "Ġpenet": 8646,
      "Ġ1994": 8647,
      "Ġlosing": 8648,
      "Ġjur": 8649,
      "Ġoxid": 8650,
      "Ġlogic": 8651,
      "endment": 8652,
      "izabeth": 8653,
      "Ġregulate": 8654,
      "Ġtransc": 8655,
      "Aut": 8656,
      "Ġextension": 8657,
      "irth": 8658,
      "ĠSand": 8659,
      "Ġconcentrations": 8660,
      "wan": 8661,
      "ĠTreatment": 8662,
      "isco": 8663,
      "igned": 8664,
      "ython": 8665,
      "Ġmyst": 8666,
      "cyclop": 8667,
      "ĠAff": 8668,
      "Sim": 8669,
      "Ġcelebrate": 8670,
      "Rem": 8671,
      "ylvania": 8672,
      "Ġaccord": 8673,
      "ĠRemember": 8674,
      "Ġcurrency": 8675,
      "Ġutilized": 8676,
      "Ġorganisation": 8677,
      "incoln": 8678,
      "Ġaccounting": 8679,
      "ĠWay": 8680,
      "ols": 8681,
      "Ġadopt": 8682,
      "03": 8683,
      "ceptions": 8684,
      "Also": 8685,
      "Ġchannels": 8686,
      "Ġles": 8687,
      "Ġparad": 8688,
      "ĠDO": 8689,
      "sor": 8690,
      "ĠDue": 8691,
      "Ġorigins": 8692,
      "itchen": 8693,
      "ĠSingh": 8694,
      "atal": 8695,
      "play": 8696,
      "Ġcoat": 8697,
      "ĠConservation": 8698,
      "Ġdense": 8699,
      "Ġslaves": 8700,
      "ercury": 8701,
      "Ġoccas": 8702,
      "09": 8703,
      "Ġbless": 8704,
      "Ġdominant": 8705,
      "Ġconvert": 8706,
      "iger": 8707,
      "ĠBuilding": 8708,
      "ĠPolit": 8709,
      "Ġresc": 8710,
      "Ġordinary": 8711,
      "Ġdiscomfort": 8712,
      "Ġvegetation": 8713,
      "ĠHor": 8714,
      "berry": 8715,
      "Ġbelieves": 8716,
      "Ġfrustr": 8717,
      "Ġclothes": 8718,
      "Ġlinear": 8719,
      "rize": 8720,
      "Ġdisadvant": 8721,
      "EG": 8722,
      "ĠUnfortunately": 8723,
      "Ġkilling": 8724,
      "ĠHindu": 8725,
      "Ġexped": 8726,
      "Ġpowder": 8727,
      "Ġsettlement": 8728,
      "atile": 8729,
      "Ġweigh": 8730,
      "Ġvaries": 8731,
      "erty": 8732,
      "ĠFuture": 8733,
      "Ġimproves": 8734,
      "Ġalive": 8735,
      "esium": 8736,
      "ĠSpirit": 8737,
      "Ġprescribed": 8738,
      "Ġinvestigate": 8739,
      "ĠBlue": 8740,
      "ĠFacebook": 8741,
      "ĠDesc": 8742,
      "Ġfires": 8743,
      "Ġencouraging": 8744,
      "Ġaggressive": 8745,
      "Ġdism": 8746,
      "Ġseverity": 8747,
      "Ġcorresponding": 8748,
      "Use": 8749,
      "Ġoblig": 8750,
      "Ġdairy": 8751,
      "Ġdrag": 8752,
      "Ġabstract": 8753,
      "ashes": 8754,
      "Ġvan": 8755,
      "ĠOhio": 8756,
      "Sm": 8757,
      "ivestock": 8758,
      "Sec": 8759,
      "eor": 8760,
      "Ġslave": 8761,
      "rip": 8762,
      "Ġdifferently": 8763,
      "ĠBu": 8764,
      "Ġopposition": 8765,
      "orrect": 8766,
      "Ġtumor": 8767,
      "Ġclock": 8768,
      "ĠGr": 8769,
      "%,": 8770,
      "Ġadolesc": 8771,
      "04": 8772,
      "ĠMajor": 8773,
      "Ġadoption": 8774,
      "Ġexecutive": 8775,
      "Ġfellow": 8776,
      "Ġalongside": 8777,
      "Ġprovision": 8778,
      "Hist": 8779,
      "Ġfitness": 8780,
      "Ġtempor": 8781,
      "Ġvaried": 8782,
      "imp": 8783,
      "Ġrestrictions": 8784,
      "Ġsentences": 8785,
      "Ġpupils": 8786,
      "Ġuniversities": 8787,
      "Ġbreaks": 8788,
      "icating": 8789,
      "endix": 8790,
      "Ġpermission": 8791,
      "ĠDown": 8792,
      "Ġacting": 8793,
      "Ġnice": 8794,
      "Ġarguments": 8795,
      "efficient": 8796,
      "Ġcable": 8797,
      "ĠCard": 8798,
      "Ġgirl": 8799,
      "###": 8800,
      "ĠMath": 8801,
      "ĠSolar": 8802,
      "Ġtob": 8803,
      "Ã¢": 8804,
      "Ġinherent": 8805,
      "ĠBoston": 8806,
      "Ġflavor": 8807,
      "Ġadapted": 8808,
      "rowth": 8809,
      "reens": 8810,
      "ĠSelf": 8811,
      "ami": 8812,
      "ĠBul": 8813,
      "dep": 8814,
      "Ġpill": 8815,
      "Ġappointed": 8816,
      "Ġcancers": 8817,
      "ĠRight": 8818,
      "Ġdiscipline": 8819,
      "Ġdevast": 8820,
      "erman": 8821,
      "NC": 8822,
      "ĠLin": 8823,
      "Ġboat": 8824,
      "reprene": 8825,
      "ĠBased": 8826,
      "Ġstopped": 8827,
      "Ġbarrier": 8828,
      "Ġloose": 8829,
      "Ġdisplayed": 8830,
      "Ġpointed": 8831,
      "Ġposts": 8832,
      "astics": 8833,
      "chnology": 8834,
      "Ġemployee": 8835,
      "Ġexplicit": 8836,
      "Ġpainful": 8837,
      "Ġscenarios": 8838,
      "Ġinterior": 8839,
      "64": 8840,
      "Ġevening": 8841,
      "Ġblockchain": 8842,
      "Ġdies": 8843,
      "ĠMove": 8844,
      "Ġrevenue": 8845,
      "ĠTom": 8846,
      "Ġscr": 8847,
      "section": 8848,
      "Ġ48": 8849,
      "Ġhouseholds": 8850,
      "tics": 8851,
      "Ġclassical": 8852,
      "Ġtip": 8853,
      "Ġspecialist": 8854,
      "Ġcontributes": 8855,
      "Ġtrick": 8856,
      "ĠRegular": 8857,
      "Ġownership": 8858,
      "ĠQueen": 8859,
      "Ġsurgical": 8860,
      "Ġpractition": 8861,
      "onents": 8862,
      "Ġsolving": 8863,
      "Ġopinions": 8864,
      "ptic": 8865,
      "ĠStaff": 8866,
      "ishop": 8867,
      "Ġroyal": 8868,
      "ools": 8869,
      "encing": 8870,
      "ĠDutch": 8871,
      "elihood": 8872,
      "ĠCirc": 8873,
      "Ġassert": 8874,
      "Ġwatching": 8875,
      "Ġhall": 8876,
      "Ġargued": 8877,
      "Ġdramatic": 8878,
      "Ġanalyzed": 8879,
      "ĠApplic": 8880,
      "ohn": 8881,
      "Ġavoiding": 8882,
      "Ġspoken": 8883,
      "Ġthreatened": 8884,
      "aware": 8885,
      "made": 8886,
      "Ġsimultaneously": 8887,
      "specific": 8888,
      "Ġacres": 8889,
      "Ġmature": 8890,
      "Ġgrounds": 8891,
      "Ġattitudes": 8892,
      "iop": 8893,
      "Ġvarying": 8894,
      "Ġreflects": 8895,
      "yr": 8896,
      "Ġgravity": 8897,
      "Ġtone": 8898,
      "Ġsplit": 8899,
      "urches": 8900,
      "ĠFather": 8901,
      "Ġscheme": 8902,
      "Ġlibr": 8903,
      "Ġ)": 8904,
      "ĊĠĠĠ": 8905,
      "ĠJustice": 8906,
      "Ġchap": 8907,
      "ĠIraq": 8908,
      "ocolate": 8909,
      "Ġfinance": 8910,
      "Ġdefinitely": 8911,
      "Yes": 8912,
      "Ġtobacco": 8913,
      "ĠHelp": 8914,
      "Ġspan": 8915,
      "Each": 8916,
      "RC": 8917,
      "Ġaccidents": 8918,
      "ĠMaterial": 8919,
      "ĠIntelligence": 8920,
      "Ġlowest": 8921,
      "ĠArctic": 8922,
      "Ġ34": 8923,
      "Ġdimensions": 8924,
      "usalem": 8925,
      "Ġdrinks": 8926,
      "umer": 8927,
      "Ġmanagers": 8928,
      "Ġpromotes": 8929,
      "Ġtransmitted": 8930,
      "arming": 8931,
      "ĠPhysical": 8932,
      "hal": 8933,
      "feed": 8934,
      "Ġspinal": 8935,
      "Ġaccompanied": 8936,
      "text": 8937,
      "Ġintention": 8938,
      "Last": 8939,
      "Ġlabour": 8940,
      "Ġindirect": 8941,
      "Ġsodium": 8942,
      "Tra": 8943,
      "Ġmobility": 8944,
      "Ġintric": 8945,
      "ĠOrig": 8946,
      "Ġshorter": 8947,
      "Ġ2024": 8948,
      "Ġfought": 8949,
      "operative": 8950,
      "isting": 8951,
      "Ġbuff": 8952,
      "Ã¤": 8953,
      "ĠStandard": 8954,
      "Ġburied": 8955,
      "Ġpeer": 8956,
      "59": 8957,
      "Ġplanets": 8958,
      "Ġenormous": 8959,
      "ĠLy": 8960,
      "Ġreturns": 8961,
      "fast": 8962,
      "Ġinvestments": 8963,
      "ĠJeff": 8964,
      "Ġfoster": 8965,
      "Ġmothers": 8966,
      "Ġplain": 8967,
      "amil": 8968,
      "ĠField": 8969,
      "Ġsculpt": 8970,
      "Ġencounter": 8971,
      "Ġglobe": 8972,
      "ĠMaster": 8973,
      "Ġcough": 8974,
      "ĠPrince": 8975,
      "aping": 8976,
      "Ġ39": 8977,
      "Ġtrem": 8978,
      "Ġholiday": 8979,
      "Ġillnesses": 8980,
      "Ġembed": 8981,
      "Ġbeans": 8982,
      "69": 8983,
      "nsylvania": 8984,
      "ĠCrit": 8985,
      "Ġgardens": 8986,
      "Ġalumin": 8987,
      "Ġpuzz": 8988,
      "Ġencompass": 8989,
      "Ġcourts": 8990,
      "ĠParliament": 8991,
      "Ġtab": 8992,
      "ugg": 8993,
      "Ġpoetry": 8994,
      "',": 8995,
      "thod": 8996,
      "Ġjudgment": 8997,
      "ĠLast": 8998,
      "Ġwonderful": 8999,
      "Ġstreets": 9000,
      "Ġwal": 9001,
      "kind": 9002,
      "ĠMichigan": 9003,
      "Ġrestoration": 9004,
      "arding": 9005,
      "Ġpose": 9006,
      "ĠProper": 9007,
      "Ġhappiness": 9008,
      "Ġfet": 9009,
      "Ġvalve": 9010,
      "Ġbleeding": 9011,
      "effective": 9012,
      "author": 9013,
      "ĠFar": 9014,
      "Ġclassic": 9015,
      "ĠMedia": 9016,
      "duction": 9017,
      "Ġlists": 9018,
      "Ġencourages": 9019,
      "ĠColon": 9020,
      "Ġmembrane": 9021,
      "Ġconclus": 9022,
      "Ġreveals": 9023,
      "Ġduties": 9024,
      "Pr": 9025,
      "Ġsug": 9026,
      "Ġempty": 9027,
      "ĠSmall": 9028,
      "ĠVitamin": 9029,
      "Ġpaying": 9030,
      "ivation": 9031,
      "mia": 9032,
      "Eng": 9033,
      "Ġalert": 9034,
      "Ġcontinuing": 9035,
      "Ġcoordination": 9036,
      "ĠFOR": 9037,
      "Ġran": 9038,
      "ĠSym": 9039,
      "ĠAgain": 9040,
      "Ġspr": 9041,
      "Ġvig": 9042,
      "Ġelsewhere": 9043,
      "Ġreaches": 9044,
      "ĠHence": 9045,
      "ansas": 9046,
      "08": 9047,
      "Ġtribes": 9048,
      "inates": 9049,
      "ĠIndigenous": 9050,
      "idal": 9051,
      "assium": 9052,
      "ĠProble": 9053,
      "unc": 9054,
      "Ġaest": 9055,
      "Ġ37": 9056,
      "Ġpel": 9057,
      "ĠHebrew": 9058,
      "Ġowned": 9059,
      "Ġdevelops": 9060,
      "Ġprobability": 9061,
      "ĠClick": 9062,
      "Ġmedicines": 9063,
      "ĠÂ£": 9064,
      "Ġperspectives": 9065,
      "Ġrecre": 9066,
      "agen": 9067,
      "rics": 9068,
      "ĠWal": 9069,
      "eem": 9070,
      "Ġversus": 9071,
      "Ġears": 9072,
      "ett": 9073,
      "ĠDelhi": 9074,
      "Ġoptical": 9075,
      "Ġutility": 9076,
      "izz": 9077,
      "OW": 9078,
      "ĠGeorgia": 9079,
      "Ġgear": 9080,
      "hire": 9081,
      "Ġentit": 9082,
      "ocity": 9083,
      "Ġhack": 9084,
      "Ġresistant": 9085,
      "ĠSqu": 9086,
      "wer": 9087,
      "Ġhospitals": 9088,
      "Ġoils": 9089,
      "bour": 9090,
      "'.": 9091,
      "Ġviral": 9092,
      "Ġflash": 9093,
      "enced": 9094,
      "Ġdentist": 9095,
      "Ġoverview": 9096,
      "Ġbias": 9097,
      "Ġprolong": 9098,
      "ifier": 9099,
      "Ġisolation": 9100,
      "asma": 9101,
      "uset": 9102,
      "UL": 9103,
      "icking": 9104,
      "ĠEmer": 9105,
      "Just": 9106,
      "ĠAction": 9107,
      "Ġmetabolism": 9108,
      "Ġsaved": 9109,
      "ĠMA": 9110,
      "ranean": 9111,
      "Ġstabil": 9112,
      "ĠLee": 9113,
      "Ġlifetime": 9114,
      "ivities": 9115,
      "Ġnuts": 9116,
      "Ġclub": 9117,
      "ima": 9118,
      "Ġreflected": 9119,
      "Ġsensory": 9120,
      "ocated": 9121,
      "Ġprevents": 9122,
      "Ġdebris": 9123,
      "ĠLook": 9124,
      "Ġburden": 9125,
      "ĠCambridge": 9126,
      "MO": 9127,
      "aints": 9128,
      "Ġven": 9129,
      "Ġpests": 9130,
      "Ġsusceptible": 9131,
      "Ġsad": 9132,
      "ificate": 9133,
      "Ġadministrative": 9134,
      "Ġbee": 9135,
      "PR": 9136,
      "ĠPass": 9137,
      "ĠPlay": 9138,
      "ĠSpring": 9139,
      "Ġassumed": 9140,
      "Ġproductive": 9141,
      "Further": 9142,
      "plate": 9143,
[...]
